{
  "version": "1.0",
  "truncation": {
    "direction": "Right",
    "max_length": 256,
    "strategy": "LongestFirst",
    "stride": 0
  },
  "padding": {
    "strategy": "BatchLongest",
    "direction": "Right",
    "pad_to_multiple_of": null,
    "pad_id": 2,
    "pad_type_id": 0,
    "pad_token": "[PAD]"
  },
  "added_tokens": [
    {
      "id": 0,
      "content": "[S]",
      "single_word": false,
      "lstrip": false,
      "rstrip": false,
      "normalized": false,
      "special": true
    },
    {
      "id": 1,
      "content": "[/S]",
      "single_word": false,
      "lstrip": false,
      "rstrip": false,
      "normalized": false,
      "special": true
    },
    {
      "id": 2,
      "content": "[PAD]",
      "single_word": false,
      "lstrip": false,
      "rstrip": false,
      "normalized": false,
      "special": true
    },
    {
      "id": 3,
      "content": "[UNK]",
      "single_word": false,
      "lstrip": false,
      "rstrip": false,
      "normalized": false,
      "special": true
    },
    {
      "id": 4,
      "content": "[MASK]",
      "single_word": false,
      "lstrip": false,
      "rstrip": false,
      "normalized": false,
      "special": true
    },
    {
      "id": 5,
      "content": "[USER]",
      "single_word": false,
      "lstrip": false,
      "rstrip": false,
      "normalized": false,
      "special": true
    },
    {
      "id": 6,
      "content": "[JOKE]",
      "single_word": false,
      "lstrip": false,
      "rstrip": false,
      "normalized": false,
      "special": true
    }
  ],
  "normalizer": null,
  "pre_tokenizer": {
    "type": "ByteLevel",
    "add_prefix_space": true,
    "trim_offsets": true,
    "use_regex": true
  },
  "post_processor": {
    "type": "TemplateProcessing",
    "single": [
      {
        "SpecialToken": {
          "id": "[S]",
          "type_id": 0
        }
      },
      {
        "Sequence": {
          "id": "A",
          "type_id": 0
        }
      },
      {
        "SpecialToken": {
          "id": "[/S]",
          "type_id": 0
        }
      }
    ],
    "pair": [
      {
        "SpecialToken": {
          "id": "[S]",
          "type_id": 0
        }
      },
      {
        "Sequence": {
          "id": "A",
          "type_id": 0
        }
      },
      {
        "SpecialToken": {
          "id": "[JOKE]",
          "type_id": 0
        }
      },
      {
        "Sequence": {
          "id": "B",
          "type_id": 0
        }
      },
      {
        "SpecialToken": {
          "id": "[/S]",
          "type_id": 0
        }
      }
    ],
    "special_tokens": {
      "[/S]": {
        "id": "[/S]",
        "ids": [
          1
        ],
        "tokens": [
          "[/S]"
        ]
      },
      "[JOKE]": {
        "id": "[JOKE]",
        "ids": [
          6
        ],
        "tokens": [
          "[JOKE]"
        ]
      },
      "[S]": {
        "id": "[S]",
        "ids": [
          0
        ],
        "tokens": [
          "[S]"
        ]
      }
    }
  },
  "decoder": {
    "type": "ByteLevel",
    "add_prefix_space": true,
    "trim_offsets": true,
    "use_regex": true
  },
  "model": {
    "type": "BPE",
    "dropout": null,
    "unk_token": null,
    "continuing_subword_prefix": null,
    "end_of_word_suffix": null,
    "fuse_unk": false,
    "byte_fallback": false,
    "ignore_merges": false,
    "vocab": {
      "[S]": 0,
      "[/S]": 1,
      "[PAD]": 2,
      "[UNK]": 3,
      "[MASK]": 4,
      "[USER]": 5,
      "[JOKE]": 6,
      "!": 7,
      "\"": 8,
      "'": 9,
      "(": 10,
      ")": 11,
      ",": 12,
      "-": 13,
      ".": 14,
      "0": 15,
      "1": 16,
      "2": 17,
      "3": 18,
      "4": 19,
      "5": 20,
      "6": 21,
      "7": 22,
      "8": 23,
      "9": 24,
      ":": 25,
      ";": 26,
      "?": 27,
      "a": 28,
      "b": 29,
      "c": 30,
      "d": 31,
      "e": 32,
      "f": 33,
      "g": 34,
      "h": 35,
      "i": 36,
      "j": 37,
      "k": 38,
      "l": 39,
      "m": 40,
      "n": 41,
      "o": 42,
      "p": 43,
      "q": 44,
      "r": 45,
      "s": 46,
      "t": 47,
      "u": 48,
      "v": 49,
      "w": 50,
      "x": 51,
      "y": 52,
      "z": 53,
      "Ġ": 54,
      "Ġt": 55,
      "Ġa": 56,
      "he": 57,
      "Ġi": 58,
      "Ġw": 59,
      "Ġs": 60,
      "Ġthe": 61,
      "Ġ.": 62,
      "in": 63,
      "ou": 64,
      "Ġb": 65,
      "Ġm": 66,
      "re": 67,
      "Ġd": 68,
      "on": 69,
      "Ġc": 70,
      "ha": 71,
      "er": 72,
      "Ġ,": 73,
      "Ġ\"": 74,
      "nd": 75,
      "Ġf": 76,
      "ing": 77,
      "Ġp": 78,
      "Ġg": 79,
      "Ġto": 80,
      "an": 81,
      "Ġy": 82,
      "es": 83,
      "ll": 84,
      "or": 85,
      "ed": 86,
      "Ġl": 87,
      "Ġh": 88,
      "Ġyou": 89,
      "Ġo": 90,
      "is": 91,
      "ar": 92,
      "en": 93,
      "Ġhe": 94,
      "Ġand": 95,
      "Ġ?": 96,
      "it": 97,
      "Ġn": 98,
      "hat": 99,
      "Ġin": 100,
      "at": 101,
      "as": 102,
      "om": 103,
      "ay": 104,
      "ow": 105,
      "id": 106,
      "et": 107,
      "Ġha": 108,
      "us": 109,
      "Ġof": 110,
      "Ġit": 111,
      "le": 112,
      "Ġon": 113,
      "Ġdo": 114,
      "ic": 115,
      "ot": 116,
      "ve": 117,
      "Ġe": 118,
      "Ġbe": 119,
      "'s": 120,
      "Ġwhat": 121,
      "Ġmy": 122,
      "al": 123,
      "Ġj": 124,
      "ke": 125,
      "Ġre": 126,
      "Ġis": 127,
      "Ġth": 128,
      "ld": 129,
      "Ġst": 130,
      "ac": 131,
      "Ġwh": 132,
      "ir": 133,
      "ad": 134,
      "Ġ:": 135,
      "ut": 136,
      "ri": 137,
      "all": 138,
      "oo": 139,
      "Ġme": 140,
      "Ġwas": 141,
      "out": 142,
      "gh": 143,
      "Ġ!": 144,
      "ver": 145,
      "Ġthat": 146,
      "Ġan": 147,
      "'t": 148,
      "..": 149,
      "Ġ...": 150,
      "im": 151,
      "ro": 152,
      "Ġas": 153,
      "Ġk": 154,
      "Ġwe": 155,
      "Ġu": 156,
      "Ġfor": 157,
      "am": 158,
      "st": 159,
      "ly": 160,
      "ent": 161,
      "Ġsay": 162,
      "ith": 163,
      "Ġhis": 164,
      "Ġwith": 165,
      "Ġli": 166,
      "Ġse": 167,
      "her": 168,
      "ks": 169,
      "ght": 170,
      "Ġwhe": 171,
      "Ġso": 172,
      "Ġthey": 173,
      "Ġman": 174,
      "se": 175,
      "Ġne": 176,
      "Ġr": 177,
      "Ġgo": 178,
      "Ġat": 179,
      "ter": 180,
      "Ġhave": 181,
      "ion": 182,
      "Ġare": 183,
      "ur": 184,
      "Ġshe": 185,
      "Ġsa": 186,
      "fe": 187,
      "op": 188,
      "ch": 189,
      "Ġsh": 190,
      "Ġbut": 191,
      "un": 192,
      "ce": 193,
      "Ġdid": 194,
      "ust": 195,
      "ck": 196,
      "ill": 197,
      "ome": 198,
      "Ġcan": 199,
      "Ġwhen": 200,
      "Ġget": 201,
      "Ġher": 202,
      "Ġone": 203,
      "ould": 204,
      "Ġsays": 205,
      "Ġwhy": 206,
      "Ġyour": 207,
      "Ġup": 208,
      "ant": 209,
      "ct": 210,
      "Ġout": 211,
      "ra": 212,
      "end": 213,
      "li": 214,
      "art": 215,
      "Ġkn": 216,
      "um": 217,
      "use": 218,
      "Ġhow": 219,
      "Ġjo": 220,
      "Ġab": 221,
      "Ġthis": 222,
      "one": 223,
      "pp": 224,
      "il": 225,
      "Ġde": 226,
      "Ġcall": 227,
      "Ġnot": 228,
      "ack": 229,
      "Ġte": 230,
      "Ġno": 231,
      "ist": 232,
      "Ġjust": 233,
      "Ġsaid": 234,
      "Ġif": 235,
      "king": 236,
      "Ġlike": 237,
      "ers": 238,
      "Ġfr": 239,
      "Ġhim": 240,
      "ca": 241,
      "est": 242,
      "Ġdon": 243,
      "'m": 244,
      "ked": 245,
      "ge": 246,
      "Ġgu": 247,
      "Ġall": 248,
      "Ġabout": 249,
      "ol": 250,
      "ore": 251,
      "Ġch": 252,
      "ake": 253,
      "Ġwor": 254,
      "Ġsu": 255,
      "Ġint": 256,
      "ally": 257,
      "Ġwho": 258,
      "Ġcom": 259,
      "ast": 260,
      "ry": 261,
      "and": 262,
      "Ġthere": 263,
      "cause": 264,
      "Ġle": 265,
      "ind": 266,
      "Ġbecause": 267,
      "Ġdi": 268,
      "Ġbl": 269,
      "Ġal": 270,
      "Ġknow": 271,
      "ab": 272,
      "Ġinto": 273,
      "Ġv": 274,
      "ame": 275,
      "Ġwal": 276,
      "ond": 277,
      "very": 278,
      "Ġbo": 279,
      "Ġwi": 280,
      "ick": 281,
      "riend": 282,
      "ood": 283,
      "Ġpe": 284,
      "Ġsp": 285,
      "Ġ1": 286,
      "ain": 287,
      "ren": 288,
      "Ġguy": 289,
      "Ġdoes": 290,
      "ate": 291,
      "Ġtw": 292,
      "ess": 293,
      "Ġfrom": 294,
      "Ġrep": 295,
      "Ġex": 296,
      "lf": 297,
      "ig": 298,
      "our": 299,
      "han": 300,
      "Ġsome": 301,
      "Ġye": 302,
      "Ġhad": 303,
      "qu": 304,
      "ard": 305,
      "ul": 306,
      "ss": 307,
      "Ġfe": 308,
      "ound": 309,
      "Ġloo": 310,
      "red": 311,
      "own": 312,
      "Ġar": 313,
      "Ġgot": 314,
      "ight": 315,
      "Ġpl": 316,
      "th": 317,
      "Ġro": 318,
      "Ġwife": 319,
      "Ġlo": 320,
      "Ġaf": 321,
      "Ġday": 322,
      "Ġtim": 323,
      "'re": 324,
      "ine": 325,
      "Ġcl": 326,
      "uck": 327,
      "Ġor": 328,
      "Ġoff": 329,
      "ie": 330,
      "Ġcon": 331,
      "ish": 332,
      "Ġgir": 333,
      "Ġthen": 334,
      "Ġwom": 335,
      "Ġthem": 336,
      "Ġwant": 337,
      "ink": 338,
      "ite": 339,
      "Ġdad": 340,
      "ak": 341,
      "Ġtr": 342,
      "Ġwould": 343,
      "ive": 344,
      "ian": 345,
      "Ġbar": 346,
      "Ġco": 347,
      "ice": 348,
      "ong": 349,
      "itt": 350,
      "Ġtwo": 351,
      "way": 352,
      "ep": 353,
      "Ġpro": 354,
      "we": 355,
      "ther": 356,
      "Ġpeop": 357,
      "Ġpeople": 358,
      "ag": 359,
      "ide": 360,
      "Ġasked": 361,
      "Ġsee": 362,
      "Ġam": 363,
      "Ġ2": 364,
      "Ġevery": 365,
      "ap": 366,
      "Ġback": 367,
      "Ġother": 368,
      "Ġby": 369,
      "Ġhas": 370,
      "Ġmo": 371,
      "ass": 372,
      "Ġtell": 373,
      "Ġafter": 374,
      "Ġbet": 375,
      "ation": 376,
      "Ġrepli": 377,
      "Ġtime": 378,
      "Ġany": 379,
      "Ġdown": 380,
      "av": 381,
      "el": 382,
      "Ġwere": 383,
      "Ġdr": 384,
      "Ġpo": 385,
      "Ġasks": 386,
      "Ġtheir": 387,
      "Ġfriend": 388,
      "ars": 389,
      "Ġun": 390,
      "other": 391,
      "Ġover": 392,
      "Ġbu": 393,
      "Ġnew": 394,
      "Ġfir": 395,
      "Ġbr": 396,
      "Ġwill": 397,
      "ree": 398,
      "Ġpre": 399,
      "day": 400,
      "ving": 401,
      "Ġfirst": 402,
      "Ġjoke": 403,
      "ctor": 404,
      "Ġnow": 405,
      "Ġag": 406,
      "urn": 407,
      "Ġwell": 408,
      "Ġtoo": 409,
      "Ġsc": 410,
      "ffe": 411,
      "Ġcould": 412,
      "Ġsm": 413,
      "Ġus": 414,
      "'ll": 415,
      "Ġold": 416,
      "Ġqu": 417,
      "hing": 418,
      "Ġwoman": 419,
      "ace": 420,
      "'ve": 421,
      "Ġtold": 422,
      "ous": 423,
      "os": 424,
      "man": 425,
      "Ġonly": 426,
      "Ġdoctor": 427,
      "ile": 428,
      "Ġmake": 429,
      "au": 430,
      "ump": 431,
      "Ġgirl": 432,
      "dd": 433,
      "Ġgood": 434,
      "ough": 435,
      "Ġtake": 436,
      "Ġcar": 437,
      "ort": 438,
      "Ġen": 439,
      "Ġgoing": 440,
      "ven": 441,
      "Ġwat": 442,
      "Ġche": 443,
      "pl": 444,
      "ber": 445,
      "Ġgr": 446,
      "Ġthink": 447,
      "Ġri": 448,
      "ud": 449,
      "ting": 450,
      "Ġstart": 451,
      "ble": 452,
      "Ġreally": 453,
      "Ġwalks": 454,
      "Ġsex": 455,
      "orn": 456,
      "Ġnever": 457,
      "ies": 458,
      "Ġpr": 459,
      "Ġ)": 460,
      "Ġthan": 461,
      "ittle": 462,
      "Ġwhere": 463,
      "Ġlittle": 464,
      "ween": 465,
      "Ġbetween": 466,
      "ach": 467,
      "Ġ3": 468,
      "Ġson": 469,
      "Ġbeen": 470,
      "ip": 471,
      "ft": 472,
      "Ġput": 473,
      "Ġhear": 474,
      "Ġhand": 475,
      "ock": 476,
      "oun": 477,
      "ather": 478,
      "Ġgoes": 479,
      "Ġfl": 480,
      "00": 481,
      "pt": 482,
      "Ġboy": 483,
      "fferen": 484,
      "Ġkid": 485,
      "Ġdifferen": 486,
      "Ġwent": 487,
      "Ġmar": 488,
      "Ġke": 489,
      "ull": 490,
      "ure": 491,
      "ought": 492,
      "Ġ(": 493,
      "Ġmom": 494,
      "Ġthing": 495,
      "age": 496,
      "pe": 497,
      "Ġho": 498,
      "xt": 499,
      "ves": 500,
      "Ġlet": 501,
      "Ġfuck": 502,
      "Ġhome": 503,
      "ff": 504,
      "Ġturn": 505,
      "ans": 506,
      "reat": 507,
      "Ġdog": 508,
      "ways": 509,
      "Ġdidn": 510,
      "Ġapp": 511,
      "ich": 512,
      "dy": 513,
      "kes": 514,
      "hes": 515,
      "ase": 516,
      "ts": 517,
      "Ġhere": 518,
      "Ġshould": 519,
      "Ġsec": 520,
      "ool": 521,
      "Ġlast": 522,
      "Ġdis": 523,
      "Ġim": 524,
      "Ġneed": 525,
      "Ġalways": 526,
      "Ġgra": 527,
      "Ġeat": 528,
      "Ġreplies": 529,
      "Ġac": 530,
      "Ġdri": 531,
      "are": 532,
      "Ġtoday": 533,
      "Ġnight": 534,
      "ment": 535,
      "Ġhapp": 536,
      "Ġagain": 537,
      "iz": 538,
      "ade": 539,
      "hed": 540,
      "per": 541,
      "Ġthr": 542,
      "fore": 543,
      "Ġmore": 544,
      "ath": 545,
      "self": 546,
      "ity": 547,
      "Ġway": 548,
      "Ġbot": 549,
      "ild": 550,
      "akes": 551,
      "ire": 552,
      "Ġright": 553,
      "Ġdifference": 554,
      "Ġwork": 555,
      "ub": 556,
      "ny": 557,
      "Ġbefore": 558,
      "Ġ5": 559,
      "Ġfin": 560,
      "Ġmu": 561,
      "'d": 562,
      "act": 563,
      "ave": 564,
      "Ġnext": 565,
      "Ġhar": 566,
      "ouse": 567,
      "gg": 568,
      "Ġwr": 569,
      "Ġfind": 570,
      "Ġplay": 571,
      "ender": 572,
      "Ġyes": 573,
      "omet": 574,
      "iss": 575,
      "Ġmany": 576,
      "Ġcome": 577,
      "igh": 578,
      "ady": 579,
      "ue": 580,
      "bo": 581,
      "Ġhead": 582,
      "ried": 583,
      "Ġstop": 584,
      "em": 585,
      "Ġcr": 586,
      "Ġwa": 587,
      "Ġres": 588,
      "Ġlong": 589,
      "nder": 590,
      "na": 591,
      "Ġma": 592,
      "Ġwhile": 593,
      "Ġcha": 594,
      "Ġoh": 595,
      "Ġmin": 596,
      "ose": 597,
      "Ġcalled": 598,
      "Ġtal": 599,
      "Ġph": 600,
      "Ġaround": 601,
      "ook": 602,
      "Ġdec": 603,
      "Ġgive": 604,
      "Ġblack": 605,
      "og": 606,
      "Ġpol": 607,
      "ah": 608,
      "ress": 609,
      "Ġreplied": 610,
      "wn": 611,
      "ens": 612,
      "Ġlook": 613,
      "les": 614,
      "ty": 615,
      "Ġcame": 616,
      "Ġspe": 617,
      "Ġbig": 618,
      "Ġass": 619,
      "Ġsomeone": 620,
      "Ġpart": 621,
      "Ġsomet": 622,
      "Ġhus": 623,
      "Ġname": 624,
      "Ġbre": 625,
      "band": 626,
      "lfriend": 627,
      "Ġbad": 628,
      "Ġsecond": 629,
      "Ġpa": 630,
      "Ġhusband": 631,
      "Ġgets": 632,
      "Ġbart": 633,
      "Ġrun": 634,
      "Ġcomm": 635,
      "Ġsha": 636,
      "Ġvery": 637,
      "able": 638,
      "Ġgirlfriend": 639,
      "ary": 640,
      "Ġfav": 641,
      "Ġmuch": 642,
      "Ġthree": 643,
      "Ġbartender": 644,
      "Ġfather": 645,
      "Ġlife": 646,
      "Ġlight": 647,
      "Ġstill": 648,
      "thing": 649,
      "up": 650,
      "Ġrem": 651,
      "Ġwhich": 652,
      "get": 653,
      "Ġfun": 654,
      "oney": 655,
      "Ġunder": 656,
      "Ġcat": 657,
      "Ġwait": 658,
      "Ġyears": 659,
      "ican": 660,
      "Ġtry": 661,
      "ird": 662,
      "Ġgod": 663,
      "ng": 664,
      "ross": 665,
      "Ġmade": 666,
      "Ġey": 667,
      "Ġteac": 668,
      "ater": 669,
      "Ġhouse": 670,
      "Ġchan": 671,
      "Ġje": 672,
      "Ġwomen": 673,
      "Ġeven": 674,
      "Ġmon": 675,
      "Ġlooks": 676,
      "Ġever": 677,
      "Ġbab": 678,
      "Ġlove": 679,
      "oup": 680,
      "ang": 681,
      "Ġbest": 682,
      "Ġsl": 683,
      "Ġad": 684,
      "aught": 685,
      "Ġyear": 686,
      "Ġshow": 687,
      "Ġdoor": 688,
      "Ġdoesn": 689,
      "Ġmen": 690,
      "int": 691,
      "Ġjokes": 692,
      "Ġpen": 693,
      "Ġthought": 694,
      "if": 695,
      "ated": 696,
      "Ġshit": 697,
      "ved": 698,
      "Ġpar": 699,
      "ream": 700,
      "Ġhel": 701,
      "ount": 702,
      "Ġteacher": 703,
      "Ġop": 704,
      "Ġhaving": 705,
      "Ġsaw": 706,
      "Ġtrump": 707,
      "Ġkeep": 708,
      "Ġfo": 709,
      "ia": 710,
      "erson": 711,
      "Ġcomes": 712,
      "Ġ4": 713,
      "Ġem": 714,
      "Ġour": 715,
      "Ġhit": 716,
      "Ġbeing": 717,
      "Ġonce": 718,
      "Ġmother": 719,
      "Ġsw": 720,
      "ese": 721,
      "hn": 722,
      "Ġsure": 723,
      "Ġgi": 724,
      "ence": 725,
      "Ġsn": 726,
      "ee": 727,
      "Ġbus": 728,
      "Ġok": 729,
      "Ġpri": 730,
      "Ġhard": 731,
      "ail": 732,
      "arm": 733,
      "Ġgreat": 734,
      "Ġsch": 735,
      "Ġboth": 736,
      "Ġreal": 737,
      "Ġjohn": 738,
      "Ġhey": 739,
      "side": 740,
      "Ġroom": 741,
      "ord": 742,
      "be": 743,
      "Ġperson": 744,
      "Ġsomething": 745,
      "Ġgetting": 746,
      "Ġknock": 747,
      "Ġtra": 748,
      "Ġchild": 749,
      "Ġfeel": 750,
      "Ġanother": 751,
      "Ġjob": 752,
      "Ġkill": 753,
      "Ġblond": 754,
      "orry": 755,
      "Ġsame": 756,
      "Ġleft": 757,
      "Ġper": 758,
      "ys": 759,
      "Ġheard": 760,
      "Ġser": 761,
      "Ġleg": 762,
      "Ġfound": 763,
      "Ġask": 764,
      "Ġwee": 765,
      "Ġstand": 766,
      "Ġla": 767,
      "cks": 768,
      "ident": 769,
      "Ġrec": 770,
      "Ġwalk": 771,
      "ise": 772,
      "Ġamer": 773,
      "Ġcomp": 774,
      "ily": 775,
      "Ġend": 776,
      "ction": 777,
      "ial": 778,
      "Ġsorry": 779,
      "Ġits": 780,
      "Ġcont": 781,
      "Ġ10": 782,
      "Ġgrand": 783,
      "Ġele": 784,
      "Ġmost": 785,
      "uss": 786,
      "Ġhor": 787,
      "ory": 788,
      "de": 789,
      "Ġfavor": 790,
      "Ġhelp": 791,
      "Ġste": 792,
      "Ġword": 793,
      "Ġuse": 794,
      "Ġgl": 795,
      "ating": 796,
      "Ġlot": 797,
      "Ġface": 798,
      "ms": 799,
      "Ġpass": 800,
      "Ġaway": 801,
      "Ġcow": 802,
      "ually": 803,
      "Ġlau": 804,
      "ious": 805,
      "Ġpull": 806,
      "Ġatt": 807,
      "ute": 808,
      "Ġ9": 809,
      "Ġsur": 810,
      "ins": 811,
      "Ġbed": 812,
      "Ġfavorite": 813,
      "Ġple": 814,
      "amp": 815,
      "Ġguys": 816,
      "Ġhat": 817,
      "Ġthrough": 818,
      "Ġwater": 819,
      "Ġeveryone": 820,
      "Ġworld": 821,
      "Ġlater": 822,
      "Ġacc": 823,
      "ank": 824,
      "Ġans": 825,
      "ict": 826,
      "its": 827,
      "Ġwanted": 828,
      "ning": 829,
      "rist": 830,
      "Ġwatch": 831,
      "ph": 832,
      "Ġeng": 833,
      "Ġchick": 834,
      "Ġdrink": 835,
      "Ġschool": 836,
      "Ġbaby": 837,
      "Ġred": 838,
      "Ġdoing": 839,
      "Ġkind": 840,
      "Ġdecid": 841,
      "Ġdead": 842,
      "ost": 843,
      "room": 844,
      "Ġwhite": 845,
      "Ġown": 846,
      "ient": 847,
      "Ġsho": 848,
      "ened": 849,
      "ont": 850,
      "Ġ6": 851,
      "Ġmay": 852,
      "Ġfew": 853,
      "ger": 854,
      "vie": 855,
      "itting": 856,
      "ne": 857,
      "bs": 858,
      "ner": 859,
      "Ġresp": 860,
      "Ġinter": 861,
      "Ġbit": 862,
      "Ġfam": 863,
      "lls": 864,
      "Ġsle": 865,
      "Ġkids": 866,
      "rew": 867,
      "Ġact": 868,
      "ance": 869,
      "Ġz": 870,
      "ons": 871,
      "Ġthose": 872,
      "Ġhell": 873,
      "Ġnothing": 874,
      "ma": 875,
      "Ġblonde": 876,
      "Ġhot": 877,
      "Ġmoney": 878,
      "Ġsk": 879,
      "Ġthin": 880,
      "Ġmus": 881,
      "unch": 882,
      "Ġstr": 883,
      "Ġinst": 884,
      "Ġmat": 885,
      "Ġrest": 886,
      "ets": 887,
      "Ġtook": 888,
      "Ġ20": 889,
      "Ġtri": 890,
      "Ġused": 891,
      "Ġplease": 892,
      "co": 893,
      "Ġcouldn": 894,
      "Ġcross": 895,
      "Ġlooking": 896,
      "Ġread": 897,
      "Ġyoung": 898,
      "Ġbill": 899,
      "Ġfinally": 900,
      "Ġir": 901,
      "Ġed": 902,
      "ash": 903,
      "Ġpres": 904,
      "Ġplan": 905,
      "Ġdes": 906,
      "utes": 907,
      "Ġstud": 908,
      "Ġfriends": 909,
      "ps": 910,
      "Ġwrong": 911,
      "ator": 912,
      "Ġpolice": 913,
      "Ġchrist": 914,
      "Ġwon": 915,
      "oy": 916,
      "aking": 917,
      "Ġgen": 918,
      "lie": 919,
      "Ġpret": 920,
      "ign": 921,
      "Ġguess": 922,
      "aa": 923,
      "ates": 924,
      "der": 925,
      "llow": 926,
      "Ġexc": 927,
      "ward": 928,
      "ions": 929,
      "Ġter": 930,
      "Ġent": 931,
      "Ġbuy": 932,
      "vers": 933,
      "Ġwalking": 934,
      "Ġmean": 935,
      "key": 936,
      "Ġgay": 937,
      "Ġcle": 938,
      "Ġjew": 939,
      "ix": 940,
      "Ġmorn": 941,
      "Ġbetter": 942,
      "unk": 943,
      "Ġinv": 944,
      "Ġmorning": 945,
      "Ġpat": 946,
      "Ġpriest": 947,
      "Ġstarted": 948,
      "ical": 949,
      "Ġwear": 950,
      "Ġbro": 951,
      "Ġturns": 952,
      "Ġlady": 953,
      "pped": 954,
      "Ġtells": 955,
      "less": 956,
      "Ġball": 957,
      "ants": 958,
      "te": 959,
      "Ġconf": 960,
      "Ġcop": 961,
      "Ġansw": 962,
      "Ġsir": 963,
      "body": 964,
      "Ġeach": 965,
      "Ġmust": 966,
      "Ġ7": 967,
      "so": 968,
      "ug": 969,
      "Ġca": 970,
      "als": 971,
      "my": 972,
      "cer": 973,
      "Ġdick": 974,
      "ald": 975,
      "Ġfucking": 976,
      "Ġbra": 977,
      "Ġhigh": 978,
      "Ġunt": 979,
      "me": 980,
      "Ġve": 981,
      "Ġmid": 982,
      "Ġtakes": 983,
      "olog": 984,
      "ired": 985,
      "ister": 986,
      "ope": 987,
      "sh": 988,
      "Ġcommon": 989,
      "Ġfish": 990,
      "Ġjes": 991,
      "Ġwind": 992,
      "Ġproble": 993,
      "az": 994,
      "Ġfood": 995,
      "Ġhour": 996,
      "Ġfarm": 997,
      "Ġclass": 998,
      "Ġthese": 999,
      "Ġhands": 1000,
      "Ġtalking": 1001,
      "orm": 1002,
      "aughter": 1003,
      "Ġnews": 1004,
      "Ġchange": 1005,
      "Ġroad": 1006,
      "ists": 1007,
      "ows": 1008,
      "Ġchicken": 1009,
      "Ġanything": 1010,
      "Ġsitting": 1011,
      "Ġfall": 1012,
      "plain": 1013,
      "Ġwithout": 1014,
      "led": 1015,
      "ult": 1016,
      "ents": 1017,
      "Ġjump": 1018,
      "Ġmet": 1019,
      "Ġthings": 1020,
      "Ġminutes": 1021,
      "Ġrespond": 1022,
      "Ġstore": 1023,
      "Ġlaugh": 1024,
      "air": 1025,
      "ling": 1026,
      "Ġjesus": 1027,
      "Ġimp": 1028,
      "Ġmiss": 1029,
      "Ġfamily": 1030,
      "Ġce": 1031,
      "Ġsleep": 1032,
      "Ġbec": 1033,
      "Ġyeah": 1034,
      "Ġret": 1035,
      "Ġdin": 1036,
      "ician": 1037,
      "Ġair": 1038,
      "ful": 1039,
      "Ġsin": 1040,
      "Ġcount": 1041,
      "ots": 1042,
      "Ġgave": 1043,
      "Ġpet": 1044,
      "Ġnam": 1045,
      "Ġquest": 1046,
      "rest": 1047,
      "Ġtrying": 1048,
      "Ġsmall": 1049,
      "oc": 1050,
      "br": 1051,
      "Ġel": 1052,
      "Ġuntil": 1053,
      "od": 1054,
      "ever": 1055,
      "Ġchin": 1056,
      "Ġbeer": 1057,
      "Ġdro": 1058,
      "ings": 1059,
      "Ġ8": 1060,
      "Ġsees": 1061,
      "Ġdied": 1062,
      "Ġfront": 1063,
      "Ġmakes": 1064,
      "Ġside": 1065,
      "Ġpretty": 1066,
      "Ġlost": 1067,
      "Ġfire": 1068,
      "Ġchar": 1069,
      "abb": 1070,
      "la": 1071,
      "rent": 1072,
      "Ġpost": 1073,
      "Ġmex": 1074,
      "Ġpay": 1075,
      "Ġear": 1076,
      "lle": 1077,
      "Ġcoup": 1078,
      "aur": 1079,
      "Ġphone": 1080,
      "ler": 1081,
      "Ġ;": 1082,
      "Ġenough": 1083,
      "Ġty": 1084,
      "Ġhate": 1085,
      "Ġcour": 1086,
      "Ġeyes": 1087,
      "ches": 1088,
      "Ġpenis": 1089,
      "Ġhorse": 1090,
      "med": 1091,
      "Ġoffic": 1092,
      "ition": 1093,
      "Ġmil": 1094,
      "Ġstarts": 1095,
      "Ġhalf": 1096,
      "Ġnum": 1097,
      "onna": 1098,
      "Ġweek": 1099,
      "Ġtried": 1100,
      "Ġsaying": 1101,
      "Ġdoll": 1102,
      "ama": 1103,
      "Ġdecided": 1104,
      "Ġshop": 1105,
      "Ġremem": 1106,
      "Ġhu": 1107,
      "Ġcouple": 1108,
      "Ġmyself": 1109,
      "uts": 1110,
      "Ġopen": 1111,
      "Ġdaughter": 1112,
      "Ġisn": 1113,
      "ulb": 1114,
      "Ġhum": 1115,
      "ors": 1116,
      "Ġfat": 1117,
      "Ġbelie": 1118,
      "Ġfull": 1119,
      "Ġdrin": 1120,
      "ole": 1121,
      "Ġwasn": 1122,
      "Ġsub": 1123,
      "Ġhair": 1124,
      "Ġsupp": 1125,
      "Ġwalked": 1126,
      "Ġgre": 1127,
      "Ġhold": 1128,
      "ately": 1129,
      "Ġeverything": 1130,
      "Ġjohnny": 1131,
      "Ġlaw": 1132,
      "ib": 1133,
      "ier": 1134,
      "Ġcra": 1135,
      "aper": 1136,
      "Ġbat": 1137,
      "ica": 1138,
      "Ġseen": 1139,
      "Ġind": 1140,
      "Ġfree": 1141,
      "uring": 1142,
      "Ġsal": 1143,
      "Ġsing": 1144,
      "Ġcond": 1145,
      "Ġfunny": 1146,
      "ung": 1147,
      "Ġpast": 1148,
      "Ġger": 1149,
      "Ġ,'": 1150,
      "Ġgonna": 1151,
      "Ġlooked": 1152,
      "Ġmaking": 1153,
      "ual": 1154,
      "Ġalso": 1155,
      "Ġob": 1156,
      "Ġwall": 1157,
      "oke": 1158,
      "Ġlegs": 1159,
      "aster": 1160,
      "Ġwish": 1161,
      "Ġdays": 1162,
      "ited": 1163,
      "Ġbrother": 1164,
      "oud": 1165,
      "ark": 1166,
      "Ġ.'": 1167,
      "ped": 1168,
      "tle": 1169,
      "Ġtom": 1170,
      "Ġstre": 1171,
      "Ġeye": 1172,
      "Ġpain": 1173,
      "Ġline": 1174,
      "used": 1175,
      "Ġhappened": 1176,
      "Ġamerican": 1177,
      "Ġplace": 1178,
      "Ġins": 1179,
      "Ġredd": 1180,
      "Ġthird": 1181,
      "pr": 1182,
      "Ġdie": 1183,
      "Ġtest": 1184,
      "Ġmonth": 1185,
      "outh": 1186,
      "aut": 1187,
      "Ġbear": 1188,
      "bb": 1189,
      "ork": 1190,
      "Ġnice": 1191,
      "Ġsuper": 1192,
      "Ġwond": 1193,
      "ced": 1194,
      "icks": 1195,
      "ised": 1196,
      "Ġreddit": 1197,
      "Ġfly": 1198,
      "Ġpot": 1199,
      "Ġdrunk": 1200,
      "Ġbir": 1201,
      "Ġaw": 1202,
      "Ġbath": 1203,
      "Ġtimes": 1204,
      "Ġdam": 1205,
      "ned": 1206,
      "Ġcap": 1207,
      "vel": 1208,
      "Ġtalk": 1209,
      "Ġproblem": 1210,
      "Ġshout": 1211,
      "Ġblind": 1212,
      "Ġadd": 1213,
      "Ġfour": 1214,
      "Ġbreak": 1215,
      "ible": 1216,
      "Ġtree": 1217,
      "mas": 1218,
      "Ġsign": 1219,
      "ably": 1220,
      "Ġbeh": 1221,
      "Ġheav": 1222,
      "Ġcoming": 1223,
      "Ġgerman": 1224,
      "ering": 1225,
      "min": 1226,
      "dden": 1227,
      "Ġmic": 1228,
      "ert": 1229,
      "Ġcare": 1230,
      "cle": 1231,
      "pect": 1232,
      "Ġremember": 1233,
      "Ġvis": 1234,
      "Ġsudden": 1235,
      "lling": 1236,
      "ote": 1237,
      "Ġcheck": 1238,
      "Ġbook": 1239,
      "ics": 1240,
      "Ġactually": 1241,
      "Ġap": 1242,
      "Ġengl": 1243,
      "Ġleave": 1244,
      "gn": 1245,
      "ters": 1246,
      "Ġneigh": 1247,
      "Ġparty": 1248,
      "Ġbehind": 1249,
      "Ġkne": 1250,
      "Ġrabb": 1251,
      "Ġgame": 1252,
      "app": 1253,
      "Ġid": 1254,
      "Ġmill": 1255,
      "Ġruss": 1256,
      "rents": 1257,
      "Ġsound": 1258,
      "Ġmarried": 1259,
      "orr": 1260,
      "Ġbirth": 1261,
      "Ġeating": 1262,
      "gan": 1263,
      "Ġsister": 1264,
      "Ġhappy": 1265,
      "cept": 1266,
      "Ġhimself": 1267,
      "Ġdriver": 1268,
      "hh": 1269,
      "Ġdonald": 1270,
      "Ġlive": 1271,
      "Ġpick": 1272,
      "Ġbelieve": 1273,
      "Ġice": 1274,
      "stand": 1275,
      "Ġscream": 1276,
      "Ġhi": 1277,
      "Ġpresident": 1278,
      "ete": 1279,
      "Ġduring": 1280,
      "Ġstra": 1281,
      "Ġquestion": 1282,
      "Ġsince": 1283,
      "Ġanyone": 1284,
      "Ġ100": 1285,
      "Ġlist": 1286,
      "ently": 1287,
      "Ġmed": 1288,
      "ces": 1289,
      "ster": 1290,
      "Ġgirls": 1291,
      "Ġwin": 1292,
      "Ġdriving": 1293,
      "Ġfell": 1294,
      "Ġten": 1295,
      "Ġfarmer": 1296,
      "ying": 1297,
      "Ġflo": 1298,
      "Ġsent": 1299,
      "Ġstar": 1300,
      "Ġbody": 1301,
      "Ġpie": 1302,
      "Ġofficer": 1303,
      "Ġtoget": 1304,
      "Ġtogether": 1305,
      "Ġswe": 1306,
      "iness": 1307,
      "Ġchristmas": 1308,
      "ses": 1309,
      "ude": 1310,
      "ready": 1311,
      "Ġneighb": 1312,
      "Ġinside": 1313,
      "Ġparents": 1314,
      "ital": 1315,
      "Ġcut": 1316,
      "Ġpun": 1317,
      "gr": 1318,
      "Ġalready": 1319,
      "Ġthanks": 1320,
      "ru": 1321,
      "Ġsat": 1322,
      "Ġev": 1323,
      "Ġyester": 1324,
      "Ġbeat": 1325,
      "Ġwants": 1326,
      "Ġbought": 1327,
      "Ġyesterday": 1328,
      "Ġtable": 1329,
      "Ġdinner": 1330,
      "Ġturned": 1331,
      "Ġbeaut": 1332,
      "acks": 1333,
      "Ġshort": 1334,
      "lt": 1335,
      "ither": 1336,
      "Ġboo": 1337,
      "Ġsand": 1338,
      "Ġstep": 1339,
      "Ġcor": 1340,
      "ball": 1341,
      "Ġprob": 1342,
      "Ġchildren": 1343,
      "Ġann": 1344,
      "Ġwood": 1345,
      "Ġnamed": 1346,
      "Ġleav": 1347,
      "Ġshot": 1348,
      "Ġant": 1349,
      "ison": 1350,
      "Ġfoot": 1351,
      "Ġbuild": 1352,
      "Ġboss": 1353,
      "Ġcol": 1354,
      "Ġdone": 1355,
      "Ġvi": 1356,
      "che": 1357,
      "Ġwhole": 1358,
      "cy": 1359,
      "here": 1360,
      "Ġcry": 1361,
      "Ġfight": 1362,
      "Ġedit": 1363,
      "Ġtop": 1364,
      "--": 1365,
      "Ġran": 1366,
      "cial": 1367,
      "Ġcoffe": 1368,
      "umb": 1369,
      "Ġpop": 1370,
      "Ġmeet": 1371,
      "Ġblow": 1372,
      "Ġhur": 1373,
      "Ġfing": 1374,
      "ize": 1375,
      "ob": 1376,
      "Ġsqu": 1377,
      "Ġoffice": 1378,
      "ged": 1379,
      "Ġfore": 1380,
      "Ġcoffee": 1381,
      "Ġide": 1382,
      "rench": 1383,
      "Ġprobably": 1384,
      "Ġsme": 1385,
      "mm": 1386,
      "Ġglass": 1387,
      "Ġbox": 1388,
      "Ġdep": 1389,
      "Ġmind": 1390,
      "ians": 1391,
      "dle": 1392,
      "Ġinc": 1393,
      "pa": 1394,
      "Ġpants": 1395,
      "Ġmovie": 1396,
      "light": 1397,
      "Ġdra": 1398,
      "Ġmight": 1399,
      "ouch": 1400,
      "Ġnotic": 1401,
      "Ġref": 1402,
      "Ġq": 1403,
      "Ġsit": 1404,
      "Ġsy": 1405,
      "Ġchinese": 1406,
      "Ġsim": 1407,
      "Ġtaking": 1408,
      "Ġstreet": 1409,
      "Ġbi": 1410,
      "Ġokay": 1411,
      "ically": 1412,
      "Ġquick": 1413,
      "Ġhole": 1414,
      "Ġtoil": 1415,
      "Ġlar": 1416,
      "Ġra": 1417,
      "Ġexplain": 1418,
      "ched": 1419,
      "Ġoutside": 1420,
      "Ġenglish": 1421,
      "Ġmag": 1422,
      "Ġgroup": 1423,
      "phan": 1424,
      "oooo": 1425,
      "Ġdate": 1426,
      "Ġgun": 1427,
      "oof": 1428,
      "ied": 1429,
      "Ġplaying": 1430,
      "rently": 1431,
      "Ġpir": 1432,
      "ax": 1433,
      "uff": 1434,
      "Ġwar": 1435,
      "ense": 1436,
      "Ġhang": 1437,
      "Ġsuddenly": 1438,
      "Ġdrive": 1439,
      "Ġset": 1440,
      "ead": 1441,
      "Ġnun": 1442,
      "Ġpatient": 1443,
      "Ġcolle": 1444,
      "Ġegg": 1445,
      "Ġunderstand": 1446,
      "Ġpaper": 1447,
      "Ġwan": 1448,
      "ror": 1449,
      "Ġbag": 1450,
      "iv": 1451,
      "Ġbird": 1452,
      "iful": 1453,
      "Ġfrench": 1454,
      "Ġnumber": 1455,
      "Ġ50": 1456,
      "Ġfro": 1457,
      "gu": 1458,
      "Ġaccident": 1459,
      "Ġmexican": 1460,
      "Ġbring": 1461,
      "rr": 1462,
      "oice": 1463,
      "Ġna": 1464,
      "ower": 1465,
      "Ġleast": 1466,
      "ton": 1467,
      "Ġclean": 1468,
      "Ġplane": 1469,
      "ush": 1470,
      "Ġmouth": 1471,
      "Ġrel": 1472,
      "lled": 1473,
      "Ġanim": 1474,
      "Ġthinks": 1475,
      "Ġloc": 1476,
      "head": 1477,
      "ressed": 1478,
      "Ġhours": 1479,
      "ness": 1480,
      "Ġinstead": 1481,
      "Ġresponds": 1482,
      "Ġlear": 1483,
      "Ġcompl": 1484,
      "Ġwouldn": 1485,
      "rect": 1486,
      "zy": 1487,
      "Ġstay": 1488,
      "Ġcann": 1489,
      "Ġbeautiful": 1490,
      "land": 1491,
      "Ġhoney": 1492,
      "Ġsuch": 1493,
      "rees": 1494,
      "osed": 1495,
      "line": 1496,
      "Ġfollow": 1497,
      "Ġcal": 1498,
      "sy": 1499,
      "Ġanswer": 1500,
      "Ġrestaur": 1501,
      "Ġcourse": 1502,
      "Ġtoilet": 1503,
      "Ġreturn": 1504,
      "Ġinf": 1505,
      "ye": 1506,
      "Ġappa": 1507,
      "Ġworking": 1508,
      "Ġwords": 1509,
      "ines": 1510,
      "lex": 1511,
      "Ġblood": 1512,
      "Ġtrain": 1513,
      "Ġtast": 1514,
      "Ġscrew": 1515,
      "Ġwatching": 1516,
      "Ġfast": 1517,
      "Ġeas": 1518,
      "iet": 1519,
      "Ġbusiness": 1520,
      "Ġrunning": 1521,
      "Ġelse": 1522,
      "Ġju": 1523,
      "cc": 1524,
      "Ġban": 1525,
      "view": 1526,
      "arth": 1527,
      "Ġmine": 1528,
      "icked": 1529,
      "Ġfact": 1530,
      "Ġrac": 1531,
      "Ġbathroom": 1532,
      "Ġ'": 1533,
      "Ġsil": 1534,
      "Ġgives": 1535,
      "Ġsurpr": 1536,
      "ized": 1537,
      "Ġ?'": 1538,
      "Ġpoint": 1539,
      "right": 1540,
      "Ġacross": 1541,
      "Ġsca": 1542,
      "Ġago": 1543,
      "Ġ00": 1544,
      "ret": 1545,
      "ding": 1546,
      "Ġwanna": 1547,
      "Ġidea": 1548,
      "Ġdeath": 1549,
      "Ġcold": 1550,
      "Ġcalls": 1551,
      "Ġtrans": 1552,
      "Ġthrow": 1553,
      "Ġmiddle": 1554,
      "Ġfive": 1555,
      "Ġsad": 1556,
      "Ġjack": 1557,
      "Ġhol": 1558,
      "Ġwindow": 1559,
      "eral": 1560,
      "Ġirish": 1561,
      "Ġprof": 1562,
      "izz": 1563,
      "Ġwhis": 1564,
      "Ġground": 1565,
      "ular": 1566,
      "gin": 1567,
      "rible": 1568,
      "ange": 1569,
      "Ġmr": 1570,
      "Ġfre": 1571,
      "ative": 1572,
      "Ġhill": 1573,
      "Ġstory": 1574,
      "ouble": 1575,
      "osp": 1576,
      "ato": 1577,
      "Ġrestaurant": 1578,
      "Ġext": 1579,
      "Ġthinking": 1580,
      "Ġrob": 1581,
      "Ġbur": 1582,
      "Ġns": 1583,
      "ason": 1584,
      "Ġorder": 1585,
      "Ġapparently": 1586,
      "Ġ-": 1587,
      "Ġlad": 1588,
      "Ġes": 1589,
      "Ġduck": 1590,
      "ted": 1591,
      "ones": 1592,
      "Ġcountry": 1593,
      "Ġbank": 1594,
      "Ġvir": 1595,
      "Ġland": 1596,
      "Ġcoun": 1597,
      "Ġpub": 1598,
      "Ġton": 1599,
      "Ġlawy": 1600,
      "Ġtelling": 1601,
      "Ġcu": 1602,
      "to": 1603,
      "Ġdrug": 1604,
      "Ġstudent": 1605,
      "Ġthank": 1606,
      "Ġyet": 1607,
      "upid": 1608,
      "ished": 1609,
      "Ġwearing": 1610,
      "Ġknew": 1611,
      "Ġprost": 1612,
      "eth": 1613,
      "ane": 1614,
      "urb": 1615,
      "Ġcause": 1616,
      "Ġmem": 1617,
      "Ġcons": 1618,
      "Ġpregn": 1619,
      "Ġmillion": 1620,
      "Ġelephan": 1621,
      "Ġdark": 1622,
      "Ġrecently": 1623,
      "Ġchur": 1624,
      "Ġfine": 1625,
      "io": 1626,
      "ium": 1627,
      "hol": 1628,
      "Ġmad": 1629,
      "du": 1630,
      "irt": 1631,
      "mat": 1632,
      "Ġstupid": 1633,
      "Ġdef": 1634,
      "lic": 1635,
      "Ġsoon": 1636,
      "fw": 1637,
      "Ġhitler": 1638,
      "Ġcri": 1639,
      "Ġcheese": 1640,
      "Ġaren": 1641,
      "Ġcir": 1642,
      "Ġang": 1643,
      "Ġarm": 1644,
      "Ġfeet": 1645,
      "ders": 1646,
      "Ġdrinking": 1647,
      "Ġur": 1648,
      "Ġdamn": 1649,
      "Ġhosp": 1650,
      "Ġcorn": 1651,
      "Ġ12": 1652,
      "Ġwhats": 1653,
      "Ġdeal": 1654,
      "Ġwonder": 1655,
      "wards": 1656,
      "Ġhope": 1657,
      "ips": 1658,
      "Ġnsfw": 1659,
      "ym": 1660,
      "Ġwow": 1661,
      "Ġburn": 1662,
      "oth": 1663,
      "Ġchurch": 1664,
      "Ġpizz": 1665,
      "Ġbull": 1666,
      "Ġstanding": 1667,
      "Ġruns": 1668,
      "Ġthough": 1669,
      "Ġengine": 1670,
      "Ġcard": 1671,
      "Ġnear": 1672,
      "Ġinterview": 1673,
      "Ġx": 1674,
      "ience": 1675,
      "Ġmilk": 1676,
      "Ġfloor": 1677,
      "Ġlate": 1678,
      "Ġsnow": 1679,
      "Ġge": 1680,
      "ations": 1681,
      "Ġpulls": 1682,
      "Ġbirthday": 1683,
      "ten": 1684,
      "ism": 1685,
      "Ġporn": 1686,
      "Ġappro": 1687,
      "een": 1688,
      "Ġrid": 1689,
      "Ġearth": 1690,
      "Ġart": 1691,
      "Ġlocal": 1692,
      "Ġpoor": 1693,
      "arr": 1694,
      "Ġpict": 1695,
      "Ġballs": 1696,
      "cha": 1697,
      "Ġheart": 1698,
      "ention": 1699,
      "mon": 1700,
      "ues": 1701,
      "ze": 1702,
      "Ġjud": 1703,
      "Ġheaven": 1704,
      "Ġinte": 1705,
      "Ġamerica": 1706,
      "Ġmoment": 1707,
      "Ġsick": 1708,
      "Ġstick": 1709,
      "Ġfu": 1710,
      "Ġcool": 1711,
      "Ġhospital": 1712,
      "Ġworst": 1713,
      "Ġpunch": 1714,
      "Ġpicture": 1715,
      "Ġcur": 1716,
      "ered": 1717,
      "ield": 1718,
      "vice": 1719,
      "son": 1720,
      "oon": 1721,
      "Ġpu": 1722,
      "Ġamaz": 1723,
      "Ġorders": 1724,
      "Ġmanag": 1725,
      "Ġsend": 1726,
      "fect": 1727,
      "Ġbroke": 1728,
      "Ġlarge": 1729,
      "Ġ30": 1730,
      "Ġcaught": 1731,
      "zz": 1732,
      "anta": 1733,
      "Ġrussian": 1734,
      "Ġfart": 1735,
      "Ġnobody": 1736,
      "Ġpeter": 1737,
      "Ġlightb": 1738,
      "Ġbudd": 1739,
      "Ġreg": 1740,
      "Ġdifferent": 1741,
      "Ġbecome": 1742,
      "ract": 1743,
      "Ġpulled": 1744,
      "Ġpregnant": 1745,
      "old": 1746,
      "Ġsuck": 1747,
      "Ġgold": 1748,
      "ats": 1749,
      "af": 1750,
      "Ġmonths": 1751,
      "Ġpsy": 1752,
      "Ġhaven": 1753,
      "where": 1754,
      "Ġjewish": 1755,
      "Ġpizza": 1756,
      "Ġbee": 1757,
      "ims": 1758,
      "mp": 1759,
      "ken": 1760,
      "Ġcomput": 1761,
      "Ġhun": 1762,
      "Ġpirate": 1763,
      "tain": 1764,
      "ron": 1765,
      "Ġgro": 1766,
      "imes": 1767,
      "mer": 1768,
      "Ġtur": 1769,
      "Ġmatter": 1770,
      "Ġhappens": 1771,
      "Ġconfused": 1772,
      "Ġyells": 1773,
      "ping": 1774,
      "Ġbas": 1775,
      "Ġdollars": 1776,
      "Ġalm": 1777,
      "eter": 1778,
      "ime": 1779,
      "Ġapple": 1780,
      "Ġpig": 1781,
      "Ġking": 1782,
      "Ġelect": 1783,
      "Ġgreen": 1784,
      "Ġlisten": 1785,
      "Ġusing": 1786,
      "Ġgrandpa": 1787,
      "raid": 1788,
      "Ġarri": 1789,
      "Ġwed": 1790,
      "Ġtown": 1791,
      "Ġpsych": 1792,
      "Ġrock": 1793,
      "Ġfar": 1794,
      "Ġexp": 1795,
      "Ġali": 1796,
      "Ġafraid": 1797,
      "friend": 1798,
      "pes": 1799,
      "Ġgenie": 1800,
      "Ġanswers": 1801,
      "rested": 1802,
      "Ġaut": 1803,
      "Ġclot": 1804,
      "bers": 1805,
      "orrow": 1806,
      "Ġnuts": 1807,
      "Ġmeans": 1808,
      "Ġslow": 1809,
      "Ġvoice": 1810,
      "Ġlightbulb": 1811,
      "Ġconst": 1812,
      "je": 1813,
      "ana": 1814,
      "Ġsol": 1815,
      "Ġdisc": 1816,
      "Ġfavour": 1817,
      "Ġ11": 1818,
      "Ġgas": 1819,
      "inc": 1820,
      "Ġcondom": 1821,
      "rap": 1822,
      "Ġpark": 1823,
      "Ġborn": 1824,
      "Ġshoot": 1825,
      "Ġworry": 1826,
      "Ġstuck": 1827,
      "Ġyourself": 1828,
      "Ġtype": 1829,
      "Ġdiv": 1830,
      "Ġcock": 1831,
      "Ġmaybe": 1832,
      "Ġstraight": 1833,
      "Ġcream": 1834,
      "Ġsmo": 1835,
      "ili": 1836,
      "Ġprostit": 1837,
      "Ġeither": 1838,
      "Ġgrow": 1839,
      "Ġsanta": 1840,
      "alian": 1841,
      "Ġremo": 1842,
      "Ġforg": 1843,
      "Ġlawyer": 1844,
      "men": 1845,
      "Ġasking": 1846,
      "male": 1847,
      "Ġclub": 1848,
      "Ġfig": 1849,
      "Ġkilled": 1850,
      "Ġmove": 1851,
      "Ġsix": 1852,
      "Ġblue": 1853,
      "Ġcook": 1854,
      "Ġwaiting": 1855,
      "Ġcost": 1856,
      "Ġcatch": 1857,
      "iously": 1858,
      "Ġsingle": 1859,
      "erg": 1860,
      "Ġdoc": 1861,
      "Ġnur": 1862,
      "Ġwheel": 1863,
      "airs": 1864,
      "Ġsold": 1865,
      "Ġcompan": 1866,
      "ries": 1867,
      "Ġclose": 1868,
      "Ġdream": 1869,
      "Ġtick": 1870,
      "rot": 1871,
      "Ġhon": 1872,
      "Ġless": 1873,
      "Ġpack": 1874,
      "Ġbulb": 1875,
      "Ġcust": 1876,
      "Ġdecides": 1877,
      "ls": 1878,
      "omb": 1879,
      "Ġyo": 1880,
      "Ġfemale": 1881,
      "Ġtv": 1882,
      "Ġkept": 1883,
      "Ġpos": 1884,
      "Ġsong": 1885,
      "ket": 1886,
      "Ġmur": 1887,
      "Ġneighbor": 1888,
      "Ġdogs": 1889,
      "fort": 1890,
      "pping": 1891,
      "Ġprison": 1892,
      "Ġpiece": 1893,
      "Ġmast": 1894,
      "Ġmeat": 1895,
      "Ġfavourite": 1896,
      "Ġmath": 1897,
      "let": 1898,
      "hole": 1899,
      "Ġprofess": 1900,
      "Ġcamp": 1901,
      "Ġarms": 1902,
      "Ġleaves": 1903,
      "Ġnaked": 1904,
      "Ġcase": 1905,
      "icans": 1906,
      "Ġmusic": 1907,
      "Ġrub": 1908,
      "Ġ15": 1909,
      "Ġrap": 1910,
      "vered": 1911,
      "by": 1912,
      "lly": 1913,
      "idge": 1914,
      "medi": 1915,
      "Ġcontin": 1916,
      "Ġcomplete": 1917,
      "iting": 1918,
      "Ġdaddy": 1919,
      "Ġintern": 1920,
      "Ġsun": 1921,
      "Ġboyfriend": 1922,
      "Ġable": 1923,
      "Ġspace": 1924,
      "Ġimmedi": 1925,
      "omer": 1926,
      "Ġbutt": 1927,
      "Ġlead": 1928,
      "Ġterrible": 1929,
      "ared": 1930,
      "Ġalmost": 1931,
      "aks": 1932,
      "Ġkit": 1933,
      "Ġgolf": 1934,
      "Ġsometimes": 1935,
      "Ġhuge": 1936,
      "ologist": 1937,
      "Ġelephant": 1938,
      "Ġmess": 1939,
      "Ġnor": 1940,
      "the": 1941,
      "Ġscient": 1942,
      "Ġvac": 1943,
      "Ġgiving": 1944,
      "Ġcomputer": 1945,
      "Ġsits": 1946,
      "ta": 1947,
      "Ġprom": 1948,
      "Ġdisapp": 1949,
      "Ġliving": 1950,
      "Ġluck": 1951,
      "Ġseat": 1952,
      "ploy": 1953,
      "Ġsecret": 1954,
      "Ġkeeps": 1955,
      "ming": 1956,
      "Ġmasturb": 1957,
      "Ġcrying": 1958,
      "aker": 1959,
      "Ġfan": 1960,
      "Ġtrue": 1961,
      "Ġexper": 1962,
      "Ġidi": 1963,
      "Ġquite": 1964,
      "Ġjim": 1965,
      "Ġug": 1966,
      "Ġshock": 1967,
      "Ġpiss": 1968,
      "Ġtit": 1969,
      "Ġfrog": 1970,
      "Ġlit": 1971,
      "Ġpil": 1972,
      "Ġbottle": 1973,
      "Ġstri": 1974,
      "Ġbread": 1975,
      "Ġknows": 1976,
      "ames": 1977,
      "Ġimmediately": 1978,
      "Ġ000": 1979,
      "Ġfit": 1980,
      "Ġbow": 1981,
      "uit": 1982,
      "Ġsmil": 1983,
      "ined": 1984,
      "Ġswim": 1985,
      "lo": 1986,
      "Ġstopped": 1987,
      "itch": 1988,
      "Ġpoo": 1989,
      "ject": 1990,
      "Ġlaughing": 1991,
      "ured": 1992,
      "Ġclos": 1993,
      "Ġcirc": 1994,
      "ii": 1995,
      "Ġperfect": 1996,
      "Ġben": 1997,
      "Ġpur": 1998,
      "more": 1999,
      "ution": 2000,
      "Ġveget": 2001,
      "Ġav": 2002,
      "Ġdear": 2003,
      "Ġstuff": 2004,
      "iday": 2005,
      "Ġenj": 2006,
      "aaaa": 2007,
      "Ġbreat": 2008,
      "Ġself": 2009,
      "ustr": 2010,
      "Ġmist": 2011,
      "ider": 2012,
      "Ġpolit": 2013,
      "Ġshoes": 2014,
      "Ġbrown": 2015,
      "'.": 2016,
      "Ġnone": 2017,
      "Ġdys": 2018,
      "Ġfeeling": 2019,
      "res": 2020,
      "Ġtonight": 2021,
      "ney": 2022,
      "Ġexpect": 2023,
      "Ġcup": 2024,
      "Ġputs": 2025,
      "Ġcomplain": 2026,
      "Ġsandw": 2027,
      "Ġtruck": 2028,
      "ints": 2029,
      "chen": 2030,
      "irty": 2031,
      "Ġdress": 2032,
      "Ġbob": 2033,
      "Ġate": 2034,
      "Ġcla": 2035,
      "Ġpan": 2036,
      "Ġmach": 2037,
      "Ġdent": 2038,
      "Ġdeep": 2039,
      "Ġfli": 2040,
      "Ġquickly": 2041,
      "oph": 2042,
      "Ġweeks": 2043,
      "Ġexam": 2044,
      "cohol": 2045,
      "Ġclothes": 2046,
      "Ġcommun": 2047,
      "Ġjap": 2048,
      "Ġboat": 2049,
      "Ġjudge": 2050,
      "Ġhuman": 2051,
      "Ġkitchen": 2052,
      "Ġfill": 2053,
      "Ġfinds": 2054,
      "Ġring": 2055,
      "Ġsea": 2056,
      "pper": 2057,
      "Ġdrinks": 2058,
      "sel": 2059,
      "Ġ19": 2060,
      "cri": 2061,
      "rol": 2062,
      "Ġkiss": 2063,
      "Ġhung": 2064,
      "ci": 2065,
      "erk": 2066,
      "Ġagainst": 2067,
      "Ġer": 2068,
      "Ġtouch": 2069,
      "Ġdude": 2070,
      "Ġcash": 2071,
      "Ġmum": 2072,
      "Ġsmell": 2073,
      "Ġones": 2074,
      "alth": 2075,
      "Ġgar": 2076,
      "Ġcanad": 2077,
      "har": 2078,
      "aken": 2079,
      "Ġalcohol": 2080,
      "Ġjapan": 2081,
      "Ġentire": 2082,
      "Ġtired": 2083,
      "Ġya": 2084,
      "Ġweird": 2085,
      "Ġband": 2086,
      "Ġreason": 2087,
      "anger": 2088,
      "Ġble": 2089,
      "Ġletter": 2090,
      "Ġwaiter": 2091,
      "Ġmale": 2092,
      "Ġopp": 2093,
      "Ġpuss": 2094,
      "aches": 2095,
      "ker": 2096,
      "Ġowner": 2097,
      "ffic": 2098,
      "Ġcent": 2099,
      "Ġevent": 2100,
      "Ġround": 2101,
      "ached": 2102,
      "Ġeasy": 2103,
      "Ġdu": 2104,
      "Ġgone": 2105,
      "Ġseconds": 2106,
      "Ġminute": 2107,
      "Ġcrazy": 2108,
      "Ġbase": 2109,
      "owed": 2110,
      "11": 2111,
      "Ġdist": 2112,
      "Ġready": 2113,
      "Ġsheep": 2114,
      "uce": 2115,
      "Ġcompany": 2116,
      "Ġenjoy": 2117,
      "Ġgh": 2118,
      "Ġalong": 2119,
      "Ġteam": 2120,
      "Ġspeed": 2121,
      "Ġwedding": 2122,
      "Ġage": 2123,
      "Ġforget": 2124,
      "riage": 2125,
      "Ġhook": 2126,
      "Ġfail": 2127,
      "Ġmir": 2128,
      "read": 2129,
      "Ġworks": 2130,
      "Ġloud": 2131,
      "Ġanymore": 2132,
      "Ġcaptain": 2133,
      "Ġexcla": 2134,
      "Ġda": 2135,
      "Ġdeli": 2136,
      "Ġpee": 2137,
      "Ġbuck": 2138,
      "Ġcred": 2139,
      "Ġclim": 2140,
      "Ġ0": 2141,
      "ief": 2142,
      "Ġdont": 2143,
      "Ġarrested": 2144,
      "Ġrabbi": 2145,
      "Ġfield": 2146,
      "Ġugly": 2147,
      "unt": 2148,
      "Ġcand": 2149,
      "Ġmot": 2150,
      "Ġrain": 2151,
      "Ġangry": 2152,
      "Ġbott": 2153,
      "Ġbuilding": 2154,
      "father": 2155,
      "Ġforgot": 2156,
      "Ġdollar": 2157,
      "icking": 2158,
      "Ġexpl": 2159,
      "book": 2160,
      "Ġba": 2161,
      "Ġnose": 2162,
      "Ġzoo": 2163,
      "Ġinvent": 2164,
      "att": 2165,
      "Ġdivor": 2166,
      "Ġrepost": 2167,
      "Ġneeds": 2168,
      "Ġchuck": 2169,
      "Ġasshole": 2170,
      "Ġracist": 2171,
      "Ġfinger": 2172,
      "Ġwha": 2173,
      "Ġmass": 2174,
      "gest": 2175,
      "erv": 2176,
      "Ġtomorrow": 2177,
      "ids": 2178,
      "ette": 2179,
      "Ġexact": 2180,
      "Ġtext": 2181,
      "Ġspend": 2182,
      "Ġpotato": 2183,
      "ple": 2184,
      "Ġappe": 2185,
      "Ġcrack": 2186,
      "Ġstate": 2187,
      "ments": 2188,
      "Ġcannib": 2189,
      "Ġclear": 2190,
      "Ġlibr": 2191,
      "Ġparrot": 2192,
      "full": 2193,
      "Ġboys": 2194,
      "Ġsky": 2195,
      "cing": 2196,
      "Ġghost": 2197,
      "Ġbrit": 2198,
      "Ġchem": 2199,
      "Ġdeer": 2200,
      "Ġseems": 2201,
      "Ġtaste": 2202,
      "Ġabs": 2203,
      "fast": 2204,
      "Ġbeg": 2205,
      "Ġmusl": 2206,
      "Ġdan": 2207,
      "agin": 2208,
      "ises": 2209,
      "Ġbunch": 2210,
      "Ġstops": 2211,
      "Ġsmart": 2212,
      "oman": 2213,
      "Ġlay": 2214,
      "Ġru": 2215,
      "Ġpock": 2216,
      "cl": 2217,
      "Ġprostitute": 2218,
      "Ġpussy": 2219,
      "Ġconvers": 2220,
      "Ġfired": 2221,
      "Ġspecial": 2222,
      "ishes": 2223,
      "Ġrabbit": 2224,
      "Ġpray": 2225,
      "ensive": 2226,
      "aces": 2227,
      "Ġbreakfast": 2228,
      "ds": 2229,
      "Ġshar": 2230,
      "Ġalone": 2231,
      "Ġvirgin": 2232,
      "Ġidiot": 2233,
      "Ġles": 2234,
      "Ġphys": 2235,
      "ume": 2236,
      "Ġsurprised": 2237,
      "Ġcancer": 2238,
      "ugg": 2239,
      "Ġworse": 2240,
      "Ġchair": 2241,
      "Ġdies": 2242,
      "Ġiron": 2243,
      "fully": 2244,
      "Ġmate": 2245,
      "oint": 2246,
      "arch": 2247,
      "Ġpair": 2248,
      "Ġsuic": 2249,
      "Ġnoticed": 2250,
      "Ġflat": 2251,
      "ards": 2252,
      "Ġprodu": 2253,
      "Ġneeded": 2254,
      "Ġshut": 2255,
      "Ġafr": 2256,
      "Ġlonger": 2257,
      "wered": 2258,
      "phone": 2259,
      "rious": 2260,
      "Ġnurse": 2261,
      "Ġhappen": 2262,
      "Ġposs": 2263,
      "Ġasian": 2264,
      "arian": 2265,
      "Ġpill": 2266,
      "Ġresponded": 2267,
      "Ġindian": 2268,
      "sing": 2269,
      "Ġhy": 2270,
      "Ġholy": 2271,
      "Ġspeak": 2272,
      "ric": 2273,
      "rection": 2274,
      "Ġcig": 2275,
      "Ġanimal": 2276,
      "cher": 2277,
      "Ġrace": 2278,
      "inal": 2279,
      "Ġfinish": 2280,
      "Ġdefin": 2281,
      "Ġpound": 2282,
      "Ġanswered": 2283,
      "Ġmanager": 2284,
      "Ġfuneral": 2285,
      "Ġfil": 2286,
      "Ġwrite": 2287,
      "Ġpower": 2288,
      "Ġbeach": 2289,
      "Ġbroken": 2290,
      "Ġsell": 2291,
      "Ġcreat": 2292,
      "Ġdem": 2293,
      "Ġpassed": 2294,
      "Ġbrought": 2295,
      "Ġbreast": 2296,
      "Ġtaken": 2297,
      "Ġlion": 2298,
      "Ġinternet": 2299,
      "Ġseeing": 2300,
      "aps": 2301,
      "Ġroll": 2302,
      "Ġsus": 2303,
      "Ġtax": 2304,
      "Ġrich": 2305,
      "Ġlikes": 2306,
      "Ġlose": 2307,
      "oose": 2308,
      "Ġcli": 2309,
      "Ġstat": 2310,
      "Ġopens": 2311,
      "Ġcoo": 2312,
      "Ġthrew": 2313,
      "Ġlunch": 2314,
      "Ġcarry": 2315,
      "Ġhello": 2316,
      "Ġshouldn": 2317,
      "Ġrelation": 2318,
      "Ġtrouble": 2319,
      "work": 2320,
      "Ġfelt": 2321,
      "Ġaccidentally": 2322,
      "Ġgrandfather": 2323,
      "Ġlim": 2324,
      "Ġreading": 2325,
      "ages": 2326,
      "Ġmarriage": 2327,
      "Ġupon": 2328,
      "arden": 2329,
      "Ġitalian": 2330,
      "Ġlesb": 2331,
      "ghed": 2332,
      "orge": 2333,
      "Ġcalling": 2334,
      "Ġsounds": 2335,
      "Ġmachine": 2336,
      "Ġrece": 2337,
      "Ġemploy": 2338,
      "Ġtrip": 2339,
      "gers": 2340,
      "Ġtea": 2341,
      "ational": 2342,
      "Ġhowever": 2343,
      "Ġfemin": 2344,
      "Ġmer": 2345,
      "ocol": 2346,
      "Ġstation": 2347,
      "Ġwhenever": 2348,
      "Ġexcept": 2349,
      "gy": 2350,
      "Ġpilot": 2351,
      "iest": 2352,
      "Ġdumb": 2353,
      "Ġbitch": 2354,
      "Ġrelationsh": 2355,
      "Ġeggs": 2356,
      "Ġshouts": 2357,
      "boy": 2358,
      "lig": 2359,
      "Ġladies": 2360,
      "Ġorig": 2361,
      "Ġcredit": 2362,
      "iod": 2363,
      "Ġbabies": 2364,
      "Ġspot": 2365,
      "Ġfinished": 2366,
      "Ġshower": 2367,
      "ives": 2368,
      "Ġship": 2369,
      "Ġdrop": 2370,
      "Ġfix": 2371,
      "Ġcrow": 2372,
      "Ġfalls": 2373,
      "Ġeu": 2374,
      "Ġperiod": 2375,
      "Ġcre": 2376,
      "Ġpress": 2377,
      "itive": 2378,
      "con": 2379,
      "ored": 2380,
      "Ġhom": 2381,
      "Ġsandwich": 2382,
      "Ġlaughed": 2383,
      "Ġdirty": 2384,
      "Ġdisco": 2385,
      "ument": 2386,
      "Ġfucked": 2387,
      "Ġlives": 2388,
      "Ġcounter": 2389,
      "Ġchocol": 2390,
      "Ġups": 2391,
      "eeee": 2392,
      "Ġattack": 2393,
      "Ġuni": 2394,
      "''": 2395,
      "Ġgrandma": 2396,
      "Ġnotices": 2397,
      "Ġhist": 2398,
      "angu": 2399,
      "Ġserve": 2400,
      "Ġopened": 2401,
      "Ġlow": 2402,
      "Ġcollege": 2403,
      "Ġstole": 2404,
      "Ġ201": 2405,
      "ceed": 2406,
      "Ġbuddy": 2407,
      "Ġjoe": 2408,
      "Ġalright": 2409,
      "Ġlangu": 2410,
      "Ġrealized": 2411,
      "Ġdev": 2412,
      "het": 2413,
      "Ġfruit": 2414,
      "Ġmathe": 2415,
      "Ġconversation": 2416,
      "haha": 2417,
      "Ġcorrect": 2418,
      "Ġoffe": 2419,
      "antly": 2420,
      "Ġwine": 2421,
      "Ġrad": 2422,
      "Ġproud": 2423,
      "Ġearly": 2424,
      "Ġsweet": 2425,
      "Ġoper": 2426,
      "Ġbang": 2427,
      "Ġviol": 2428,
      "Ġlearn": 2429,
      "fer": 2430,
      "Ġlie": 2431,
      "Ġsteal": 2432,
      "board": 2433,
      "Ġwoke": 2434,
      "Ġcity": 2435,
      "Ġimport": 2436,
      "Ġphot": 2437,
      "Ġjumps": 2438,
      "Ġanti": 2439,
      "hael": 2440,
      "Ġnail": 2441,
      "Ġpool": 2442,
      "Ġclock": 2443,
      "Ġspr": 2444,
      "Ġnote": 2445,
      "Ġmeant": 2446,
      "erm": 2447,
      "Ġvide": 2448,
      "Ġtot": 2449,
      "Ġcourt": 2450,
      "Ġskin": 2451,
      "Ġmathemat": 2452,
      "Ġbel": 2453,
      "Ġhearing": 2454,
      "Ġjews": 2455,
      "Ġanal": 2456,
      "tery": 2457,
      "Ġteeth": 2458,
      "Ġ25": 2459,
      "Ġpad": 2460,
      "Ġmidget": 2461,
      "zen": 2462,
      "Ġsum": 2463,
      "Ġcompletely": 2464,
      "Ġdecide": 2465,
      "Ġstands": 2466,
      "Ġweight": 2467,
      "Ġcows": 2468,
      "Ġtor": 2469,
      "Ġlab": 2470,
      "Ġhop": 2471,
      "ams": 2472,
      "Ġjapanese": 2473,
      "Ġapart": 2474,
      "Ġdentist": 2475,
      "Ġcomed": 2476,
      "umber": 2477,
      "Ġsense": 2478,
      "Ġmichael": 2479,
      "Ġarg": 2480,
      "selves": 2481,
      "Ġkey": 2482,
      "Ġmary": 2483,
      "Ġperf": 2484,
      "ures": 2485,
      "Ġputting": 2486,
      "Ġshirt": 2487,
      "Ġstrong": 2488,
      "Ġsupport": 2489,
      "ology": 2490,
      "ws": 2491,
      "Ġsli": 2492,
      "Ġcath": 2493,
      "Ġhide": 2494,
      "Ġsave": 2495,
      "jo": 2496,
      "Ġtwice": 2497,
      "Ġmis": 2498,
      "Ġnaz": 2499,
      "ides": 2500,
      "Ġorange": 2501,
      "Ġamazing": 2502,
      "Ġden": 2503,
      "Ġclint": 2504,
      "ges": 2505,
      "Ġnat": 2506,
      "Ġhealth": 2507,
      "Ġholding": 2508,
      "Ġengineer": 2509,
      "Ġsales": 2510,
      "Ġflying": 2511,
      "Ġhurt": 2512,
      "Ġsuicide": 2513,
      "Ġcell": 2514,
      "vin": 2515,
      "Ġmoon": 2516,
      "Ġtreat": 2517,
      "Ġmor": 2518,
      "Ġeventually": 2519,
      "Ġ200": 2520,
      "aret": 2521,
      "Ġdropped": 2522,
      "Ġcant": 2523,
      "olic": 2524,
      "Ġval": 2525,
      "Ġfacebook": 2526,
      "Ġsupposed": 2527,
      "ka": 2528,
      "Ġexcited": 2529,
      "Ġstudents": 2530,
      "Ġbike": 2531,
      "Ġspan": 2532,
      "Ġhotel": 2533,
      "Ġrequ": 2534,
      "Ġdyslex": 2535,
      "Ġmount": 2536,
      "Ġbottom": 2537,
      "Ġwel": 2538,
      "ging": 2539,
      "ift": 2540,
      "dered": 2541,
      "word": 2542,
      "Ġmama": 2543,
      "ilar": 2544,
      "Ġuncle": 2545,
      "Ġshocked": 2546,
      "mb": 2547,
      "Ġtour": 2548,
      "uses": 2549,
      "Ġaddict": 2550,
      "Ġwoods": 2551,
      "itter": 2552,
      "Ġexactly": 2553,
      "Ġwarm": 2554,
      "Ġcats": 2555,
      "Ġgarden": 2556,
      "Ġfingers": 2557,
      "Ġvisit": 2558,
      "chan": 2559,
      "Ġsmoke": 2560,
      "Ġcele": 2561,
      "Ġleaving": 2562,
      "Ġbegins": 2563,
      "enty": 2564,
      "Ġpocket": 2565,
      "Ġdating": 2566,
      "Ġmonkey": 2567,
      "Ġshows": 2568,
      "Ġhillary": 2569,
      "ision": 2570,
      "Ġteen": 2571,
      "oid": 2572,
      "Ġquiet": 2573,
      "mar": 2574,
      "Ġclinton": 2575,
      "Ġbecom": 2576,
      "port": 2577,
      "aced": 2578,
      "Ġletters": 2579,
      "ific": 2580,
      "Ġbecame": 2581,
      "Ġusually": 2582,
      "Ġempt": 2583,
      "Ġbedroom": 2584,
      "Ġcelebr": 2585,
      "Ġmissing": 2586,
      "Ġbutter": 2587,
      "gged": 2588,
      "Ġproblems": 2589,
      "Ġbrain": 2590,
      "vern": 2591,
      "Ġirishman": 2592,
      "gram": 2593,
      "Ġyelled": 2594,
      "astic": 2595,
      "icy": 2596,
      "Ġvamp": 2597,
      "Ġ18": 2598,
      "Ġsentence": 2599,
      "Ġmi": 2600,
      "Ġtech": 2601,
      "Ġmc": 2602,
      "Ġcake": 2603,
      "Ġoce": 2604,
      "Ġscot": 2605,
      "gging": 2606,
      "Ġcustomer": 2607,
      "Ġwet": 2608,
      "Ġseven": 2609,
      "Ġdoctors": 2610,
      "Ġvampire": 2611,
      "ocks": 2612,
      "Ġep": 2613,
      "ife": 2614,
      "Ġroof": 2615,
      "Ġeverybody": 2616,
      "ste": 2617,
      "Ġnorm": 2618,
      "Ġbigger": 2619,
      "Ġfair": 2620,
      "Ġhears": 2621,
      "Ġfa": 2622,
      "hel": 2623,
      "Ġsod": 2624,
      "Ġpaint": 2625,
      "no": 2626,
      "Ġabsol": 2627,
      "Ġ:'": 2628,
      "Ġhistory": 2629,
      "Ġreport": 2630,
      "Ġemb": 2631,
      "itely": 2632,
      "Ġhanging": 2633,
      "ccess": 2634,
      "Ġtherap": 2635,
      "ey": 2636,
      "Ġprofessor": 2637,
      "Ġknown": 2638,
      "Ġscreaming": 2639,
      "Ġothers": 2640,
      "Ġsleeping": 2641,
      "Ġcam": 2642,
      "Ġannoy": 2643,
      "Ġsever": 2644,
      "Ġdrugs": 2645,
      "ices": 2646,
      "Ġexcuse": 2647,
      "Ġcorner": 2648,
      "Ġride": 2649,
      "Ġtou": 2650,
      "Ġscared": 2651,
      "Ġsmoking": 2652,
      "Ġconcer": 2653,
      "Ġmuslim": 2654,
      "Ġrelig": 2655,
      "Ġbiggest": 2656,
      "Ġannoun": 2657,
      "Ġpengu": 2658,
      "Ġquestions": 2659,
      "unately": 2660,
      "ising": 2661,
      "Ġboard": 2662,
      "vert": 2663,
      "Ġcontrol": 2664,
      "Ġnorth": 2665,
      "Ġtall": 2666,
      "Ġflight": 2667,
      "Ġwrote": 2668,
      "Ġast": 2669,
      "Ġthrows": 2670,
      "Ġdouble": 2671,
      "lder": 2672,
      "Ġneck": 2673,
      "year": 2674,
      "Ġanimals": 2675,
      "----": 2676,
      "Ġcatholic": 2677,
      "ency": 2678,
      "Ġbrun": 2679,
      "Ġcigaret": 2680,
      "Ġ14": 2681,
      "Ġinvented": 2682,
      "Ġinches": 2683,
      "ushed": 2684,
      "Ġopt": 2685,
      "Ġimportant": 2686,
      "Ġaustr": 2687,
      "Ġadv": 2688,
      "Ġpope": 2689,
      "Ġtrust": 2690,
      "Ġunfort": 2691,
      "Ġattract": 2692,
      "Ġlanguage": 2693,
      "Ġseveral": 2694,
      "Ġ40": 2695,
      "Ġmathematician": 2696,
      "Ġwake": 2697,
      "Ġmas": 2698,
      "Ġquar": 2699,
      "Ġeuro": 2700,
      "Ġplayer": 2701,
      "Ġproc": 2702,
      "hab": 2703,
      "Ġmix": 2704,
      "Ġgoo": 2705,
      "Ġlying": 2706,
      "Ġriver": 2707,
      "Ġservice": 2708,
      "Ġcum": 2709,
      "ec": 2710,
      "war": 2711,
      "Ġtex": 2712,
      "Ġcolor": 2713,
      "Ġempty": 2714,
      "Ġworth": 2715,
      "Ġtatt": 2716,
      "Ġgym": 2717,
      "ites": 2718,
      "Ġpublic": 2719,
      "Ġbri": 2720,
      "Ġpian": 2721,
      "acy": 2722,
      "Ġfort": 2723,
      "Ġgri": 2724,
      "Ġlord": 2725,
      "Ġmommy": 2726,
      "Ġsurv": 2727,
      "Ġpor": 2728,
      "Ġkore": 2729,
      "gle": 2730,
      "Ġabsolute": 2731,
      "come": 2732,
      "ased": 2733,
      "Ġaff": 2734,
      "ilt": 2735,
      "Ġsuccess": 2736,
      "Ġthemselves": 2737,
      "Ġfootball": 2738,
      "iling": 2739,
      "Ġseem": 2740,
      "Ġbac": 2741,
      "Ġcas": 2742,
      "Ġtattoo": 2743,
      "Ġill": 2744,
      "Ġrelationship": 2745,
      "Ġchocolate": 2746,
      "Ġclown": 2747,
      "yy": 2748,
      "Ġah": 2749,
      "Ġprogram": 2750,
      "Ġterror": 2751,
      "une": 2752,
      "Ġobv": 2753,
      "Ġdave": 2754,
      "ertain": 2755,
      "Ġhonest": 2756,
      "Ġorgan": 2757,
      "Ġproceed": 2758,
      "Ġcars": 2759,
      "iny": 2760,
      "Ġreply": 2761,
      "Ġnames": 2762,
      "Ġstarting": 2763,
      "Ġdivorce": 2764,
      "Ġrather": 2765,
      "Ġupset": 2766,
      "Ġkicked": 2767,
      "Ġreturns": 2768,
      "osaur": 2769,
      "Ġgiven": 2770,
      "Ġocean": 2771,
      "ional": 2772,
      "Ġmirror": 2773,
      "bed": 2774,
      "Ġpoints": 2775,
      "Ġolder": 2776,
      "Ġmarry": 2777,
      "Ġfactory": 2778,
      "Ġoften": 2779,
      "que": 2780,
      "ove": 2781,
      "Ġswall": 2782,
      "Ġchina": 2783,
      "job": 2784,
      "imed": 2785,
      "Ġgovern": 2786,
      "illa": 2787,
      "Ġped": 2788,
      "com": 2789,
      "Ġequ": 2790,
      "Ġaccount": 2791,
      "Ġshouted": 2792,
      "Ġbatman": 2793,
      "Ġgent": 2794,
      "ities": 2795,
      "Ġtrees": 2796,
      "Ġclerk": 2797,
      "Ġlu": 2798,
      "Ġfeed": 2799,
      "Ġlock": 2800,
      "Ġhomeless": 2801,
      "Ġfut": 2802,
      "Ġmaster": 2803,
      "Ġwhatever": 2804,
      "Ġcondoms": 2805,
      "ctive": 2806,
      "Ġinterest": 2807,
      "uation": 2808,
      "Ġgotta": 2809,
      "Ġobama": 2810,
      "Ġliter": 2811,
      "mate": 2812,
      "Ġanyway": 2813,
      "Ġchance": 2814,
      "Ġahead": 2815,
      "Ġvideo": 2816,
      "Ġgrass": 2817,
      "Ġchemist": 2818,
      "Ġbun": 2819,
      "Ġworked": 2820,
      "uu": 2821,
      "Ġesca": 2822,
      "Ġdraw": 2823,
      "Ġbrunette": 2824,
      "Ġjail": 2825,
      "ndred": 2826,
      "Ġtooth": 2827,
      "Ġsoup": 2828,
      "amb": 2829,
      "Ġadm": 2830,
      "ww": 2831,
      "ables": 2832,
      "Ġinterviewer": 2833,
      "ults": 2834,
      "Ġcashier": 2835,
      "lin": 2836,
      "Ġpunchline": 2837,
      "Ġpassen": 2838,
      "Ġattend": 2839,
      "Ġdiscuss": 2840,
      "Ġspell": 2841,
      "Ġmagic": 2842,
      "Ġlearned": 2843,
      "Ġsmile": 2844,
      "Ġtries": 2845,
      "Ġextra": 2846,
      "Ġdying": 2847,
      "Ġhorn": 2848,
      "Ġsport": 2849,
      "Ġslowly": 2850,
      "Ġstro": 2851,
      "Ġfence": 2852,
      "Ġadam": 2853,
      "Ġhundred": 2854,
      "Ġcoron": 2855,
      "Ġonto": 2856,
      "Ġcowboy": 2857,
      "Ġcalm": 2858,
      "Ġisland": 2859,
      "Ġsafe": 2860,
      "Ġsuit": 2861,
      "Ġcops": 2862,
      "Ġwhore": 2863,
      "Ġgift": 2864,
      "Ġcro": 2865,
      "iat": 2866,
      "Ġbreath": 2867,
      "Ġneither": 2868,
      "owers": 2869,
      "Ġglasses": 2870,
      "aring": 2871,
      "Ġsomebody": 2872,
      "Ġprinc": 2873,
      "ays": 2874,
      "Ġsexual": 2875,
      "Ġforest": 2876,
      "Ġvan": 2877,
      "Ġchanged": 2878,
      "Ġshare": 2879,
      "Ġgeorge": 2880,
      "Ġquit": 2881,
      "Ġunfortunately": 2882,
      "Ġtil": 2883,
      "Ġallowed": 2884,
      "Ġprefer": 2885,
      "ior": 2886,
      "Ġhungry": 2887,
      "Ġfigure": 2888,
      "20": 2889,
      "ino": 2890,
      "Ġworried": 2891,
      "ene": 2892,
      "Ġsocial": 2893,
      "Ġtrave": 2894,
      "Ġchief": 2895,
      "Ġgrocer": 2896,
      "Ġpicked": 2897,
      "Ġamericans": 2898,
      "Ġsugg": 2899,
      "anda": 2900,
      "Ġbritish": 2901,
      "fl": 2902,
      "icle": 2903,
      "do": 2904,
      "Ġsuggest": 2905,
      "vies": 2906,
      "nam": 2907,
      "Ġfinal": 2908,
      "Ġlights": 2909,
      "time": 2910,
      "Ġrecord": 2911,
      "Ġsperm": 2912,
      "Ġhip": 2913,
      "Ġcrowd": 2914,
      "ik": 2915,
      "rif": 2916,
      "Ġcoll": 2917,
      "kend": 2918,
      "Ġbeef": 2919,
      "Ġcannibal": 2920,
      "Ġsoft": 2921,
      "Ġalp": 2922,
      "Ġdest": 2923,
      "Ġsund": 2924,
      "Ġdump": 2925,
      "Ġeight": 2926,
      "row": 2927,
      "Ġdue": 2928,
      "iment": 2929,
      "Ġweekend": 2930,
      "Ġdry": 2931,
      "Ġrussia": 2932,
      "Ġpuns": 2933,
      "Ġgentle": 2934,
      "kin": 2935,
      "illy": 2936,
      "Ġfet": 2937,
      "Ġhallow": 2938,
      "Ġiss": 2939,
      "Ġembarr": 2940,
      "Ġelev": 2941,
      "Ġinvest": 2942,
      "Ġange": 2943,
      "go": 2944,
      "Ġtowards": 2945,
      "Ġvagin": 2946,
      "Ġrepe": 2947,
      "Ġheads": 2948,
      "Ġeve": 2949,
      "orter": 2950,
      "Ġbowl": 2951,
      "Ġtip": 2952,
      "Ġmail": 2953,
      "Ġdance": 2954,
      "itten": 2955,
      "Ġchristian": 2956,
      "Ġmeeting": 2957,
      "Ġdesert": 2958,
      "Ġspent": 2959,
      "iving": 2960,
      "Ġfur": 2961,
      "ality": 2962,
      "Ġeverywhere": 2963,
      "Ġvegan": 2964,
      "Ġfeels": 2965,
      "rab": 2966,
      "Ġcannot": 2967,
      "Ġherself": 2968,
      "Ġbarber": 2969,
      "Ġdrown": 2970,
      "Ġloves": 2971,
      "Ġfuture": 2972,
      "Ġfrank": 2973,
      "Ġmeal": 2974,
      "Ġflies": 2975,
      "stem": 2976,
      "stein": 2977,
      "lla": 2978,
      "bbed": 2979,
      "Ġharry": 2980,
      "Ġgates": 2981,
      "Ġeats": 2982,
      "Ġmountain": 2983,
      "hen": 2984,
      "Ġdeg": 2985,
      "Ġpaid": 2986,
      "Ġstates": 2987,
      "Ġdescri": 2988,
      "nie": 2989,
      "Ġobs": 2990,
      "Ġstal": 2991,
      "Ġpriv": 2992,
      "Ġattention": 2993,
      "Ġlesbian": 2994,
      "Ġembarrass": 2995,
      "Ġform": 2996,
      "Ġhalloween": 2997,
      "Ġwashing": 2998,
      "Ġordered": 2999,
      "aw": 3000,
      "Ġdressed": 3001,
      "Ġended": 3002,
      "Ġ90": 3003,
      "Ġoriginal": 3004,
      "Ġeurope": 3005,
      "Ġkick": 3006,
      "Ġhipp": 3007,
      "Ġfridge": 3008,
      "Ġpract": 3009,
      "Ġmechan": 3010,
      "Ġshopping": 3011,
      "Ġsna": 3012,
      "Ġphar": 3013,
      "Ġwash": 3014,
      "Ġsteps": 3015,
      "Ġstairs": 3016,
      "Ġjumped": 3017,
      "Ġsilence": 3018,
      "Ġsoc": 3019,
      "Ġodd": 3020,
      "Ġgovernment": 3021,
      "Ġaccept": 3022,
      "Ġpassword": 3023,
      "Ġscreams": 3024,
      "ample": 3025,
      "ived": 3026,
      "Ġsystem": 3027,
      "Ġsize": 3028,
      "Ġbell": 3029,
      "Ġgrabs": 3030,
      "don": 3031,
      "sc": 3032,
      "Ġbegin": 3033,
      "Ġaud": 3034,
      "Ġcharge": 3035,
      "gas": 3036,
      "Ġdeaf": 3037,
      "yl": 3038,
      "leep": 3039,
      "Ġstood": 3040,
      "Ġdinosaur": 3041,
      "Ġspanish": 3042,
      "Ġcover": 3043,
      "Ġweed": 3044,
      "Ġwindows": 3045,
      "Ġlaughs": 3046,
      "Ġalive": 3047,
      "hood": 3048,
      "llen": 3049,
      "verse": 3050,
      "gs": 3051,
      "Ġmouse": 3052,
      "stairs": 3053,
      "ky": 3054,
      "ller": 3055,
      "Ġguard": 3056,
      "cil": 3057,
      "ef": 3058,
      "Ġpant": 3059,
      "Ġhasn": 3060,
      "ination": 3061,
      "Ġbon": 3062,
      "Ġmurder": 3063,
      "Ġoppos": 3064,
      "Ġtail": 3065,
      "Ġpharm": 3066,
      "Ġelder": 3067,
      "Ġrele": 3068,
      "Ġbal": 3069,
      "Ġstrange": 3070,
      "Ġbaker": 3071,
      "Ġcircum": 3072,
      "Ġmain": 3073,
      "Ġsoldier": 3074,
      "ories": 3075,
      "Ġpean": 3076,
      "Ġimag": 3077,
      "els": 3078,
      "ruction": 3079,
      "nded": 3080,
      "Ġbush": 3081,
      "Ġpaddy": 3082,
      "reme": 3083,
      "Ġdyslexic": 3084,
      "Ġsearch": 3085,
      "Ġplayed": 3086,
      "Ġsteve": 3087,
      "Ġtechn": 3088,
      "Ġremoved": 3089,
      "Ġnet": 3090,
      "Ġhumor": 3091,
      "Ġ500": 3092,
      "Ġcru": 3093,
      "Ġbirds": 3094,
      "ho": 3095,
      "Ġserious": 3096,
      "Ġdisappe": 3097,
      "Ġdefinitely": 3098,
      "Ġelevator": 3099,
      "Ġtravel": 3100,
      "Ġrobot": 3101,
      "Ġjimmy": 3102,
      "ility": 3103,
      "Ġproper": 3104,
      "Ġimm": 3105,
      "Ġbarman": 3106,
      "Ġmarket": 3107,
      "Ġhooker": 3108,
      "Ġpicks": 3109,
      "Ġmasturbating": 3110,
      "Ġbrings": 3111,
      "Ġbomb": 3112,
      "Ġasleep": 3113,
      "kk": 3114,
      "ony": 3115,
      "Ġholiday": 3116,
      "Ġdonkey": 3117,
      "Ġpal": 3118,
      "Ġjam": 3119,
      "Ġsurger": 3120,
      "Ġbegan": 3121,
      "phy": 3122,
      "Ġteach": 3123,
      "Ġbreaking": 3124,
      "Ġwit": 3125,
      "Ġnon": 3126,
      "Ġlift": 3127,
      "ession": 3128,
      "Ġshowed": 3129,
      "Ġmult": 3130,
      "Ġvict": 3131,
      "Ġqueen": 3132,
      "Ġwatched": 3133,
      "Ġposition": 3134,
      "cts": 3135,
      "Ġspo": 3136,
      "Ġhost": 3137,
      "Ġrow": 3138,
      "redd": 3139,
      "agra": 3140,
      "Ġsurprise": 3141,
      "Ġ!'": 3142,
      "gar": 3143,
      "Ġfishing": 3144,
      "Ġgf": 3145,
      "Ġdesk": 3146,
      "Ġbrand": 3147,
      "Ġ13": 3148,
      "Ġlibrary": 3149,
      "Ġtherapist": 3150,
      "Ġunless": 3151,
      "Ġchest": 3152,
      "Ġlets": 3153,
      "Ġcab": 3154,
      "Ġlaid": 3155,
      "Ġcompet": 3156,
      "Ġnazi": 3157,
      "Ġow": 3158,
      "Ġrealize": 3159,
      "ued": 3160,
      "ito": 3161,
      "oooooooo": 3162,
      "Ġmart": 3163,
      "Ġwondering": 3164,
      "Ġends": 3165,
      "Ġsilent": 3166,
      "Ġpresent": 3167,
      "Ġmiles": 3168,
      "Ġexpensive": 3169,
      "Ġsurgery": 3170,
      "ube": 3171,
      "Ġcrime": 3172,
      "Ġgrad": 3173,
      "Ġwriting": 3174,
      "Ġnumbers": 3175,
      "nn": 3176,
      "Ġnerv": 3177,
      "Ġtwitter": 3178,
      "Ġhits": 3179,
      "Ġmel": 3180,
      "Ġsimilar": 3181,
      "Ġnervous": 3182,
      "Ġment": 3183,
      "Ġdise": 3184,
      "anic": 3185,
      "Ġsouth": 3186,
      "Ġliterally": 3187,
      "Ġreach": 3188,
      "Ġbucket": 3189,
      "Ġmovies": 3190,
      "Ġgeneral": 3191,
      "Ġscientist": 3192,
      "Ġain": 3193,
      "Ġbanana": 3194,
      "Ġspl": 3195,
      "Ġske": 3196,
      "wear": 3197,
      "Ġbilly": 3198,
      "Ġcharac": 3199,
      "Ġyelling": 3200,
      "Ġbuying": 3201,
      "Ġfollowing": 3202,
      "istic": 3203,
      "Ġsmells": 3204,
      "Ġtre": 3205,
      "oul": 3206,
      "Ġham": 3207,
      "Ġheavy": 3208,
      "Ġenglishman": 3209,
      "Ġexclaims": 3210,
      "Ġiphone": 3211,
      "Ġcertain": 3212,
      "Ġadvice": 3213,
      "rat": 3214,
      "Ġthats": 3215,
      "Ġload": 3216,
      "iac": 3217,
      "Ġredne": 3218,
      "Ġabsolutely": 3219,
      "Ġtap": 3220,
      "Ġmaj": 3221,
      "Ġsquare": 3222,
      "Ġpiano": 3223,
      "pers": 3224,
      "Ġoc": 3225,
      "Ġcheap": 3226,
      "Ġticket": 3227,
      "gress": 3228,
      "olf": 3229,
      "acul": 3230,
      "Ġprop": 3231,
      "lier": 3232,
      "Ġseriously": 3233,
      "Ġpolitician": 3234,
      "Ġevening": 3235,
      "zer": 3236,
      "Ġfriday": 3237,
      "Ġnut": 3238,
      "Ġsnake": 3239,
      "apt": 3240,
      "cent": 3241,
      "Ġprin": 3242,
      "verage": 3243,
      "Ġliked": 3244,
      "Ġfear": 3245,
      "Ġtrick": 3246,
      "Ġbucks": 3247,
      "Ġducks": 3248,
      "olen": 3249,
      "back": 3250,
      "Ġdeb": 3251,
      "Ġcowork": 3252,
      "Ġpopular": 3253,
      "Ġcute": 3254,
      "Ġfle": 3255,
      "Ġbast": 3256,
      "Ġturkey": 3257,
      "Ġsalad": 3258,
      "Ġblondes": 3259,
      "bu": 3260,
      "Ġloved": 3261,
      "Ġavoid": 3262,
      "rel": 3263,
      "Ġjoin": 3264,
      "orris": 3265,
      "Ġnotice": 3266,
      "Ġhid": 3267,
      "Ġcast": 3268,
      "ipp": 3269,
      "Ġber": 3270,
      "asure": 3271,
      "Ġears": 3272,
      "Ġdiet": 3273,
      "Ġenter": 3274,
      "Ġpoop": 3275,
      "gust": 3276,
      "Ġign": 3277,
      "Ġfool": 3278,
      "Ġfaster": 3279,
      "Ġairpl": 3280,
      "Ġunited": 3281,
      "ousand": 3282,
      "Ġapolog": 3283,
      "Ġswimming": 3284,
      "Ġpounds": 3285,
      "Ġimagine": 3286,
      "ires": 3287,
      "Ġmagician": 3288,
      "house": 3289,
      "order": 3290,
      "Ġwishes": 3291,
      "Ġneg": 3292,
      "Ġwakes": 3293,
      "Ġlat": 3294,
      "Ġspider": 3295,
      "Ġsar": 3296,
      "Ġriding": 3297,
      "Ġthousand": 3298,
      "Ġblew": 3299,
      "Ġclearly": 3300,
      "po": 3301,
      "Ġtun": 3302,
      "Ġshoulder": 3303,
      "Ġnormal": 3304,
      "Ġopposite": 3305,
      "Ġpoke": 3306,
      "Ġdisgust": 3307,
      "Ġbooks": 3308,
      "geon": 3309,
      "Ġexperience": 3310,
      "Ġsunday": 3311,
      "Ġsam": 3312,
      "Ġfake": 3313,
      "ury": 3314,
      "Ġprot": 3315,
      "Ġ80": 3316,
      "Ġkilling": 3317,
      "Ġeaster": 3318,
      "Ġcy": 3319,
      "Ġstom": 3320,
      "Ġmexicans": 3321,
      "Ġvagina": 3322,
      "Ġnah": 3323,
      "Ġtele": 3324,
      "Ġgiant": 3325,
      "Ġhig": 3326,
      "Ġpenguin": 3327,
      "Ġtow": 3328,
      "Ġtwenty": 3329,
      "Ġpissed": 3330,
      "Ġet": 3331,
      "Ġremind": 3332,
      "Ġwhiskey": 3333,
      "Ġwelcome": 3334,
      "Ġgarb": 3335,
      "Ġbare": 3336,
      "Ġbin": 3337,
      "ffin": 3338,
      "velop": 3339,
      "Ġgoogle": 3340,
      "uth": 3341,
      "igator": 3342,
      "Ġfinding": 3343,
      "Ġrepl": 3344,
      "Ġelderly": 3345,
      "Ġforward": 3346,
      "Ġsuff": 3347,
      "Ġjuan": 3348,
      "berg": 3349,
      "Ġfresh": 3350,
      "Ġsmiles": 3351,
      "Ġbaseball": 3352,
      "Ġjer": 3353,
      "Ġvol": 3354,
      "Ġspread": 3355,
      "Ġfamous": 3356,
      "Ġtypes": 3357,
      "iger": 3358,
      "Ġbridge": 3359,
      "Ġagree": 3360,
      "Ġselling": 3361,
      "Ġworker": 3362,
      "Ġneighbour": 3363,
      "Ġtwe": 3364,
      "Ġcos": 3365,
      "Ġmicro": 3366,
      "Ġalphab": 3367,
      "Ġsigh": 3368,
      "Ġstring": 3369,
      "Ġille": 3370,
      "Ġhorses": 3371,
      "Ġpush": 3372,
      "Ġren": 3373,
      "Ġmike": 3374,
      "Ġastron": 3375,
      "ex": 3376,
      "Ġhanded": 3377,
      "Ġradio": 3378,
      "Ġyork": 3379,
      "ashed": 3380,
      "Ġexist": 3381,
      "Ġarmy": 3382,
      "Ġmoving": 3383,
      "Ġpossible": 3384,
      "Ġcandy": 3385,
      "Ġgor": 3386,
      "Ġgree": 3387,
      "Ġsituation": 3388,
      "Ġsucks": 3389,
      "Ġlog": 3390,
      "itted": 3391,
      "Ġcondition": 3392,
      "Ġregular": 3393,
      "Ġtotally": 3394,
      "Ġapproaches": 3395,
      "Ġscientists": 3396,
      "yle": 3397,
      "Ġemployee": 3398,
      "Ġilleg": 3399,
      "Ġdwar": 3400,
      "Ġgig": 3401,
      "Ġstolen": 3402,
      "Ġprote": 3403,
      "Ġgang": 3404,
      "Ġgames": 3405,
      "Ġnorris": 3406,
      "Ġexplains": 3407,
      "Ġarea": 3408,
      "Ġputin": 3409,
      "Ġarab": 3410,
      "Ġvacation": 3411,
      "omy": 3412,
      "Ġdrag": 3413,
      "nel": 3414,
      "Ġdrops": 3415,
      "Ġdiscovered": 3416,
      "Ġgrant": 3417,
      "Ġenters": 3418,
      "Ġpositive": 3419,
      "law": 3420,
      "Ġrul": 3421,
      "Ġglad": 3422,
      "Ġpuzz": 3423,
      "Ġwhale": 3424,
      "tes": 3425,
      "Ġrolls": 3426,
      "Ġphil": 3427,
      "rodu": 3428,
      "Ġblowjob": 3429,
      "Ġtiny": 3430,
      "Ġconv": 3431,
      "bing": 3432,
      "Ġbecomes": 3433,
      "Ġocc": 3434,
      "urity": 3435,
      "Ġwaitress": 3436,
      "Ġalphabet": 3437,
      "itty": 3438,
      "Ġcrash": 3439,
      "Ġdav": 3440,
      "Ġmissed": 3441,
      "Ġlamp": 3442,
      "Ġgram": 3443,
      "Ġsteak": 3444,
      "Ġtight": 3445,
      "Ġgy": 3446,
      "Ġroo": 3447,
      "Ġdisappoint": 3448,
      "Ġtar": 3449,
      "keep": 3450,
      "Ġdefe": 3451,
      "tern": 3452,
      "Ġliqu": 3453,
      "Ġshakes": 3454,
      "Ġslept": 3455,
      "Ġpencil": 3456,
      "Ġ99": 3457,
      "Ġstudy": 3458,
      "Ġdisease": 3459,
      "onse": 3460,
      "Ġhaw": 3461,
      "ception": 3462,
      "Ġcous": 3463,
      "oned": 3464,
      "oring": 3465,
      "Ġargu": 3466,
      "iction": 3467,
      "Ġbuilt": 3468,
      "Ġsimple": 3469,
      "ils": 3470,
      "Ġgener": 3471,
      "Ġrand": 3472,
      "ends": 3473,
      "Ġweather": 3474,
      "Ġjobs": 3475,
      "mes": 3476,
      "Ġtears": 3477,
      "Ġearlier": 3478,
      "Ġforce": 3479,
      "Ġchoose": 3480,
      "Ġbackwards": 3481,
      "Ġflag": 3482,
      "Ġinform": 3483,
      "Ġyellow": 3484,
      "Ġpsychiat": 3485,
      "Ġresponse": 3486,
      "Ġlevel": 3487,
      "Ġchef": 3488,
      "Ġunderwear": 3489,
      "ico": 3490,
      "Ġfighting": 3491,
      "rrrr": 3492,
      "Ġtits": 3493,
      "Ġtie": 3494,
      "Ġdig": 3495,
      "Ġvill": 3496,
      "Ġdish": 3497,
      "Ġrh": 3498,
      "Ġmistake": 3499,
      "Ġwild": 3500,
      "Ġathe": 3501,
      "Ġmoved": 3502,
      "Ġident": 3503,
      "Ġviagra": 3504,
      "Ġflowers": 3505,
      "empt": 3506,
      "Ġdevelop": 3507,
      "hea": 3508,
      "icles": 3509,
      "Ġelectric": 3510,
      "lock": 3511,
      "Ġlived": 3512,
      "ery": 3513,
      "Ġnine": 3514,
      "Ġnuns": 3515,
      "cut": 3516,
      "Ġwav": 3517,
      "Ġplant": 3518,
      "Ġbacon": 3519,
      "donald": 3520,
      "ju": 3521,
      "ache": 3522,
      "Ġcliff": 3523,
      "Ġsalesman": 3524,
      "kn": 3525,
      "off": 3526,
      "Ġlol": 3527,
      "Ġitself": 3528,
      "Ġafrica": 3529,
      "Ġcontain": 3530,
      "hhhh": 3531,
      "Ġcanadian": 3532,
      "Ġweak": 3533,
      "Ġmedic": 3534,
      "ware": 3535,
      "ural": 3536,
      "Ġagrees": 3537,
      "Ġflu": 3538,
      "Ġgrocery": 3539,
      "Ġtomato": 3540,
      "Ġarrived": 3541,
      "Ġjacks": 3542,
      "Ġknife": 3543,
      "Ġexec": 3544,
      "Ġnec": 3545,
      "Ġyours": 3546,
      "zard": 3547,
      "itar": 3548,
      "Ġrom": 3549,
      "Ġlone": 3550,
      "what": 3551,
      "Ġdete": 3552,
      "Ġhero": 3553,
      "Ġpeace": 3554,
      "ression": 3555,
      "Ġdevil": 3556,
      "Ġnative": 3557,
      "ares": 3558,
      "Ġobviously": 3559,
      "Ġdoors": 3560,
      "Ġlistening": 3561,
      "ram": 3562,
      "Ġze": 3563,
      "Ġbite": 3564,
      "Ġcoke": 3565,
      "Ġspee": 3566,
      "ops": 3567,
      "Ġsov": 3568,
      "Ġlots": 3569,
      "Ġwhose": 3570,
      "Ġprice": 3571,
      "Ġfac": 3572,
      "izes": 3573,
      "ius": 3574,
      "Ġsecurity": 3575,
      "Ġjuice": 3576,
      "Ġextreme": 3577,
      "Ġconstip": 3578,
      "Ġdar": 3579,
      "Ġemerg": 3580,
      "itary": 3581,
      "Ġrings": 3582,
      "Ġattractive": 3583,
      "chair": 3584,
      "Ġcouch": 3585,
      "Ġdrum": 3586,
      "Ġbuys": 3587,
      "Ġcarp": 3588,
      "Ġshots": 3589,
      "Ġwars": 3590,
      "Ġbeers": 3591,
      "hip": 3592,
      "Ġpin": 3593,
      "Ġbelt": 3594,
      "Ġdou": 3595,
      "Ġhall": 3596,
      "Ġmedical": 3597,
      "cul": 3598,
      "Ġholes": 3599,
      "ration": 3600,
      "Ġpoliceman": 3601,
      "Ġbasket": 3602,
      "Ġcho": 3603,
      "Ġmos": 3604,
      "Ġairplane": 3605,
      "Ġund": 3606,
      "Ġfeminist": 3607,
      "Ġvie": 3608,
      "nes": 3609,
      "Ġmod": 3610,
      "reed": 3611,
      "Ġrose": 3612,
      "nding": 3613,
      "cted": 3614,
      "iff": 3615,
      "Ġaverage": 3616,
      "ppy": 3617,
      "Ġprev": 3618,
      "ibly": 3619,
      "Ġgoat": 3620,
      "Ġparking": 3621,
      "Ġcircumc": 3622,
      "idence": 3623,
      "Ġyounger": 3624,
      "gger": 3625,
      "Ġlucky": 3626,
      "ham": 3627,
      "Ġfalling": 3628,
      "Ġpear": 3629,
      "Ġcovered": 3630,
      "Ġpolish": 3631,
      "Ġairport": 3632,
      "Ġta": 3633,
      "Ġdanger": 3634,
      "Ġtoast": 3635,
      "Ġdiarr": 3636,
      "Ġdirection": 3637,
      "Ġredhead": 3638,
      "Ġpage": 3639,
      "Ġwhether": 3640,
      "Ġfrance": 3641,
      "Ġcontinues": 3642,
      "Ġguitar": 3643,
      "Ġtraffic": 3644,
      "Ġrequest": 3645,
      "ley": 3646,
      "Ġpaul": 3647,
      "Ġdrove": 3648,
      "Ġmotor": 3649,
      "Ġpap": 3650,
      "Ġkim": 3651,
      "Ġposted": 3652,
      "Ġwooden": 3653,
      "Ġperform": 3654,
      "Ġmac": 3655,
      "Ġcarrying": 3656,
      "Ġgrave": 3657,
      "oh": 3658,
      "Ġnic": 3659,
      "Ġweren": 3660,
      "lymp": 3661,
      "Ġboobs": 3662,
      "kward": 3663,
      "paper": 3664,
      "Ġroman": 3665,
      "Ġpsychiatrist": 3666,
      "Ġpanda": 3667,
      "Ġcontest": 3668,
      "Ġcomment": 3669,
      "Ġ.''": 3670,
      "rd": 3671,
      "Ġfed": 3672,
      "ril": 3673,
      "sters": 3674,
      "Ġchoice": 3675,
      "Ġwheelchair": 3676,
      "Ġfailed": 3677,
      "Ġpump": 3678,
      "Ġpepper": 3679,
      "Ġnav": 3680,
      "Ġsale": 3681,
      "Ġmrs": 3682,
      "Ġmemory": 3683,
      "Ġpink": 3684,
      "ply": 3685,
      "you": 3686,
      "Ġsort": 3687,
      "Ġstars": 3688,
      "Ġabort": 3689,
      "Ġchr": 3690,
      "Ġheld": 3691,
      "Ġnational": 3692,
      "Ġgrab": 3693,
      "Ġdealer": 3694,
      "Ġgrowing": 3695,
      "Ġtank": 3696,
      "Ġolymp": 3697,
      "Ġpi": 3698,
      "imer": 3699,
      "Ġsoviet": 3700,
      "fish": 3701,
      "mother": 3702,
      "Ġgreatest": 3703,
      "Ġvegetable": 3704,
      "Ġargument": 3705,
      "Ġdiffic": 3706,
      "Ġplaces": 3707,
      "iter": 3708,
      "Ġreturned": 3709,
      "fet": 3710,
      "Ġom": 3711,
      "Ġplastic": 3712,
      "Ġterm": 3713,
      "Ġcamer": 3714,
      "Ġspeech": 3715,
      "Ġpour": 3716,
      "Ġbastard": 3717,
      "Ġawkward": 3718,
      "Ġcart": 3719,
      "Ġmonk": 3720,
      "Ġcurious": 3721,
      "Ġfurious": 3722,
      "Ġdepressed": 3723,
      "Ġbump": 3724,
      "Ġclosed": 3725,
      "Ġelection": 3726,
      "xual": 3727,
      "oms": 3728,
      "Ġsmith": 3729,
      "Ġpaying": 3730,
      "ushes": 3731,
      "Ġcanada": 3732,
      "Ġmechanic": 3733,
      "Ġjackson": 3734,
      "Ġremain": 3735,
      "Ġbears": 3736,
      "Ġemail": 3737,
      "Ġknowing": 3738,
      "Ġcher": 3739,
      "Ġoven": 3740,
      "Ġbusy": 3741,
      "Ġdemand": 3742,
      "Ġredneck": 3743,
      "Ġtaxi": 3744,
      "Ġscience": 3745,
      "Ġparach": 3746,
      "Ġexplained": 3747,
      "lines": 3748,
      "uc": 3749,
      "Ġcents": 3750,
      "ager": 3751,
      "Ġmark": 3752,
      "Ġhorrible": 3753,
      "Ġtha": 3754,
      "Ġfilled": 3755,
      "wal": 3756,
      "Ġjames": 3757,
      "Ġrip": 3758,
      "Ġtastes": 3759,
      "Ġ16": 3760,
      "Ġsexy": 3761,
      "Ġbreaks": 3762,
      "ba": 3763,
      "Ġbean": 3764,
      "Ġmajor": 3765,
      "Ġisis": 3766,
      "Ġalab": 3767,
      "inger": 3768,
      "Ġcere": 3769,
      "Ġpictures": 3770,
      "Ġspec": 3771,
      "ushing": 3772,
      "par": 3773,
      "Ġscots": 3774,
      "Ġpron": 3775,
      "Ġsummer": 3776,
      "rop": 3777,
      "Ġzomb": 3778,
      "zhe": 3779,
      "Ġlic": 3780,
      "Ġrandom": 3781,
      "Ġoil": 3782,
      "Ġforever": 3783,
      "Ġwatson": 3784,
      "Ġleader": 3785,
      "Ġwallet": 3786,
      "Ġmcdonald": 3787,
      "Ġhorny": 3788,
      "Ġsaus": 3789,
      "Ġhunting": 3790,
      "roph": 3791,
      "Ġmush": 3792,
      "Ġcrap": 3793,
      "Ġstaring": 3794,
      "Ġoct": 3795,
      "Ġsail": 3796,
      "Ġstomach": 3797,
      "ero": 3798,
      "Ġonline": 3799,
      "Ġcharged": 3800,
      "Ġartist": 3801,
      "Ġalzhe": 3802,
      "Ġnope": 3803,
      "Ġpolar": 3804,
      "Ġbreasts": 3805,
      "bra": 3806,
      "Ġ24": 3807,
      "minal": 3808,
      "feren": 3809,
      "Ġblock": 3810,
      "Ġcunt": 3811,
      "Ġkinda": 3812,
      "Ġshoe": 3813,
      "gen": 3814,
      "Ġhen": 3815,
      "Ġopin": 3816,
      "Ġsinging": 3817,
      "Ġtong": 3818,
      "Ġyard": 3819,
      "esome": 3820,
      "Ġmomma": 3821,
      "Ġarrives": 3822,
      "',": 3823,
      "Ġsi": 3824,
      "reen": 3825,
      "Ġkidding": 3826,
      "box": 3827,
      "Ġmexico": 3828,
      "Ġwitness": 3829,
      "Ġaccord": 3830,
      "Ġtitle": 3831,
      "Ġafrican": 3832,
      "Ġcigarette": 3833,
      "Ġknee": 3834,
      "rupt": 3835,
      "Ġuh": 3836,
      "Ġdavid": 3837,
      "asc": 3838,
      "Ġbutton": 3839,
      "Ġ911": 3840,
      "Ġcou": 3841,
      "Ġexample": 3842,
      "Ġbuff": 3843,
      "Ġattempt": 3844,
      "Ġhurts": 3845,
      "isf": 3846,
      "Ġknight": 3847,
      "action": 3848,
      "Ġexclaimed": 3849,
      "Ġseason": 3850,
      "Ġdet": 3851,
      "Ġminor": 3852,
      "Ġadop": 3853,
      "val": 3854,
      "Ġhes": 3855,
      "Ġplate": 3856,
      "Ġresults": 3857,
      "Ġapril": 3858,
      "Ġkiller": 3859,
      "Ġincred": 3860,
      "Ġgender": 3861,
      "Ġbees": 3862,
      "Ġrope": 3863,
      "Ġpieces": 3864,
      "Ġdelivery": 3865,
      "Ġstranger": 3866,
      "Ġcousin": 3867,
      "using": 3868,
      "Ġgotten": 3869,
      "Ġagent": 3870,
      "Ġpartic": 3871,
      "Ġaids": 3872,
      "Ġdwarf": 3873,
      "Ġtamp": 3874,
      "lies": 3875,
      "Ġamount": 3876,
      "Ġpasses": 3877,
      "Ġgermany": 3878,
      "Ġwinter": 3879,
      "oss": 3880,
      "uum": 3881,
      "Ġsimply": 3882,
      "Ġwest": 3883,
      "Ġjar": 3884,
      "Ġraise": 3885,
      "gl": 3886,
      "Ġoffer": 3887,
      "Ġreporter": 3888,
      "Ġpirates": 3889,
      "Ġstalin": 3890,
      "Ġmars": 3891,
      "roy": 3892,
      "Ġeh": 3893,
      "Ġrev": 3894,
      "Ġ60": 3895,
      "Ġsatan": 3896,
      "Ġcomedian": 3897,
      "Ġdiarrhea": 3898,
      "Ġerection": 3899,
      "Ġagreed": 3900,
      "Ġholds": 3901,
      "Ġmatch": 3902,
      "Ġarguing": 3903,
      "ified": 3904,
      "Ġrespect": 3905,
      "can": 3906,
      "Ġfer": 3907,
      "Ġspir": 3908,
      "Ġhighway": 3909,
      "Ġcapital": 3910,
      "Ġcreated": 3911,
      "Ġalabama": 3912,
      "acist": 3913,
      "Ġchew": 3914,
      "iety": 3915,
      "Ġstorm": 3916,
      "Ġ?''": 3917,
      "Ġtu": 3918,
      "Ġtiger": 3919,
      "Ġmal": 3920,
      "Ġblank": 3921,
      "Ġtwins": 3922,
      "Ġyell": 3923,
      "Ġuk": 3924,
      "Ġbud": 3925,
      "Ġpasta": 3926,
      "Ġawesome": 3927,
      "Ġmushroom": 3928,
      "Ġnoise": 3929,
      "Ġamb": 3930,
      "Ġsour": 3931,
      "Ġchallen": 3932,
      "Ġinvited": 3933,
      "Ġsusp": 3934,
      "Ġskelet": 3935,
      "Ġmember": 3936,
      "Ġmessage": 3937,
      "Ġseal": 3938,
      "Ġbarb": 3939,
      "Ġprivate": 3940,
      "mark": 3941,
      "Ġken": 3942,
      "Ġafford": 3943,
      "Ġcoworker": 3944,
      "night": 3945,
      "Ġwithin": 3946,
      "Ġpretend": 3947,
      "Ġillegal": 3948,
      "pir": 3949,
      "itor": 3950,
      "oop": 3951,
      "Ġrepub": 3952,
      "Ġ69": 3953,
      "Ġplanet": 3954,
      "icycle": 3955,
      "Ġnick": 3956,
      "Ġknees": 3957,
      "Ġview": 3958,
      "Ġpatients": 3959,
      "Ġlake": 3960,
      "Ġcoca": 3961,
      "Ġprep": 3962,
      "Ġbench": 3963,
      "Ġrese": 3964,
      "Ġnearly": 3965,
      "cially": 3966,
      "Ġsquir": 3967,
      "Ġslight": 3968,
      "Ġmedium": 3969,
      "Ġfigured": 3970,
      "Ġpronoun": 3971,
      "Ġcamel": 3972,
      "sa": 3973,
      "Ġthro": 3974,
      "Ġbrothers": 3975,
      "ground": 3976,
      "Ġrape": 3977,
      "Ġcloset": 3978,
      "Ġchat": 3979,
      "Ġ2020": 3980,
      "Ġgroan": 3981,
      "Ġgira": 3982,
      "fuck": 3983,
      "Ġreception": 3984,
      "Ġphysic": 3985,
      "essed": 3986,
      "antic": 3987,
      "Ġtimmy": 3988,
      "ugs": 3989,
      "Ġsmiled": 3990,
      "Ġcompetition": 3991,
      "rit": 3992,
      "Ġbes": 3993,
      "Ġbright": 3994,
      "Ġinch": 3995,
      "Ġvet": 3996,
      "Ġuses": 3997,
      "Ġgrandmother": 3998,
      "Ġtoy": 3999,
      "Ġstone": 4000,
      "Ġoffered": 4001,
      "Ġinteresting": 4002,
      "Ġvacuum": 4003,
      "Ġabove": 4004,
      "Ġtongue": 4005,
      "Ġfrustr": 4006,
      "Ġcamping": 4007,
      "Ġsink": 4008,
      "Ġmans": 4009,
      "wel": 4010,
      "Ġassist": 4011,
      "Ġlazy": 4012,
      "Ġsalt": 4013,
      "Ġquarter": 4014,
      "Ġaddicted": 4015,
      "Ġflash": 4016,
      "Ġdifficult": 4017,
      "Ġladder": 4018,
      "Ġraised": 4019,
      "Ġtough": 4020,
      "Ġeffe": 4021,
      "Ġgrade": 4022,
      "Ġsnee": 4023,
      "Ġboun": 4024,
      "reddit": 4025,
      "Ġscotsman": 4026,
      "Ġmort": 4027,
      "Ġdrank": 4028,
      "Ġwritten": 4029,
      "Ġknocked": 4030,
      "Ġlines": 4031,
      "Ġtracks": 4032,
      "Ġshoots": 4033,
      "Ġcuz": 4034,
      "Ġrobber": 4035,
      "Ġfilm": 4036,
      "esy": 4037,
      "Ġshooting": 4038,
      "Ġappears": 4039,
      "Ġwhispers": 4040,
      "Ġpotatoes": 4041,
      "Ġcooking": 4042,
      "iers": 4043,
      "Ġproceeds": 4044,
      "Ġwo": 4045,
      "Ġplus": 4046,
      "Ġreached": 4047,
      "Ġappre": 4048,
      "Ġcommand": 4049,
      "rella": 4050,
      "Ġnin": 4051,
      "olution": 4052,
      "bert": 4053,
      "Ġfollowed": 4054,
      "Ġalligator": 4055,
      "Ġtrash": 4056,
      "Ġtruth": 4057,
      "Ġprove": 4058,
      "Ġmeets": 4059,
      "ogra": 4060,
      "Ġgreet": 4061,
      "Ġemergency": 4062,
      "instein": 4063,
      "usty": 4064,
      "rer": 4065,
      "Ġpile": 4066,
      "Ġjung": 4067,
      "Ġsomewhere": 4068,
      "Ġseemed": 4069,
      "Ġgorilla": 4070,
      "Ġgrammar": 4071,
      "bl": 4072,
      "Ġport": 4073,
      "Ġcheating": 4074,
      "Ġrooster": 4075,
      "ari": 4076,
      "Ġroses": 4077,
      "ague": 4078,
      "Ġteller": 4079,
      "Ġbattery": 4080,
      "Ġlibrarian": 4081,
      "Ġjen": 4082,
      "irus": 4083,
      "Ġlean": 4084,
      "Ġsurgeon": 4085,
      "Ġapartment": 4086,
      "Ġterrorist": 4087,
      "aly": 4088,
      "Ġjeff": 4089,
      "Ġstrugg": 4090,
      "fun": 4091,
      "ners": 4092,
      "over": 4093,
      "ify": 4094,
      "Ġhates": 4095,
      "Ġburst": 4096,
      "Ġremove": 4097,
      "izing": 4098,
      "Ġbillion": 4099,
      "Ġimmig": 4100,
      "Ġmile": 4101,
      "Ġfox": 4102,
      "load": 4103,
      "Ġmeaning": 4104,
      "Ġmembers": 4105,
      "ja": 4106,
      "Ġcomb": 4107,
      "Ġlawn": 4108,
      "Ġrecent": 4109,
      "Ġbible": 4110,
      "otes": 4111,
      "Ġweigh": 4112,
      "inder": 4113,
      "Ġpoison": 4114,
      "fi": 4115,
      "Ġleans": 4116,
      "Ġhardest": 4117,
      "Ġchickens": 4118,
      "how": 4119,
      "vid": 4120,
      "isher": 4121,
      "Ġ45": 4122,
      "Ġpedoph": 4123,
      "10": 4124,
      "mart": 4125,
      "Ġeveryday": 4126,
      "Ġenem": 4127,
      "Ġscreamed": 4128,
      "erve": 4129,
      "Ġhandle": 4130,
      "Ġmetal": 4131,
      "Ġdescribe": 4132,
      "Ġanybody": 4133,
      "Ġaustralian": 4134,
      "Ġlou": 4135,
      "Ġsoap": 4136,
      "ples": 4137,
      "Ġgentleman": 4138,
      "bur": 4139,
      "Ġvers": 4140,
      "Ġintrodu": 4141,
      "Ġfortune": 4142,
      "Ġprincess": 4143,
      "Ġatheist": 4144,
      "usion": 4145,
      "Ġengland": 4146,
      "Ġstool": 4147,
      "hop": 4148,
      "tered": 4149,
      "Ġcards": 4150,
      "Ġ17": 4151,
      "mit": 4152,
      "wor": 4153,
      "Ġhumans": 4154,
      "Ġcloser": 4155,
      "Ġlen": 4156,
      "Ġmultip": 4157,
      "wh": 4158,
      "Ġyog": 4159,
      "Ġtwin": 4160,
      "Ġtru": 4161,
      "Ġswear": 4162,
      "ature": 4163,
      "Ġstealing": 4164,
      "ti": 4165,
      "Ġflor": 4166,
      "Ġbloody": 4167,
      "Ġunivers": 4168,
      "Ġangel": 4169,
      "Ġox": 4170,
      "Ġbrot": 4171,
      "Ġthrowing": 4172,
      "Ġtied": 4173,
      "Ġreve": 4174,
      "ai": 4175,
      "Ġlack": 4176,
      "Ġalt": 4177,
      "Ġtrack": 4178,
      "Ġspeaking": 4179,
      "Ġbattle": 4180,
      "inting": 4181,
      "Ġ21": 4182,
      "Ġhab": 4183,
      "ien": 4184,
      "ining": 4185,
      "Ġupstairs": 4186,
      "Ġvod": 4187,
      "Ġelectr": 4188,
      "agn": 4189,
      "Ġhunter": 4190,
      "Ġtitanic": 4191,
      "Ġpit": 4192,
      "Ġbubb": 4193,
      "Ġturning": 4194,
      "play": 4195,
      "Ġdrives": 4196,
      "Ġfrenchman": 4197,
      "Ġfift": 4198,
      "ado": 4199,
      "Ġnewspaper": 4200,
      "Ġshouting": 4201,
      "Ġapples": 4202,
      "Ġtent": 4203,
      "Ġcough": 4204,
      "Ġhaha": 4205,
      "Ġsatisf": 4206,
      "mber": 4207,
      "str": 4208,
      "Ġentered": 4209,
      "Ġpokemon": 4210,
      "Ġsoda": 4211,
      "Ġextremely": 4212,
      "ini": 4213,
      "ppers": 4214,
      "Ġscene": 4215,
      "Ġjelly": 4216,
      "Ġredditor": 4217,
      "Ġkorea": 4218,
      "but": 4219,
      "Ġstock": 4220,
      "Ġpartner": 4221,
      "inated": 4222,
      "Ġclick": 4223,
      "ashes": 4224,
      "Ġsuperman": 4225,
      "Ġ1000": 4226,
      "Ġcannibals": 4227,
      "Ġlands": 4228,
      "Ġalzheimer": 4229,
      "Ġborder": 4230,
      "Ġbullet": 4231,
      "Ġthroat": 4232,
      "Ġmoo": 4233,
      "Ġmond": 4234,
      "Ġmob": 4235,
      "Ġchee": 4236,
      "Ġopening": 4237,
      "Ġappreci": 4238,
      "Ġdut": 4239,
      "Ġshr": 4240,
      "Ġspag": 4241,
      "Ġlosing": 4242,
      "ipe": 4243,
      "Ġnap": 4244,
      "Ġpastor": 4245,
      "Ġfrozen": 4246,
      "nis": 4247,
      "Ġbored": 4248,
      "Ġmention": 4249,
      "Ġbutcher": 4250,
      "Ġedge": 4251,
      "Ġstage": 4252,
      "Ġrice": 4253,
      "Ġinstru": 4254,
      "Ġembarrassed": 4255,
      "Ġbond": 4256,
      "Ġdough": 4257,
      "Ġorgas": 4258,
      "Ġshall": 4259,
      "Ġsen": 4260,
      "keys": 4261,
      "urance": 4262,
      "usted": 4263,
      "Ġjose": 4264,
      "Ġrolling": 4265,
      "Ġcris": 4266,
      "Ġcircle": 4267,
      "Ġpills": 4268,
      "Ġjungle": 4269,
      "Ġisra": 4270,
      "Ġincl": 4271,
      "Ġelephants": 4272,
      "Ġcontinued": 4273,
      "oted": 4274,
      "Ġeast": 4275,
      "Ġspoil": 4276,
      "Ġjama": 4277,
      "Ġlee": 4278,
      "Ġpassenger": 4279,
      "Ġlicense": 4280,
      "Ġpotter": 4281,
      "holes": 4282,
      "Ġsucking": 4283,
      "'?": 4284,
      "Ġbol": 4285,
      "nec": 4286,
      "aire": 4287,
      "Ġwide": 4288,
      "Ġwatches": 4289,
      "Ġslaps": 4290,
      "Ġdat": 4291,
      "Ġdild": 4292,
      "Ġparts": 4293,
      "Ġsnail": 4294,
      "noon": 4295,
      "Ġtaught": 4296,
      "lax": 4297,
      "gypt": 4298,
      "bow": 4299,
      "Ġdun": 4300,
      "Ġhan": 4301,
      "Ġgrew": 4302,
      "Ġminister": 4303,
      "Ġvision": 4304,
      "Ġmosqu": 4305,
      "cu": 4306,
      "Ġafternoon": 4307,
      "Ġinvol": 4308,
      "Ġvirus": 4309,
      "keeper": 4310,
      "Ġest": 4311,
      "Ġnearby": 4312,
      "Ġegypt": 4313,
      "Ġexha": 4314,
      "Ġfarts": 4315,
      "Ġtem": 4316,
      "Ġcommunist": 4317,
      "Ġspaghet": 4318,
      "tuce": 4319,
      "Ġrare": 4320,
      "Ġpenny": 4321,
      "Ġtraining": 4322,
      "Ġapproached": 4323,
      "Ġaustral": 4324,
      "Ġcharacter": 4325,
      "kel": 4326,
      "Ġmari": 4327,
      "Ġswing": 4328,
      "Ġsne": 4329,
      "Ġcalcul": 4330,
      "Ġhonor": 4331,
      "Ġtill": 4332,
      "Ġcleaning": 4333,
      "Ġalcoholic": 4334,
      "Ġdangerous": 4335,
      "Ġdom": 4336,
      "Ġlips": 4337,
      "Ġsher": 4338,
      "Ġcult": 4339,
      "Ġsticks": 4340,
      "urs": 4341,
      "Ġstraw": 4342,
      "Ġvodka": 4343,
      "Ġpond": 4344,
      "Ġnu": 4345,
      "Ġsubject": 4346,
      "Ġreligious": 4347,
      "Ġcocaine": 4348,
      "Ġbrothel": 4349,
      "nal": 4350,
      "Ġlick": 4351,
      "artment": 4352,
      "avirus": 4353,
      "Ġdisney": 4354,
      "Ġnegative": 4355,
      "Ġsoul": 4356,
      "ogn": 4357,
      "Ġshowing": 4358,
      "Ġsports": 4359,
      "Ġpersonal": 4360,
      "Ġdistance": 4361,
      "for": 4362,
      "urt": 4363,
      "Ġfellow": 4364,
      "Ġbags": 4365,
      "Ġfeminists": 4366,
      "Ġunc": 4367,
      "Ġfourth": 4368,
      "Ġstyle": 4369,
      "bell": 4370,
      "Ġcapt": 4371,
      "Ġdisappointed": 4372,
      "aged": 4373,
      "Ġimagin": 4374,
      "bby": 4375,
      "dog": 4376,
      "Ġfant": 4377,
      "orrect": 4378,
      "Ġthief": 4379,
      "Ġceiling": 4380,
      "ference": 4381,
      "ih": 4382,
      "erc": 4383,
      "Ġawful": 4384,
      "Ġswallow": 4385,
      "Ġlettuce": 4386,
      "fortable": 4387,
      "Ġprince": 4388,
      "Ġanc": 4389,
      "Ġreads": 4390,
      "rified": 4391,
      "Ġhigher": 4392,
      "Ġtweet": 4393,
      "tr": 4394,
      "ston": 4395,
      "Ġscott": 4396,
      "Ġsaved": 4397,
      "Ġscrat": 4398,
      "Ġvegetables": 4399,
      "Ġpole": 4400,
      "zed": 4401,
      "Ġsilly": 4402,
      "Ġreaches": 4403,
      "Ġsta": 4404,
      "Ġcookies": 4405,
      "Ġpharmacist": 4406,
      "under": 4407,
      "utter": 4408,
      "Ġknot": 4409,
      "Ġwarning": 4410,
      "Ġturtle": 4411,
      "Ġchop": 4412,
      "Ġwaits": 4413,
      "Ġspeeding": 4414,
      "hor": 4415,
      "Ġsight": 4416,
      "Ġdicks": 4417,
      "Ġpy": 4418,
      "Ġwanting": 4419,
      "Ġpulling": 4420,
      "Ġmeth": 4421,
      "Ġgarage": 4422,
      "Ġactor": 4423,
      "Ġko": 4424,
      "bered": 4425,
      "Ġbum": 4426,
      "Ġhuh": 4427,
      "Ġvalent": 4428,
      "Ġannoying": 4429,
      "Ġuns": 4430,
      "den": 4431,
      "Ġgall": 4432,
      "Ġcongr": 4433,
      "Ġjeans": 4434,
      "Ġimpressed": 4435,
      "Ġpsychic": 4436,
      "Ġshark": 4437,
      "Ġreceived": 4438,
      "Ġcoronavirus": 4439,
      "atic": 4440,
      "Ġstepped": 4441,
      "Ġobject": 4442,
      "ivers": 4443,
      "Ġtac": 4444,
      "Ġej": 4445,
      "Ġroy": 4446,
      "Ġchess": 4447,
      "Ġprime": 4448,
      "Ġhmm": 4449,
      "Ġrapp": 4450,
      "ching": 4451,
      "Ġdancing": 4452,
      "Ġinn": 4453,
      "Ġsugar": 4454,
      "Ġinsurance": 4455,
      "Ġric": 4456,
      "Ġbasketball": 4457,
      "Ġgiraffe": 4458,
      "gth": 4459,
      "put": 4460,
      "Ġsack": 4461,
      "Ġ70": 4462,
      "Ġrefri": 4463,
      "Ġbunny": 4464,
      "Ġdiscussing": 4465,
      "Ġphysicist": 4466,
      "pse": 4467,
      "Ġhamm": 4468,
      "Ġprize": 4469,
      "Ġpuzzled": 4470,
      "bt": 4471,
      "Ġtribe": 4472,
      "Ġmickey": 4473,
      "Ġmanaged": 4474,
      "Ġeinstein": 4475,
      "Ġthor": 4476,
      "Ġdire": 4477,
      "form": 4478,
      "lor": 4479,
      "she": 4480,
      "Ġoperator": 4481,
      "Ġmall": 4482,
      "Ġcomplaining": 4483,
      "Ġaccording": 4484,
      "Ġhomework": 4485,
      "Ġmonster": 4486,
      "Ġcareer": 4487,
      "Ġbelong": 4488,
      "Ġreligion": 4489,
      "Ġrefriger": 4490,
      "Ġneighbors": 4491,
      "Ġporch": 4492,
      "Ġchemistry": 4493,
      "rm": 4494,
      "Ġgal": 4495,
      "Ġrough": 4496,
      "Ġque": 4497,
      "Ġcareful": 4498,
      "aaaaaaaa": 4499,
      "Ġabortion": 4500,
      "Ġchips": 4501,
      "Ġvote": 4502,
      "Ġshame": 4503,
      "Ġmilitary": 4504,
      "Ġknocks": 4505,
      "Ġoral": 4506,
      "Ġinfl": 4507,
      "Ġannoyed": 4508,
      "Ġpanties": 4509,
      "Ġfans": 4510,
      "Ġrelax": 4511,
      "Ġkinds": 4512,
      "inate": 4513,
      "Ġclimb": 4514,
      "ring": 4515,
      "Ġhired": 4516,
      "Ġmoses": 4517,
      "Ġsite": 4518,
      "Ġpred": 4519,
      "Ġlately": 4520,
      "Ġkarm": 4521,
      "Ġwhoever": 4522,
      "Ġadult": 4523,
      "Ġopinion": 4524,
      "Ġaction": 4525,
      "Ġbride": 4526,
      "Ġcommit": 4527,
      "Ġcopy": 4528,
      "Ġstrip": 4529,
      "Ġfred": 4530,
      "Ġmoves": 4531,
      "Ġrecogn": 4532,
      "Ġgrey": 4533,
      "Ġtexas": 4534,
      "Ġmam": 4535,
      "iles": 4536,
      "Ġarr": 4537,
      "Ġsally": 4538,
      "Ġmood": 4539,
      "Ġdel": 4540,
      "Ġbraz": 4541,
      "Ġwins": 4542,
      "Ġlob": 4543,
      "Ġlonely": 4544,
      "Ġejacul": 4545,
      "yo": 4546,
      "Ġram": 4547,
      "Ġupv": 4548,
      "Ġlottery": 4549,
      "Ġsens": 4550,
      "Ġecon": 4551,
      "Ġkidna": 4552,
      "Ġflew": 4553,
      "ipped": 4554,
      "Ġborrow": 4555,
      "Ġcure": 4556,
      "Ġsons": 4557,
      "Ġtrad": 4558,
      "Ġfetish": 4559,
      "Ġskeleton": 4560,
      "oca": 4561,
      "ulous": 4562,
      "Ġplays": 4563,
      "Ġsausage": 4564,
      "Ġanywhere": 4565,
      "Ġswitch": 4566,
      "Ġannounced": 4567,
      "Ġstun": 4568,
      "Ġvisits": 4569,
      "Ġstatist": 4570,
      "Ġrefrigerator": 4571,
      "Ġcem": 4572,
      "Ġemot": 4573,
      "uct": 4574,
      "Ġhipster": 4575,
      "raft": 4576,
      "Ġeaten": 4577,
      "Ġcostume": 4578,
      "Ġsecretary": 4579,
      "Ġbelow": 4580,
      "oe": 4581,
      "Ġdiagn": 4582,
      "Ġscale": 4583,
      "Ġrule": 4584,
      "Ġjerk": 4585,
      "pecially": 4586,
      "acher": 4587,
      "Ġshake": 4588,
      "Ġpainting": 4589,
      "Ġfancy": 4590,
      "Ġbicycle": 4591,
      "Ġgrav": 4592,
      "Ġgrabbed": 4593,
      "Ġzero": 4594,
      "Ġgreek": 4595,
      "ault": 4596,
      "Ġcontact": 4597,
      "Ġlies": 4598,
      "Ġdiam": 4599,
      "Ġdesp": 4600,
      "Ġpriests": 4601,
      "Ġimpro": 4602,
      "Ġhiding": 4603,
      "bar": 4604,
      "inde": 4605,
      "Ġrolled": 4606,
      "Ġexchan": 4607,
      "Ġespecially": 4608,
      "ergy": 4609,
      "Ġjour": 4610,
      "Ġroot": 4611,
      "Ġways": 4612,
      "Ġmillions": 4613,
      "Ġvillage": 4614,
      "rick": 4615,
      "Ġscreen": 4616,
      "Ġlaund": 4617,
      "Ġcub": 4618,
      "Ġtennis": 4619,
      "Ġhadn": 4620,
      "Ġaudience": 4621,
      "Ġpeanut": 4622,
      "Ġtherm": 4623,
      "Ġpint": 4624,
      "Ġalien": 4625,
      "Ġphilos": 4626,
      "Ġmusician": 4627,
      "Ġkarma": 4628,
      "vey": 4629,
      "Ġjan": 4630,
      "Ġwives": 4631,
      "Ġusa": 4632,
      "Ġsatur": 4633,
      "Ġdeter": 4634,
      "ential": 4635,
      "Ġinterested": 4636,
      "Ġsuccessful": 4637,
      "Ġprotest": 4638,
      "Ġmosquito": 4639,
      "hew": 4640,
      "well": 4641,
      "Ġconcerned": 4642,
      "Ġlaughter": 4643,
      "Ġcoat": 4644,
      "Ġburied": 4645,
      "Ġdisab": 4646,
      "Ġplayers": 4647,
      "Ġtalks": 4648,
      "Ġimposs": 4649,
      "Ġstroke": 4650,
      "ga": 4651,
      "Ġnud": 4652,
      "Ġcheer": 4653,
      "Ġspelling": 4654,
      "Ġfault": 4655,
      "Ġpassengers": 4656,
      "Ġsuspect": 4657,
      "Ġnods": 4658,
      "cod": 4659,
      "Ġbars": 4660,
      "juana": 4661,
      "case": 4662,
      "Ġdiction": 4663,
      "Ġspeaks": 4664,
      "Ġharder": 4665,
      "Ġcraw": 4666,
      "Ġdepends": 4667,
      "Ġmonday": 4668,
      "giving": 4669,
      "anas": 4670,
      "Ġchecks": 4671,
      "wise": 4672,
      "Ġted": 4673,
      "Ġfif": 4674,
      "Ġnowhere": 4675,
      "Ġmario": 4676,
      "Ġteaching": 4677,
      "mature": 4678,
      "llig": 4679,
      "Ġchecked": 4680,
      "Ġdirector": 4681,
      "reg": 4682,
      "Ġrelie": 4683,
      "Ġblowing": 4684,
      "Ġguns": 4685,
      "Ġnavy": 4686,
      "function": 4687,
      "round": 4688,
      "Ġcomments": 4689,
      "Ġboom": 4690,
      "Ġbulls": 4691,
      "Ġwonderful": 4692,
      "Ġpoof": 4693,
      "omm": 4694,
      "Ġjohnson": 4695,
      "Ġjumping": 4696,
      "Ġomg": 4697,
      "Ġtickets": 4698,
      "Ġslightly": 4699,
      "Ġimpossible": 4700,
      "yard": 4701,
      "Ġtro": 4702,
      "aming": 4703,
      "Ġrot": 4704,
      "Ġsilver": 4705,
      "Ġconstruction": 4706,
      "Ġcemeter": 4707,
      "ended": 4708,
      "Ġscare": 4709,
      "Ġparachute": 4710,
      "ina": 4711,
      "Ġhoo": 4712,
      "like": 4713,
      "Ġsubreddit": 4714,
      "etch": 4715,
      "sidered": 4716,
      "Ġimpress": 4717,
      "--------": 4718,
      "Ġcigarettes": 4719,
      "Ġpractice": 4720,
      "Ġexce": 4721,
      "Ġkeys": 4722,
      "Ġtesticles": 4723,
      "atul": 4724,
      "Ġrect": 4725,
      "Ġrum": 4726,
      "Ġdrivers": 4727,
      "Ġserved": 4728,
      "Ġpressure": 4729,
      "bi": 4730,
      "orms": 4731,
      "Ġbeard": 4732,
      "ills": 4733,
      "Ġconsidered": 4734,
      "Ġkills": 4735,
      "Ġgermans": 4736,
      "Ġhealthy": 4737,
      "Ġcamera": 4738,
      "Ġluke": 4739,
      "Ġbother": 4740,
      "aching": 4741,
      "stood": 4742,
      "Ġlawyers": 4743,
      "Ġcookie": 4744,
      "Ġattendant": 4745,
      "Ġsoccer": 4746,
      "Ġbarbie": 4747,
      "ially": 4748,
      "sed": 4749,
      "Ġguide": 4750,
      "Ġ300": 4751,
      "Ġroommate": 4752,
      "Ġchecking": 4753,
      "Ġrent": 4754,
      "Ġpicking": 4755,
      "Ġpushed": 4756,
      "Ġshitty": 4757,
      "Ġalarm": 4758,
      "Ġuniverse": 4759,
      "Ġmental": 4760,
      "Ġsaturday": 4761,
      "Ġdishes": 4762,
      "Ġsodium": 4763,
      "Ġgynec": 4764,
      "Ġdildo": 4765,
      "lam": 4766,
      "Ġmassive": 4767,
      "Ġsepar": 4768,
      "Ġinvis": 4769,
      "Ġhous": 4770,
      "Ġdirect": 4771,
      "Ġexerc": 4772,
      "Ġappoint": 4773,
      "Ġdefinition": 4774,
      "Ġbarely": 4775,
      "Ġwebs": 4776,
      "Ġworkers": 4777,
      "Ġpops": 4778,
      "Ġkorean": 4779,
      "Ġarrest": 4780,
      "Ġeth": 4781,
      "Ġcoffin": 4782,
      "Ġannivers": 4783,
      "anz": 4784,
      "Ġkar": 4785,
      "Ġlemon": 4786,
      "Ġwinning": 4787,
      "Ġboomer": 4788,
      "Ġcloud": 4789,
      "Ġcleaner": 4790,
      "Ġmarijuana": 4791,
      "Ġinse": 4792,
      "Ġchamp": 4793,
      "Ġintellig": 4794,
      "Ġcenter": 4795,
      "Ġtouched": 4796,
      "Ġkeller": 4797,
      "Ġthanksgiving": 4798,
      "Ġteenage": 4799,
      "Ġfisher": 4800,
      "istan": 4801,
      "Ġescape": 4802,
      "Ġreplace": 4803,
      "nds": 4804,
      "Ġwaist": 4805,
      "Ġliquor": 4806,
      "market": 4807,
      "Ġweap": 4808,
      "Ġprofessional": 4809,
      "Ġdictionary": 4810,
      "Ġver": 4811,
      "Ġvs": 4812,
      "Ġconvin": 4813,
      "dom": 4814,
      "Ġrate": 4815,
      "Ġshaking": 4816,
      "Ġconcl": 4817,
      "Ġtract": 4818,
      "Ġsubway": 4819,
      "Ġvisiting": 4820,
      "Ġraises": 4821,
      "Ġquietly": 4822,
      "ators": 4823,
      "Ġuniversity": 4824,
      "Ġmater": 4825,
      "Ġoli": 4826,
      "Ġforth": 4827,
      "aughters": 4828,
      "Ġbanned": 4829,
      "Ġburger": 4830,
      "Ġsoldiers": 4831,
      "was": 4832,
      "Ġpic": 4833,
      "Ġrude": 4834,
      "Ġevil": 4835,
      "Ġcomedy": 4836,
      "Ġanniversary": 4837,
      "jack": 4838,
      "Ġmol": 4839,
      "Ġitem": 4840,
      "Ġwaste": 4841,
      "Ġneut": 4842,
      "Ġburning": 4843,
      "fo": 4844,
      "Ġquack": 4845,
      "Ġblame": 4846,
      "Ġgolden": 4847,
      "Ġlaying": 4848,
      "vax": 4849,
      "ancy": 4850,
      "Ġchanging": 4851,
      "Ġdesper": 4852,
      "Ġmicrow": 4853,
      "Ġdemoc": 4854,
      "Ġmedicine": 4855,
      "Ġoctop": 4856,
      "Ġbrick": 4857,
      "Ġcelebrate": 4858,
      "Ġpassing": 4859,
      "Ġbeats": 4860,
      "Ġhoping": 4861,
      "Ġdestroy": 4862,
      "Ġversion": 4863,
      "Ġwitch": 4864,
      "Ġdaughters": 4865,
      "Ġbeating": 4866,
      "Ġdelic": 4867,
      "Ġissues": 4868,
      "Ġsocks": 4869,
      "Ġmoments": 4870,
      "Ġswit": 4871,
      "Ġwra": 4872,
      "Ġspots": 4873,
      "Ġarse": 4874,
      "Ġfunn": 4875,
      "Ġloss": 4876,
      "Ġexpecting": 4877,
      "Ġdegrees": 4878,
      "Ġthick": 4879,
      "Ġneighborhood": 4880,
      "Ġants": 4881,
      "Ġrick": 4882,
      "Ġserv": 4883,
      "Ġbone": 4884,
      "Ġrear": 4885,
      "Ġdadjo": 4886,
      "Ġlighter": 4887,
      "Ġurine": 4888,
      "Ġpolitical": 4889,
      "Ġnecroph": 4890,
      "Ġspaghetti": 4891,
      "Ġhitting": 4892,
      "ades": 4893,
      "Ġbruce": 4894,
      "Ġpause": 4895,
      "Ġhelen": 4896,
      "Ġimmigr": 4897,
      "Ġciv": 4898,
      "Ġhind": 4899,
      "lend": 4900,
      "Ġsection": 4901,
      "Ġwolf": 4902,
      "Ġadded": 4903,
      "Ġtotal": 4904,
      "Ġparticular": 4905,
      "Ġgrown": 4906,
      "Ġshape": 4907,
      "born": 4908,
      "Ġsaving": 4909,
      "Ġbills": 4910,
      "ckey": 4911,
      "Ġess": 4912,
      "Ġner": 4913,
      "Ġbananas": 4914,
      "Ġburned": 4915,
      "ader": 4916,
      "Ġassholes": 4917,
      "Ġpointed": 4918,
      "Ġlesbians": 4919,
      "Ġassistant": 4920,
      "Ġwid": 4921,
      "Ġdol": 4922,
      "Ġallow": 4923,
      "Ġrespons": 4924,
      "Ġsweat": 4925,
      "Ġmasturbate": 4926,
      "Ġeag": 4927,
      "Ġfastest": 4928,
      "Ġlocked": 4929,
      "Ġrules": 4930,
      "Ġira": 4931,
      "Ġtoe": 4932,
      "Ġeasily": 4933,
      "Ġdiamond": 4934,
      "Ġwise": 4935,
      "iforn": 4936,
      "Ġpurcha": 4937,
      "Ġclaus": 4938,
      "Ġtub": 4939,
      "Ġbom": 4940,
      "Ġcustom": 4941,
      "Ġtower": 4942,
      "Ġcongratul": 4943,
      "mo": 4944,
      "Ġlip": 4945,
      "Ġconne": 4946,
      "Ġhelping": 4947,
      "Ġ2016": 4948,
      "Ġdegree": 4949,
      "Ġsplit": 4950,
      "Ġalex": 4951,
      "Ġdub": 4952,
      "Ġhood": 4953,
      "Ġrocks": 4954,
      "Ġceo": 4955,
      "Ġax": 4956,
      "oops": 4957,
      "Ġhaircut": 4958,
      "Ġamazon": 4959,
      "Ġbased": 4960,
      "Ġtoss": 4961,
      "Ġweb": 4962,
      "Ġvisited": 4963,
      "Ġboob": 4964,
      "Ġcaliforn": 4965,
      "Ġcriminal": 4966,
      "Ġfrustrated": 4967,
      "Ġcrew": 4968,
      "Ġfol": 4969,
      "Ġfries": 4970,
      "Ġveter": 4971,
      "yme": 4972,
      "Ġnewton": 4973,
      "Ġgrin": 4974,
      "Ġsmaller": 4975,
      "Ġcompliment": 4976,
      "Ġspray": 4977,
      "Ġpeanuts": 4978,
      "Ġsherlock": 4979,
      "Ġcemetery": 4980,
      "Ġdj": 4981,
      "Ġalb": 4982,
      "Ġstories": 4983,
      "ondon": 4984,
      "Ġwalls": 4985,
      "Ġsigns": 4986,
      "Ġcontinue": 4987,
      "Ġthrees": 4988,
      "Ġbarn": 4989,
      "Ġviet": 4990,
      "Ġjacket": 4991,
      "Ġsends": 4992,
      "Ġspirit": 4993,
      "ances": 4994,
      "Ġled": 4995,
      "Ġslut": 4996,
      "Ġadvert": 4997,
      "Ġtrail": 4998,
      "rots": 4999,
      "ption": 5000,
      "Ġinstall": 5001,
      "soft": 5002,
      "Ġdepartment": 5003,
      "Ġlesson": 5004,
      "Ġconcert": 5005,
      "Ġbald": 5006,
      "Ġash": 5007,
      "Ġangri": 5008,
      "Ġperfectly": 5009,
      "Ġphoto": 5010,
      "rican": 5011,
      "Ġcried": 5012,
      "Ġyout": 5013,
      "Ġpeas": 5014,
      "bbing": 5015,
      "Ġpigs": 5016,
      "Ġgum": 5017,
      "Ġfork": 5018,
      "Ġrobin": 5019,
      "iiii": 5020,
      "Ġfal": 5021,
      "Ġlondon": 5022,
      "Ġstret": 5023,
      "Ġlearning": 5024,
      "Ġeasier": 5025,
      "Ġsed": 5026,
      "Ġmanage": 5027,
      "Ġtear": 5028,
      "Ġspin": 5029,
      "ishment": 5030,
      "Ġzombie": 5031,
      "Ġbeside": 5032,
      "Ġgynecologist": 5033,
      "Ġaddress": 5034,
      "Ġsighs": 5035,
      "Ġlaundry": 5036,
      "Ġww": 5037,
      "ences": 5038,
      "iture": 5039,
      "agram": 5040,
      "Ġhated": 5041,
      "asses": 5042,
      "Ġheat": 5043,
      "Ġinj": 5044,
      "Ġthir": 5045,
      "Ġrubber": 5046,
      "gans": 5047,
      "Ġshell": 5048,
      "Ġconcent": 5049,
      "Ġdarling": 5050,
      "Ġcode": 5051,
      "Ġski": 5052,
      "Ġsupermarket": 5053,
      "Ġholmes": 5054,
      "Ġtape": 5055,
      "Ġorphan": 5056,
      "Ġgrape": 5057,
      "Ġresist": 5058,
      "ails": 5059,
      "Ġfarted": 5060,
      "Ġbecoming": 5061,
      "Ġsociety": 5062,
      "Ġum": 5063,
      "Ġcrashed": 5064,
      "Ġmut": 5065,
      "itions": 5066,
      "Ġdozen": 5067,
      "Ġarrive": 5068,
      "Ġluckily": 5069,
      "Ġhammer": 5070,
      "Ġpist": 5071,
      "Ġsauce": 5072,
      "Ġoffensive": 5073,
      "Ġetc": 5074,
      "Ġmicrosoft": 5075,
      "Ġstaff": 5076,
      "Ġflav": 5077,
      "Ġveh": 5078,
      "Ġcertainly": 5079,
      "yc": 5080,
      "Ġsan": 5081,
      "Ġcit": 5082,
      "Ġcuts": 5083,
      "Ġcage": 5084,
      "Ġloan": 5085,
      "Ġclin": 5086,
      "Ġuser": 5087,
      "Ġrights": 5088,
      "Ġchris": 5089,
      "Ġhesit": 5090,
      "Ġreveal": 5091,
      "wood": 5092,
      "Ġstall": 5093,
      "Ġlegal": 5094,
      "Ġbuddh": 5095,
      "Ġreleased": 5096,
      "Ġinvisible": 5097,
      "opher": 5098,
      "Ġbuzz": 5099,
      "Ġemp": 5100,
      "Ġbasement": 5101,
      "Ġcreate": 5102,
      "Ġkeeping": 5103,
      "Ġowl": 5104,
      "Ġiraq": 5105,
      "hit": 5106,
      "Ġforced": 5107,
      "Ġscore": 5108,
      "Ġvegetarian": 5109,
      "Ġloudly": 5110,
      "Ġtarget": 5111,
      "ode": 5112,
      "cker": 5113,
      "Ġchill": 5114,
      "Ġactiv": 5115,
      "Ġposts": 5116,
      "hard": 5117,
      "Ġslip": 5118,
      "Ġorgasm": 5119,
      "Ġtan": 5120,
      "Ġgather": 5121,
      "Ġmedia": 5122,
      "Ġwhisper": 5123,
      "Ġinstructor": 5124,
      "Ġboring": 5125,
      "Ġlapt": 5126,
      "imp": 5127,
      "Ġjustin": 5128,
      "urniture": 5129,
      "Ġswed": 5130,
      "Ġstephen": 5131,
      "Ġexplos": 5132,
      "gir": 5133,
      "Ġcot": 5134,
      "lix": 5135,
      "hered": 5136,
      "Ġhire": 5137,
      "ortun": 5138,
      "Ġcollect": 5139,
      "Ġdeliver": 5140,
      "Ġdy": 5141,
      "Ġhump": 5142,
      "fection": 5143,
      "Ġdidnt": 5144,
      "asons": 5145,
      "Ġprostitutes": 5146,
      "Ġdaily": 5147,
      "Ġtourist": 5148,
      "Ġdolph": 5149,
      "Ġtool": 5150,
      "Ġthreat": 5151,
      "Ġhurrican": 5152,
      "Ġopportun": 5153,
      "Ġconstipated": 5154,
      "Ġexchange": 5155,
      "Ġgain": 5156,
      "Ġplumber": 5157,
      "Ġouch": 5158,
      "Ġdum": 5159,
      "pered": 5160,
      "Ġprescri": 5161,
      "Ġdreams": 5162,
      "Ġappear": 5163,
      "Ġtorn": 5164,
      "Ġissue": 5165,
      "Ġaustralia": 5166,
      "post": 5167,
      "uary": 5168,
      "oln": 5169,
      "Ġmoder": 5170,
      "Ġeduc": 5171,
      "Ġretard": 5172,
      "Ġsadly": 5173,
      "Ġeuropean": 5174,
      "Ġmultiple": 5175,
      "Ġkevin": 5176,
      "Ġcuc": 5177,
      "Ġaunt": 5178,
      "hest": 5179,
      "Ġsexually": 5180,
      "Ġshoulders": 5181,
      "Ġparis": 5182,
      "Ġaccent": 5183,
      "Ġballoon": 5184,
      "Ġconstantly": 5185,
      "Ġip": 5186,
      "Ġsaint": 5187,
      "Ġescaped": 5188,
      "Ġfifth": 5189,
      "Ġtender": 5190,
      "Ġwings": 5191,
      "Ġliber": 5192,
      "Ġconfess": 5193,
      "Ġcereal": 5194,
      "rome": 5195,
      "Ġven": 5196,
      "Ġgarbage": 5197,
      "Ġinformation": 5198,
      "pre": 5199,
      "Ġlikely": 5200,
      "Ġdads": 5201,
      "Ġtruly": 5202,
      "ees": 5203,
      "rs": 5204,
      "rage": 5205,
      "Ġesc": 5206,
      "bre": 5207,
      "Ġcave": 5208,
      "ashing": 5209,
      "Ġbelly": 5210,
      "Ġjoint": 5211,
      "Ġusual": 5212,
      "Ġbeauty": 5213,
      "Ġnails": 5214,
      "Ġcrocod": 5215,
      "Ġpedophile": 5216,
      "dad": 5217,
      "Ġwoof": 5218,
      "Ġcrit": 5219,
      "Ġinterrupt": 5220,
      "Ġdesign": 5221,
      "Ġcalend": 5222,
      "Ġcircus": 5223,
      "Ġskyd": 5224,
      "Ġlanded": 5225,
      "Ġconsider": 5226,
      "Ġtort": 5227,
      "Ġprocess": 5228,
      "Ġprincip": 5229,
      "Ġcun": 5230,
      "Ġginger": 5231,
      "ases": 5232,
      "Ġfeather": 5233,
      "Ġpreacher": 5234,
      "Ġdivorced": 5235,
      "dies": 5236,
      "fa": 5237,
      "und": 5238,
      "Ġtire": 5239,
      "berry": 5240,
      "Ġclassic": 5241,
      "Ġtests": 5242,
      "Ġpanic": 5243,
      "Ġbrief": 5244,
      "bucks": 5245,
      "Ġpha": 5246,
      "rie": 5247,
      "Ġscout": 5248,
      "Ġenc": 5249,
      "ival": 5250,
      "Ġcries": 5251,
      "Ġruined": 5252,
      "Ġattacked": 5253,
      "Ġoctopus": 5254,
      "Ġach": 5255,
      "Ġdirt": 5256,
      "eding": 5257,
      "Ġbeha": 5258,
      "Ġsnowman": 5259,
      "Ġbeans": 5260,
      "Ġsolution": 5261,
      "Ġsharp": 5262,
      "Ġastronaut": 5263,
      "Ġtemper": 5264,
      "Ġancient": 5265,
      "Ġangrily": 5266,
      "Ġsean": 5267,
      "Ġfurther": 5268,
      "Ġappointment": 5269,
      "mel": 5270,
      "wife": 5271,
      "Ġamput": 5272,
      "Ġthrown": 5273,
      "Ġcommunity": 5274,
      "Ġghosts": 5275,
      "Ġmeasure": 5276,
      "Ġshift": 5277,
      "Ġspoon": 5278,
      "Ġloose": 5279,
      "hhh": 5280,
      "Ġfaith": 5281,
      "Ġvietnam": 5282,
      "nold": 5283,
      "Ġdust": 5284,
      "Ġrealised": 5285,
      "Ġvacc": 5286,
      "Ġreceive": 5287,
      "Ġnatural": 5288,
      "lad": 5289,
      "osis": 5290,
      "Ġplanning": 5291,
      "Ġrefused": 5292,
      "Ġferr": 5293,
      "Ġder": 5294,
      "atives": 5295,
      "Ġgradu": 5296,
      "Ġmodel": 5297,
      "Ġdna": 5298,
      "Ġwalmart": 5299,
      "Ġ23": 5300,
      "Ġbatter": 5301,
      "Ġraining": 5302,
      "Ġhomose": 5303,
      "Ġsarah": 5304,
      "Ġrout": 5305,
      "Ġreality": 5306,
      "ials": 5307,
      "Ġsurround": 5308,
      "Ġrefer": 5309,
      "incoln": 5310,
      "Ġdysfunction": 5311,
      "Ġlaptop": 5312,
      "Ġpillow": 5313,
      "eeeeeeee": 5314,
      "Ġmicrowave": 5315,
      "enn": 5316,
      "Ġupd": 5317,
      "life": 5318,
      "employ": 5319,
      "Ġparent": 5320,
      "Ġsword": 5321,
      "Ġstumb": 5322,
      "ila": 5323,
      "Ġwifi": 5324,
      "Ġ35": 5325,
      "Ġpays": 5326,
      "Ġsource": 5327,
      "zing": 5328,
      "Ġwand": 5329,
      "Ġgorge": 5330,
      "Ġgran": 5331,
      "Ġsore": 5332,
      "Ġfinishes": 5333,
      "Ġhyp": 5334,
      "Ġhouses": 5335,
      "Ġlamb": 5336,
      "oty": 5337,
      "ilty": 5338,
      "Ġguest": 5339,
      "Ġphones": 5340,
      "Ġbeginning": 5341,
      "Ġdisabled": 5342,
      "cious": 5343,
      "Ġmission": 5344,
      "Ġinfin": 5345,
      "Ġtuna": 5346,
      "ooo": 5347,
      "Ġsemen": 5348,
      "Ġcance": 5349,
      "Ġchip": 5350,
      "ometer": 5351,
      "Ġinstantly": 5352,
      "ale": 5353,
      "Ġlovely": 5354,
      "Ġbasically": 5355,
      "Ġmuslims": 5356,
      "Ġelement": 5357,
      "Ġsteering": 5358,
      "Ġamazed": 5359,
      "Ġgigg": 5360,
      "Ġscottish": 5361,
      "Ġwebsite": 5362,
      "Ġsmiling": 5363,
      "Ġinqu": 5364,
      "atch": 5365,
      "Ġbabe": 5366,
      "Ġrecomm": 5367,
      "Ġstarbucks": 5368,
      "Ġcolour": 5369,
      "Ġbakery": 5370,
      "Ġeter": 5371,
      "alo": 5372,
      "Ġspill": 5373,
      "Ġtalked": 5374,
      "Ġadopted": 5375,
      "down": 5376,
      "craft": 5377,
      "itz": 5378,
      "Ġshelf": 5379,
      "Ġscar": 5380,
      "Ġinstr": 5381,
      "Ġtraveling": 5382,
      "Ġthreesome": 5383,
      "Ġtues": 5384,
      "Ġpra": 5385,
      "Ġtoes": 5386,
      "Ġcommer": 5387,
      "Ġsuggested": 5388,
      "Ġgarbanz": 5389,
      "Ġjon": 5390,
      "Ġbless": 5391,
      "Ġtrunk": 5392,
      "ologists": 5393,
      "Ġremembered": 5394,
      "Ġstoned": 5395,
      "imate": 5396,
      "Ġwipe": 5397,
      "Ġphr": 5398,
      "Ġinsult": 5399,
      "Ġsyn": 5400,
      "Ġtampon": 5401,
      "ocaust": 5402,
      "Ġgarbanzo": 5403,
      "mind": 5404,
      "rast": 5405,
      "Ġire": 5406,
      "Ġyod": 5407,
      "Ġrobbed": 5408,
      "Ġgrapes": 5409,
      "Ġsteaks": 5410,
      "Ġwashington": 5411,
      "Ġaward": 5412,
      "Ġerect": 5413,
      "stick": 5414,
      "Ġsock": 5415,
      "Ġatm": 5416,
      "Ġlover": 5417,
      "Ġsleeps": 5418,
      "Ġcutting": 5419,
      "Ġcabin": 5420,
      "ography": 5421,
      "Ġaim": 5422,
      "Ġpath": 5423,
      "Ġlin": 5424,
      "Ġjoked": 5425,
      "Ġcontract": 5426,
      "Ġaccused": 5427,
      "Ġcruise": 5428,
      "Ġdisgusting": 5429,
      "Ġolympics": 5430,
      "ida": 5431,
      "Ġstabb": 5432,
      "asa": 5433,
      "Ġris": 5434,
      "Ġmatt": 5435,
      "Ġiran": 5436,
      "Ġprompt": 5437,
      "Ġdetective": 5438,
      "Ġsets": 5439,
      "Ġlower": 5440,
      "isted": 5441,
      "Ġclap": 5442,
      "Ġhurry": 5443,
      "Ġavail": 5444,
      "Ġcalifornia": 5445,
      "etic": 5446,
      "Ġpride": 5447,
      "airy": 5448,
      "Ġcalmly": 5449,
      "gun": 5450,
      "Ġsticking": 5451,
      "Ġguilty": 5452,
      "Ġbug": 5453,
      "Ġapply": 5454,
      "Ġmaid": 5455,
      "Ġholocaust": 5456,
      "Ġtuesday": 5457,
      "Ġgorgeous": 5458,
      "rib": 5459,
      "Ġallah": 5460,
      "Ġoptim": 5461,
      "Ġcommercial": 5462,
      "cup": 5463,
      "Ġpork": 5464,
      "Ġwhist": 5465,
      "Ġcrush": 5466,
      "Ġ75": 5467,
      "Ġpickle": 5468,
      "Ġvalentine": 5469,
      "itude": 5470,
      "omn": 5471,
      "Ġec": 5472,
      "phones": 5473,
      "Ġsailor": 5474,
      "Ġcalendar": 5475,
      "Ġwrap": 5476,
      "Ġjones": 5477,
      "Ġumb": 5478,
      "ptic": 5479,
      "Ġacting": 5480,
      "Ġfifty": 5481,
      "aren": 5482,
      "of": 5483,
      "Ġrush": 5484,
      "Ġpointing": 5485,
      "Ġignore": 5486,
      "Ġexercise": 5487,
      "ille": 5488,
      "Ġblacks": 5489,
      "Ġchasing": 5490,
      "Ġpurse": 5491,
      "Ġphotos": 5492,
      "Ġadmit": 5493,
      "Ġdelicious": 5494,
      "sp": 5495,
      "uten": 5496,
      "Ġpunched": 5497,
      "Ġkeyboard": 5498,
      "Ġsearching": 5499,
      "bel": 5500,
      "miss": 5501,
      "Ġtents": 5502,
      "Ġdess": 5503,
      "Ġwilling": 5504,
      "iped": 5505,
      "Ġrealizes": 5506,
      "Ġmask": 5507,
      "mal": 5508,
      "Ġwrest": 5509,
      "Ġincre": 5510,
      "Ġstayed": 5511,
      "Ġtechnology": 5512,
      "apped": 5513,
      "hi": 5514,
      "Ġtab": 5515,
      "ided": 5516,
      "Ġrang": 5517,
      "Ġunemploy": 5518,
      "Ġcollection": 5519,
      "omaniac": 5520,
      "Ġresearch": 5521,
      "Ġopportunity": 5522,
      "Ġyep": 5523,
      "Ġshad": 5524,
      "Ġgirlfriends": 5525,
      "Ġcounting": 5526,
      "Ġcrisis": 5527,
      "isc": 5528,
      "ggy": 5529,
      "Ġseries": 5530,
      "Ġsuspic": 5531,
      "rac": 5532,
      "Ġut": 5533,
      "Ġtips": 5534,
      "Ġlumber": 5535,
      "Ġspoke": 5536,
      "Ġyea": 5537,
      "ulation": 5538,
      "Ġsending": 5539,
      "Ġireland": 5540,
      "Ġdownstairs": 5541,
      "Ġfuckin": 5542,
      "Ġcatches": 5543,
      "Ġrestroom": 5544,
      "Ġrepeat": 5545,
      "Ġnickel": 5546,
      "Ġeff": 5547,
      "Ġshore": 5548,
      "Ġpoker": 5549,
      "Ġassault": 5550,
      "Ġdocument": 5551,
      "Ġinvestig": 5552,
      "tf": 5553,
      "ompl": 5554,
      "Ġflower": 5555,
      "Ġmostly": 5556,
      "Ġmixed": 5557,
      "unks": 5558,
      "Ġconc": 5559,
      "Ġslap": 5560,
      "Ġglo": 5561,
      "Ġtransl": 5562,
      "Ġappreciate": 5563,
      "Ġbuddhist": 5564,
      "Ġjong": 5565,
      "Ġotherwise": 5566,
      "Ġpatrick": 5567,
      "Ġprogrammer": 5568,
      "Ġbinary": 5569,
      "Ġmeas": 5570,
      "Ġhillb": 5571,
      "Ġisrael": 5572,
      "fight": 5573,
      "Ġpromise": 5574,
      "Ġpurple": 5575,
      "Ġhamb": 5576,
      "Ġarnold": 5577,
      "Ġuseless": 5578,
      "Ġofficers": 5579,
      "Ġridic": 5580,
      "zech": 5581,
      "Ġenemy": 5582,
      "reck": 5583,
      "Ġnipp": 5584,
      "cending": 5585,
      "Ġroast": 5586,
      "Ġcoach": 5587,
      "Ġpoliticians": 5588,
      "Ġsquirrel": 5589,
      "rup": 5590,
      "Ġbay": 5591,
      "Ġgag": 5592,
      "riate": 5593,
      "Ġplaced": 5594,
      "Ġloses": 5595,
      "Ġmarine": 5596,
      "Ġshave": 5597,
      "Ġgrandson": 5598,
      "Ġbalance": 5599,
      "Ġeagle": 5600,
      "car": 5601,
      "Ġreaction": 5602,
      "ssss": 5603,
      "Ġenv": 5604,
      "Ġmenu": 5605,
      "Ġnailed": 5606,
      "Ġdata": 5607,
      "Ġrapper": 5608,
      "Ġgross": 5609,
      "Ġlincoln": 5610,
      "Ġdelet": 5611,
      "aves": 5612,
      "Ġwhispered": 5613,
      "Ġskinny": 5614,
      "Ġboil": 5615,
      "Ġdecision": 5616,
      "Ġchanges": 5617,
      "Ġconsid": 5618,
      "Ġexplore": 5619,
      "dge": 5620,
      "Ġbass": 5621,
      "Ġnar": 5622,
      "sty": 5623,
      "Ġsubmar": 5624,
      "Ġfucks": 5625,
      "Ġsolid": 5626,
      "Ġerror": 5627,
      "Ġswallowed": 5628,
      "Ġcosby": 5629,
      "Ġhabit": 5630,
      "mers": 5631,
      "Ġtoaster": 5632,
      "Ġly": 5633,
      "Ġult": 5634,
      "Ġath": 5635,
      "Ġplot": 5636,
      "Ġcountries": 5637,
      "Ġthousands": 5638,
      "Ġtheory": 5639,
      "Ġmick": 5640,
      "Ġwizard": 5641,
      "Ġsynd": 5642,
      "Ġexpected": 5643,
      "Ġcreep": 5644,
      "Ġfairy": 5645,
      "Ġpier": 5646,
      "llent": 5647,
      "Ġtrade": 5648,
      "Ġglue": 5649,
      "Ġfreezer": 5650,
      "Ġwondered": 5651,
      "name": 5652,
      "iches": 5653,
      "Ġamong": 5654,
      "Ġpremature": 5655,
      "Ġhockey": 5656,
      "Ġhandsome": 5657,
      "Ġsolve": 5658,
      "Ġexecution": 5659,
      "ns": 5660,
      "zu": 5661,
      "Ġlicking": 5662,
      "Ġsew": 5663,
      "Ġbran": 5664,
      "Ġsucked": 5665,
      "Ġautom": 5666,
      "vis": 5667,
      "Ġfurniture": 5668,
      "Ġclocks": 5669,
      "Ġpuppy": 5670,
      "Ġboner": 5671,
      "Ġlobster": 5672,
      "lers": 5673,
      "Ġtes": 5674,
      "Ġbb": 5675,
      "Ġczech": 5676,
      "asy": 5677,
      "Ġstares": 5678,
      "Ġoverhe": 5679,
      "Ġwilli": 5680,
      "Ġenergy": 5681,
      "Ġcorona": 5682,
      "Ġtractor": 5683,
      "tles": 5684,
      "Ġworm": 5685,
      "Ġcoma": 5686,
      "Ġspit": 5687,
      "Ġmoan": 5688,
      "Ġacid": 5689,
      "Ġdecl": 5690,
      "standing": 5691,
      "Ġburnt": 5692,
      "Ġauto": 5693,
      "ilian": 5694,
      "Ġproduct": 5695,
      "flix": 5696,
      "Ġtinder": 5697,
      "hey": 5698,
      "Ġislam": 5699,
      "Ġeverytime": 5700,
      "Ġsnack": 5701,
      "Ġcurrent": 5702,
      "Ġwheels": 5703,
      "Ġoperation": 5704,
      "Ġepile": 5705,
      "Ġelectricity": 5706,
      "mates": 5707,
      "Ġwont": 5708,
      "Ġbach": 5709,
      "ola": 5710,
      "Ġcrust": 5711,
      "Ġredditors": 5712,
      "Ġbuffalo": 5713,
      "Ġambul": 5714,
      "Ġfolks": 5715,
      "Ġyoutube": 5716,
      "cast": 5717,
      "Ġproof": 5718,
      "Ġflip": 5719,
      "Ġvirginity": 5720,
      "Ġemployees": 5721,
      "Ġhundreds": 5722,
      "lican": 5723,
      "Ġupside": 5724,
      "Ġgenius": 5725,
      "Ġfixed": 5726,
      "Ġnazis": 5727,
      "Ġinclud": 5728,
      "Ġsyndrome": 5729,
      "gic": 5730,
      "Ġlap": 5731,
      "Ġhilar": 5732,
      "Ġbark": 5733,
      "Ġbru": 5734,
      "Ġdisp": 5735,
      "Ġhelic": 5736,
      "Ġpresidential": 5737,
      "Ġtony": 5738,
      "Ġbernie": 5739,
      "Ġdragon": 5740,
      "Ġmotorcy": 5741,
      "Ġnucle": 5742,
      "iop": 5743,
      "urally": 5744,
      "Ġoffers": 5745,
      "Ġslee": 5746,
      "Ġhonestly": 5747,
      "Ġsides": 5748,
      "Ġosc": 5749,
      "otic": 5750,
      "ami": 5751,
      "Ġhelped": 5752,
      "Ġstatue": 5753,
      "Ġjoking": 5754,
      "Ġpenises": 5755,
      "Ġauthor": 5756,
      "Ġpharmacy": 5757,
      "Ġpearly": 5758,
      "Ġpromptly": 5759,
      "Ġfaces": 5760,
      "Ġpup": 5761,
      "asion": 5762,
      "Ġscary": 5763,
      "Ġelectron": 5764,
      "ask": 5765,
      "Ġlos": 5766,
      "Ġ36": 5767,
      "Ġmuff": 5768,
      "Ġemo": 5769,
      "Ġsurvive": 5770,
      "Ġeffort": 5771,
      "Ġbul": 5772,
      "Ġdairy": 5773,
      "Ġfra": 5774,
      "Ġugh": 5775,
      "Ġmole": 5776,
      "angle": 5777,
      "Ġlimit": 5778,
      "Ġspending": 5779,
      "Ġhyd": 5780,
      "Ġgranted": 5781,
      "walk": 5782,
      "Ġethiop": 5783,
      "Ġonion": 5784,
      "Ġinsomn": 5785,
      "Ġcarpent": 5786,
      "Ġsheet": 5787,
      "Ġjoy": 5788,
      "Ġjoined": 5789,
      "ously": 5790,
      "Ġhorror": 5791,
      "Ġprocrast": 5792,
      "Ġcustomers": 5793,
      "Ġclinic": 5794,
      "Ġtend": 5795,
      "Ġbm": 5796,
      "oting": 5797,
      "Ġeb": 5798,
      "Ġfran": 5799,
      "akers": 5800,
      "Ġappeared": 5801,
      "Ġdenim": 5802,
      "Ġkoal": 5803,
      "fit": 5804,
      "uri": 5805,
      "Ġgodd": 5806,
      "Ġnecrophili": 5807,
      "Ġhambur": 5808,
      "Ġseed": 5809,
      "Ġleaf": 5810,
      "Ġunion": 5811,
      "Ġunable": 5812,
      "Ġresult": 5813,
      "Ġgolfer": 5814,
      "Ġexplod": 5815,
      "Ġphysics": 5816,
      "Ġobvious": 5817,
      "Ġmap": 5818,
      "Ġwrites": 5819,
      "Ġcuri": 5820,
      "Ġsandwiches": 5821,
      "Ġbolt": 5822,
      "Ġtaco": 5823,
      "wr": 5824,
      "uming": 5825,
      "Ġdigging": 5826,
      "Ġafterwards": 5827,
      "derer": 5828,
      "Ġchallenge": 5829,
      "joke": 5830,
      "Ġgate": 5831,
      "Ġcrows": 5832,
      "Ġserial": 5833,
      "Ġdrowning": 5834,
      "Ġdisappear": 5835,
      "Ġcitiz": 5836,
      "gur": 5837,
      "onym": 5838,
      "Ġtodd": 5839,
      "Ġtowel": 5840,
      "Ġplenty": 5841,
      "Ġwaited": 5842,
      "Ġhelps": 5843,
      "apping": 5844,
      "Ġhangs": 5845,
      "cking": 5846,
      "Ġtwel": 5847,
      "ization": 5848,
      "Ġdoorbell": 5849,
      "Ġburgl": 5850,
      "Ġsongs": 5851,
      "och": 5852,
      "Ġbey": 5853,
      "Ġcheet": 5854,
      "Ġsuppose": 5855,
      "Ġmummy": 5856,
      "Ġexhausted": 5857,
      "Ġdiagnosed": 5858,
      "Ġbroom": 5859,
      "ooper": 5860,
      "oline": 5861,
      "Ġseek": 5862,
      "Ġthoughts": 5863,
      "aaa": 5864,
      "Ġpudd": 5865,
      "worker": 5866,
      "Ġmoral": 5867,
      "Ġproceeded": 5868,
      "fetime": 5869,
      "Ġoxy": 5870,
      "greg": 5871,
      "Ġlas": 5872,
      "amed": 5873,
      "Ġblows": 5874,
      "Ġprov": 5875,
      "Ġremote": 5876,
      "Ġexplaining": 5877,
      "Ġpackage": 5878,
      "Ġmurderer": 5879,
      "Ġincredible": 5880,
      "Ġrepublic": 5881,
      "icated": 5882,
      "iring": 5883,
      "Ġvase": 5884,
      "Ġrod": 5885,
      "Ġenjoying": 5886,
      "Ġboomerang": 5887,
      "Ġtwelve": 5888,
      "sey": 5889,
      "Ġdepression": 5890,
      "Ġcharacters": 5891,
      "Ġtag": 5892,
      "Ġbapt": 5893,
      "Ġthigh": 5894,
      "inky": 5895,
      "aurus": 5896,
      "Ġmagn": 5897,
      "Ġfreed": 5898,
      "Ġclaim": 5899,
      "Ġlabor": 5900,
      "Ġbullshit": 5901,
      "Ġridiculous": 5902,
      "Ġhahaha": 5903,
      "Ġhelicop": 5904,
      "eed": 5905,
      "Ġgee": 5906,
      "Ġrat": 5907,
      "Ġmarath": 5908,
      "Ġtrap": 5909,
      "Ġbreathe": 5910,
      "uuuu": 5911,
      "Ġambulance": 5912,
      "gi": 5913,
      "ok": 5914,
      "Ġps": 5915,
      "Ġpine": 5916,
      "Ġmuffin": 5917,
      "Ġattached": 5918,
      "Ġaddiction": 5919,
      "Ġolive": 5920,
      "Ġyoda": 5921,
      "Ġbrows": 5922,
      "Ġstays": 5923,
      "Ġmadam": 5924,
      "Ġferrari": 5925,
      "Ġiv": 5926,
      "Ġwave": 5927,
      "Ġnude": 5928,
      "Ġcomplex": 5929,
      "Ġsurf": 5930,
      "Ġplans": 5931,
      "Ġindust": 5932,
      "Ġdespite": 5933,
      "ral": 5934,
      "ening": 5935,
      "Ġchoo": 5936,
      "Ġchannel": 5937,
      "Ġcrossed": 5938,
      "Ġclothing": 5939,
      "Ġpanca": 5940,
      "Ġnaturally": 5941,
      "Ġflorida": 5942,
      "Ġexcellent": 5943,
      "Ġstable": 5944,
      "Ġtequ": 5945,
      "agon": 5946,
      "Ġhappily": 5947,
      "Ġcrossing": 5948,
      "Ġpresents": 5949,
      "Ġcosts": 5950,
      "Ġconstipation": 5951,
      "Ġnuclear": 5952,
      "rus": 5953,
      "Ġston": 5954,
      "Ġmeow": 5955,
      "Ġbadly": 5956,
      "Ġteachers": 5957,
      "Ġskirt": 5958,
      "Ġcarefully": 5959,
      "Ġepis": 5960,
      "Ġdisappeared": 5961,
      "Ġwire": 5962,
      "Ġmonkeys": 5963,
      "Ġfold": 5964,
      "Ġsnap": 5965,
      "Ġhalfway": 5966,
      "Ġforehead": 5967,
      "Ġuran": 5968,
      "Ġhilarious": 5969,
      "ele": 5970,
      "Ġcord": 5971,
      "ayed": 5972,
      "Ġonions": 5973,
      "Ġlifetime": 5974,
      "Ġsafet": 5975,
      "Ġ22": 5976,
      "Ġsciss": 5977,
      "Ġslam": 5978,
      "iser": 5979,
      "Ġblown": 5980,
      "Ġbringing": 5981,
      "Ġthermometer": 5982,
      "vaxx": 5983,
      "Ġsafety": 5984,
      "ov": 5985,
      "Ġreasons": 5986,
      "Ġrud": 5987,
      "Ġrushed": 5988,
      "Ġmotherfuck": 5989,
      "Ġshovel": 5990,
      "Ġdressing": 5991,
      "Ġoffended": 5992,
      "Ġjamaican": 5993,
      "Ġcucumber": 5994,
      "bon": 5995,
      "Ġjed": 5996,
      "Ġnep": 5997,
      "osity": 5998,
      "Ġcondu": 5999,
      "Ġprevent": 6000,
      "Ġmobile": 6001,
      "Ġgam": 6002,
      "Ġheight": 6003,
      "Ġthirty": 6004,
      "Ġstare": 6005,
      "Ġvader": 6006,
      "Ġstudies": 6007,
      "Ġpac": 6008,
      "Ġcarrot": 6009,
      "belie": 6010,
      "Ġdriveway": 6011,
      "Ġsig": 6012,
      "Ġron": 6013,
      "Ġdece": 6014,
      "Ġretire": 6015,
      "Ġraped": 6016,
      "Ġpenguins": 6017,
      "Ġexecut": 6018,
      "Ġaye": 6019,
      "cture": 6020,
      "Ġcovid": 6021,
      "Ġrif": 6022,
      "Ġindia": 6023,
      "Ġsinger": 6024,
      "Ġeyebr": 6025,
      "Ġcurrently": 6026,
      "Ġcandid": 6027,
      "Ġvictim": 6028,
      "Ġdunno": 6029,
      "Ġfisherman": 6030,
      "Ġtoward": 6031,
      "ann": 6032,
      "Ġsteel": 6033,
      "Ġconfident": 6034,
      "Ġawake": 6035,
      "Ġfollows": 6036,
      "Ġspotted": 6037,
      "Ġcotton": 6038,
      "Ġdarth": 6039,
      "Ġfile": 6040,
      "Ġships": 6041,
      "Ġuncom": 6042,
      "Ġmax": 6043,
      "Ġsniff": 6044,
      "Ġmasturbation": 6045,
      "Ġ...'": 6046,
      "Ġalley": 6047,
      "Ġbuilder": 6048,
      "ront": 6049,
      "Ġais": 6050,
      "Ġseam": 6051,
      "Ġallerg": 6052,
      "Ġfamili": 6053,
      "Ġsticky": 6054,
      "Ġnetflix": 6055,
      "pack": 6056,
      "vi": 6057,
      "Ġkicks": 6058,
      "Ġactual": 6059,
      "Ġcolon": 6060,
      "Ġassume": 6061,
      "Ġslide": 6062,
      "Ġforeign": 6063,
      "Ġdanie": 6064,
      "Ġcrocodile": 6065,
      "Ġtequila": 6066,
      "oven": 6067,
      "aded": 6068,
      "Ġvlad": 6069,
      "Ġcarl": 6070,
      "Ġremar": 6071,
      "ledge": 6072,
      "Ġhomosexual": 6073,
      "Ġdessert": 6074,
      "gie": 6075,
      "Ġpers": 6076,
      "Ġgently": 6077,
      "agger": 6078,
      "Ġanyways": 6079,
      "Ġassass": 6080,
      "water": 6081,
      "Ġms": 6082,
      "asing": 6083,
      "acle": 6084,
      "Ġkan": 6085,
      "Ġtrapped": 6086,
      "Ġpickup": 6087,
      "Ġsym": 6088,
      "Ġprayer": 6089,
      "Ġtexan": 6090,
      "yyyy": 6091,
      "Ġromantic": 6092,
      "Ġreceptionist": 6093,
      "Ġtemp": 6094,
      "Ġaliens": 6095,
      "Ġhurricane": 6096,
      "Ġanx": 6097,
      "Ġphysical": 6098,
      "Ġalbum": 6099,
      "Ġsaud": 6100,
      "Ġcaes": 6101,
      "Ġproudly": 6102,
      "Ġgrate": 6103,
      "Ġstreets": 6104,
      "Ġexperiment": 6105,
      "Ġhappening": 6106,
      "Ġclowns": 6107,
      "rom": 6108,
      "Ġshel": 6109,
      "Ġheadache": 6110,
      "Ġ,''": 6111,
      "Ġsisters": 6112,
      "Ġrichard": 6113,
      "Ġdonate": 6114,
      "Ġslapped": 6115,
      "Ġstudying": 6116,
      "Ġidiots": 6117,
      "Ġsuffer": 6118,
      "Ġhawking": 6119,
      "Ġmour": 6120,
      "Ġmoth": 6121,
      "Ġpea": 6122,
      "Ġcoin": 6123,
      "Ġproject": 6124,
      "Ġcheesy": 6125,
      "Ġjugg": 6126,
      "Ġstatus": 6127,
      "gue": 6128,
      "Ġnewly": 6129,
      "Ġbottles": 6130,
      "Ġnasa": 6131,
      "irts": 6132,
      "Ġbodies": 6133,
      "Ġspy": 6134,
      "Ġarth": 6135,
      "Ġinstagram": 6136,
      "balls": 6137,
      "Ġconvention": 6138,
      "Ġwaves": 6139,
      "Ġavailable": 6140,
      "Ġjane": 6141,
      "ifu": 6142,
      "Ġchickpe": 6143,
      "Ġstranded": 6144,
      "Ġjoseph": 6145,
      "Ġumbrella": 6146,
      "Ġliver": 6147,
      "Ġdemon": 6148,
      "Ġpeeing": 6149,
      "Ġpossibly": 6150,
      "Ġsout": 6151,
      "oupe": 6152,
      "Ġos": 6153,
      "otch": 6154,
      "Ġnoises": 6155,
      "Ġletting": 6156,
      "Ġrecru": 6157,
      "Ġrelationships": 6158,
      "Ġcelebrating": 6159,
      "Ġthai": 6160,
      "Ġphrase": 6161,
      "Ġconsidering": 6162,
      "Ġau": 6163,
      "Ġward": 6164,
      "Ġwong": 6165,
      "Ġpow": 6166,
      "Ġreview": 6167,
      "Ġformer": 6168,
      "Ġsells": 6169,
      "Ġaltern": 6170,
      "Ġrabbits": 6171,
      "Ġnature": 6172,
      "Ġoxygen": 6173,
      "Ġsom": 6174,
      "Ġfits": 6175,
      "lli": 6176,
      "Ġhay": 6177,
      "ria": 6178,
      "Ġchim": 6179,
      "Ġplants": 6180,
      "Ġquality": 6181,
      "Ġcharges": 6182,
      "Ġsanders": 6183,
      "Ġou": 6184,
      "Ġlizard": 6185,
      "Ġfunction": 6186,
      "Ġcharity": 6187,
      "Ġshortly": 6188,
      "Ġsuffering": 6189,
      "Ġcircumcision": 6190,
      "Ġaqu": 6191,
      "Ġwing": 6192,
      "hal": 6193,
      "Ġtoys": 6194,
      "Ġhug": 6195,
      "Ġprogress": 6196,
      "Ġtrial": 6197,
      "Ġrefuse": 6198,
      "Ġprincipal": 6199,
      "aver": 6200,
      "Ġkil": 6201,
      "Ġsear": 6202,
      "Ġcongress": 6203,
      "Ġpoem": 6204,
      "Ġthanos": 6205,
      "Ġautoc": 6206,
      "Ġpockets": 6207,
      "Ġrepeated": 6208,
      "Ġtunnel": 6209,
      "Ġhelicopter": 6210,
      "Ġfist": 6211,
      "eping": 6212,
      "Ġspring": 6213,
      "Ġmailman": 6214,
      "Ġwtf": 6215,
      "ndy": 6216,
      "Ġwears": 6217,
      "Ġsem": 6218,
      "Ġmusical": 6219,
      "Ġgroans": 6220,
      "Ġharass": 6221,
      "Ġunderstood": 6222,
      "Ġfoc": 6223,
      "Ġfreak": 6224,
      "cue": 6225,
      "Ġpak": 6226,
      "Ġwealth": 6227,
      "Ġcarrots": 6228,
      "Ġpersonality": 6229,
      "cedes": 6230,
      "Ġmartin": 6231,
      "Ġbubbles": 6232,
      "ora": 6233,
      "ashion": 6234,
      "Ġclever": 6235,
      "Ġtifu": 6236,
      "Ġpolitics": 6237,
      "Ġbeeth": 6238,
      "Ġalth": 6239,
      "Ġstevie": 6240,
      "Ġstrang": 6241,
      "Ġ011": 6242,
      "Ġvampires": 6243,
      "Ġgoddam": 6244,
      "Ġmop": 6245,
      "Ġwhom": 6246,
      "ilst": 6247,
      "Ġprisoner": 6248,
      "Ġimaginary": 6249,
      "Ġgalax": 6250,
      "Ġkanye": 6251,
      "ki": 6252,
      "Ġlink": 6253,
      "Ġstab": 6254,
      "Ġseats": 6255,
      "uments": 6256,
      "Ġcomr": 6257,
      "Ġsomehow": 6258,
      "Ġvegans": 6259,
      "Ġmisses": 6260,
      "Ġdebate": 6261,
      "Ġpumpkin": 6262,
      "vision": 6263,
      "Ġmcc": 6264,
      "rog": 6265,
      "roll": 6266,
      "urst": 6267,
      "plant": 6268,
      "Ġsnoop": 6269,
      "Ġmusk": 6270,
      "Ġsetting": 6271,
      "Ġcooked": 6272,
      "Ġidentify": 6273,
      "vere": 6274,
      "rian": 6275,
      "lied": 6276,
      "Ġconfession": 6277,
      "Ġforgive": 6278,
      "Ġsung": 6279,
      "Ġpitch": 6280,
      "Ġreverse": 6281,
      "Ġstamp": 6282,
      "Ġshits": 6283,
      "Ġcontent": 6284,
      "Ġtyp": 6285,
      "Ġvibr": 6286,
      "Ġengineers": 6287,
      "Ġcommunic": 6288,
      "Ġbeethoven": 6289,
      "Ġalthough": 6290,
      "bye": 6291,
      "ez": 6292,
      "iders": 6293,
      "Ġstream": 6294,
      "Ġshook": 6295,
      "Ġinspe": 6296,
      "Ġcheek": 6297,
      "corn": 6298,
      "Ġshep": 6299,
      "Ġproduce": 6300,
      "Ġdoubt": 6301,
      "Ġdadjoked": 6302,
      "ox": 6303,
      "Ġpersonally": 6304,
      "Ġmistakes": 6305,
      "19": 6306,
      "acc": 6307,
      "Ġgoal": 6308,
      "Ġbenef": 6309,
      "Ġliquid": 6310,
      "Ġcuriosity": 6311,
      "Ġsaudi": 6312,
      "cles": 6313,
      "Ġsams": 6314,
      "Ġstren": 6315,
      "Ġnotes": 6316,
      "Ġspice": 6317,
      "Ġbrush": 6318,
      "Ġposting": 6319,
      "Ġstrike": 6320,
      "Ġelectrician": 6321,
      "Ġbrazilian": 6322,
      "Ġshamp": 6323,
      "Ġsurely": 6324,
      "Ġindians": 6325,
      "Ġterrorists": 6326,
      "Ġrevol": 6327,
      "nish": 6328,
      "Ġtum": 6329,
      "Ġdates": 6330,
      "iced": 6331,
      "Ġthyme": 6332,
      "Ġowned": 6333,
      "Ġinstruction": 6334,
      "Ġsquee": 6335,
      "moon": 6336,
      "Ġbing": 6337,
      "Ġnig": 6338,
      "Ġconfir": 6339,
      "Ġbaked": 6340,
      "Ġclient": 6341,
      "Ġaffair": 6342,
      "Ġcabb": 6343,
      "Ġnation": 6344,
      "Ġbugs": 6345,
      "Ġheaded": 6346,
      "Ġtasted": 6347,
      "Ġrepublican": 6348,
      "Ġcongratulations": 6349,
      "zes": 6350,
      "Ġboots": 6351,
      "Ġhunters": 6352,
      "Ġbreathing": 6353,
      "Ġinvolved": 6354,
      "Ġvehicle": 6355,
      "vest": 6356,
      "Ġwhilst": 6357,
      "Ġexperien": 6358,
      "Ġperfor": 6359,
      "Ġcantal": 6360,
      "Ġshampoo": 6361,
      "Ġcanoe": 6362,
      "Ġcheated": 6363,
      "Ġending": 6364,
      "Ġglove": 6365,
      "Ġpassion": 6366,
      "Ġ95": 6367,
      "Ġpleasure": 6368,
      "Ġtommy": 6369,
      "Ġcourtesy": 6370,
      "Ġdrowned": 6371,
      "Ġyoga": 6372,
      "nity": 6373,
      "Ġmyster": 6374,
      "Ġvar": 6375,
      "Ġcaused": 6376,
      "Ġfreud": 6377,
      "Ġhomes": 6378,
      "amin": 6379,
      "Ġharam": 6380,
      "Ġblanket": 6381,
      "Ġsample": 6382,
      "Ġbones": 6383,
      "Ġoops": 6384,
      "Ġunf": 6385,
      "Ġheading": 6386,
      "Ġbatteries": 6387,
      "Ġdeleted": 6388,
      "Ġsouther": 6389,
      "Ġthes": 6390,
      "inness": 6391,
      "Ġlied": 6392,
      "Ġdiab": 6393,
      "Ġelon": 6394,
      "Ġhairy": 6395,
      "iation": 6396,
      "Ġfog": 6397,
      "Ġchose": 6398,
      "Ġuno": 6399,
      "Ġnevermind": 6400,
      "Ġbmw": 6401,
      "aked": 6402,
      "Ġcoast": 6403,
      "Ġcharlie": 6404,
      "Ġunique": 6405,
      "Ġrecords": 6406,
      "Ġpapa": 6407,
      "Ġolympic": 6408,
      "met": 6409,
      "rors": 6410,
      "Ġguards": 6411,
      "Ġcoinc": 6412,
      "udes": 6413,
      "Ġstruck": 6414,
      "Ġirrit": 6415,
      "Ġvegas": 6416,
      "Ġbowling": 6417,
      "Ġmerma": 6418,
      "Ġsamsung": 6419,
      "Ġwished": 6420,
      "Ġfbi": 6421,
      "iron": 6422,
      "Ġketch": 6423,
      "Ġford": 6424,
      "Ġsole": 6425,
      "Ġshotgun": 6426,
      "Ġmaterial": 6427,
      "Ġbid": 6428,
      "Ġinfection": 6429,
      "Ġwii": 6430,
      "Ġrelated": 6431,
      "Ġarticle": 6432,
      "Ġviolets": 6433,
      "oooooooooooooooo": 6434,
      "Ġjournal": 6435,
      "Ġwhistle": 6436,
      "Ġautocorrect": 6437,
      "100": 6438,
      "Ġwreck": 6439,
      "alous": 6440,
      "Ġstripper": 6441,
      "Ġteenager": 6442,
      "Ġannounces": 6443,
      "Ġdirections": 6444,
      "Ġpapers": 6445,
      "uits": 6446,
      "Ġ!''": 6447,
      "Ġscrewed": 6448,
      "Ġhunt": 6449,
      "Ġaccountant": 6450,
      "Ġeconom": 6451,
      "Ġstabbed": 6452,
      "py": 6453,
      "uf": 6454,
      "oured": 6455,
      "Ġfri": 6456,
      "Ġlis": 6457,
      "isy": 6458,
      "Ġguinness": 6459,
      "ago": 6460,
      "Ġperp": 6461,
      "Ġairlines": 6462,
      "Ġpacked": 6463,
      "Ġexpert": 6464,
      "Ġsurviv": 6465,
      "hus": 6466,
      "Ġtheater": 6467,
      "Ġmister": 6468,
      "Ġheck": 6469,
      "owing": 6470,
      "Ġreact": 6471,
      "Ġthurs": 6472,
      "Ġlil": 6473,
      "Ġrole": 6474,
      "Ġlongest": 6475,
      "Ġlightning": 6476,
      "Ġinsert": 6477,
      "Ġtouching": 6478,
      "Ġorigin": 6479,
      "Ġmasoch": 6480,
      "Ġrifle": 6481,
      "da": 6482,
      "fc": 6483,
      "hem": 6484,
      "Ġbage": 6485,
      "Ġdos": 6486,
      "Ġnodd": 6487,
      "oler": 6488,
      "Ġloving": 6489,
      "ipes": 6490,
      "ogy": 6491,
      "Ġrecyc": 6492,
      "Ġevidence": 6493,
      "Ġclimbing": 6494,
      "Ġculture": 6495,
      "Ġgravity": 6496,
      "inderella": 6497,
      "99": 6498,
      "heart": 6499,
      "Ġlent": 6500,
      "Ġherb": 6501,
      "Ġgrows": 6502,
      "Ġskills": 6503,
      "Ġofficial": 6504,
      "Ġmovement": 6505,
      "Ġslipped": 6506,
      "omp": 6507,
      "Ġrushes": 6508,
      "Ġcans": 6509,
      "Ġfathers": 6510,
      "mmmm": 6511,
      "Ġpraying": 6512,
      "Ġstruggling": 6513,
      "Ġfantastic": 6514,
      "Ġburglar": 6515,
      "Ġjedi": 6516,
      "Ġthursday": 6517,
      "hero": 6518,
      "Ġmice": 6519,
      "Ġpushing": 6520,
      "Ġkle": 6521,
      "lium": 6522,
      "Ġtwist": 6523,
      "Ġchap": 6524,
      "Ġruin": 6525,
      "Ġlatest": 6526,
      "Ġtradition": 6527,
      "Ġretarded": 6528,
      "Ġaisle": 6529,
      "Ġdare": 6530,
      "olph": 6531,
      "Ġvent": 6532,
      "Ġspare": 6533,
      "Ġfriendly": 6534,
      "Ġdiss": 6535,
      "Ġwatermel": 6536,
      "Ġrussians": 6537,
      "Ġcinderella": 6538,
      "Ġjared": 6539,
      "Ġslice": 6540,
      "Ġ.'\"": 6541,
      "Ġbasic": 6542,
      "Ġremains": 6543,
      "Ġeducation": 6544,
      "mail": 6545,
      "Ġmud": 6546,
      "rey": 6547,
      "Ġdict": 6548,
      "Ġgroom": 6549,
      "asel": 6550,
      "Ġrail": 6551,
      "Ġhoneymoon": 6552,
      "Ġwhales": 6553,
      "Ġpakistan": 6554,
      "ania": 6555,
      "asty": 6556,
      "oodle": 6557,
      "Ġ28": 6558,
      "arest": 6559,
      "Ġbrains": 6560,
      "Ġninja": 6561,
      "Ġkarate": 6562,
      "Ġindustry": 6563,
      "Ġchickpea": 6564,
      "bble": 6565,
      "Ġtres": 6566,
      "Ġtoad": 6567,
      "Ġjustice": 6568,
      "Ġalas": 6569,
      "Ġresolution": 6570,
      "Ġcommitted": 6571,
      "Ġserver": 6572,
      "Ġcampa": 6573,
      "Ġmercedes": 6574,
      "rate": 6575,
      "inary": 6576,
      "anced": 6577,
      "Ġcoins": 6578,
      "Ġfirm": 6579,
      "Ġassign": 6580,
      "Ġdeserve": 6581,
      "Ġcauses": 6582,
      "Ġrefuses": 6583,
      "Ġtexted": 6584,
      "Ġ2000": 6585,
      "Ġgentlemen": 6586,
      "Ġmodern": 6587,
      "Ġsac": 6588,
      "Ġded": 6589,
      "Ġgren": 6590,
      "Ġkang": 6591,
      "Ġark": 6592,
      "Ġtense": 6593,
      "Ġkissed": 6594,
      "Ġannounce": 6595,
      "Ġhippo": 6596,
      "Ġmotorcycle": 6597,
      "hamed": 6598,
      "Ġgoodbye": 6599,
      "Ġglob": 6600,
      "Ġmarathon": 6601,
      "Ġuranus": 6602,
      "Ġperforman": 6603,
      "Ġnoah": 6604,
      "Ġrode": 6605,
      "Ġapplic": 6606,
      "Ġsuperior": 6607,
      "Ġpotential": 6608,
      "Ġcarpenter": 6609,
      "Ġcantaloupe": 6610,
      "ev": 6611,
      "Ġwore": 6612,
      "Ġfain": 6613,
      "Ġfashion": 6614,
      "Ġsav": 6615,
      "enders": 6616,
      "liest": 6617,
      "Ġmarch": 6618,
      "Ġjealous": 6619,
      "Ġpatch": 6620,
      "Ġpete": 6621,
      "Ġfully": 6622,
      "pected": 6623,
      "Ġembarrassing": 6624,
      "Ġdinosaurs": 6625,
      "Ġapologize": 6626,
      "Ġcherry": 6627,
      "Ġfunniest": 6628,
      "Ġessay": 6629,
      "bee": 6630,
      "pm": 6631,
      "Ġasians": 6632,
      "Ġrise": 6633,
      "Ġatom": 6634,
      "Ġinsane": 6635,
      "Ġpopcorn": 6636,
      "Ġcrem": 6637,
      "Ġgeneration": 6638,
      "Ġdishwas": 6639,
      "kim": 6640,
      "Ġanger": 6641,
      "Ġsue": 6642,
      "Ġvel": 6643,
      "Ġtransg": 6644,
      "Ġbullets": 6645,
      "Ġproperty": 6646,
      "ux": 6647,
      "Ġhr": 6648,
      "Ġconserv": 6649,
      "Ġpromised": 6650,
      "Ġkissing": 6651,
      "Ġwelsh": 6652,
      "Ġsurvived": 6653,
      "Ġrelease": 6654,
      "vah": 6655,
      "Ġpc": 6656,
      "Ġchicks": 6657,
      "Ġvest": 6658,
      "Ġrepres": 6659,
      "Ġfeat": 6660,
      "Ġshove": 6661,
      "mony": 6662,
      "Ġ150": 6663,
      "Ġchocolates": 6664,
      "Ġinnoc": 6665,
      "road": 6666,
      "chool": 6667,
      "Ġplanes": 6668,
      "Ġrelative": 6669,
      "Ġmathematicians": 6670,
      "Ġprotect": 6671,
      "Ġthirsty": 6672,
      "Ġdeck": 6673,
      "ula": 6674,
      "Ġhappiness": 6675,
      "Ġcrotch": 6676,
      "Ġserge": 6677,
      "nery": 6678,
      "Ġcounts": 6679,
      "Ġsmooth": 6680,
      "Ġjenner": 6681,
      "Ġweapon": 6682,
      "Ġsubmarine": 6683,
      "pit": 6684,
      "Ġmuse": 6685,
      "ander": 6686,
      "Ġparties": 6687,
      "Ġterrified": 6688,
      "Ġpointless": 6689,
      "Ġelected": 6690,
      "Ġpurp": 6691,
      "Ġlays": 6692,
      "Ġketchup": 6693,
      "'\"": 6694,
      "lasses": 6695,
      "tion": 6696,
      "aries": 6697,
      "Ġhotdog": 6698,
      "Ġfarmers": 6699,
      "Ġsolo": 6700,
      "Ġmelons": 6701,
      "Ġnein": 6702,
      "endo": 6703,
      "Ġability": 6704,
      "Ġlem": 6705,
      "Ġtramp": 6706,
      "Ġamish": 6707,
      "Ġacne": 6708,
      "Ġfreedom": 6709,
      "iver": 6710,
      "Ġhelium": 6711,
      "itals": 6712,
      "hers": 6713,
      "raged": 6714,
      "essim": 6715,
      "Ġripped": 6716,
      "Ġhumour": 6717,
      "Ġcarpet": 6718,
      "uel": 6719,
      "Ġray": 6720,
      "Ġarch": 6721,
      "Ġcrab": 6722,
      "Ġpainted": 6723,
      "Ġreposts": 6724,
      "zene": 6725,
      "Ġgifts": 6726,
      "woman": 6727,
      "Ġdim": 6728,
      "Ġdated": 6729,
      "Ġdrew": 6730,
      "hand": 6731,
      "Ġhack": 6732,
      "Ġthrones": 6733,
      "icted": 6734,
      "Ġstrings": 6735,
      "Ġsuperhero": 6736,
      "pared": 6737,
      "Ġlargest": 6738,
      "Ġbusinessman": 6739,
      "Ġregret": 6740,
      "Ġmaths": 6741,
      "Ġclaims": 6742,
      "Ġdrawing": 6743,
      "Ġhippie": 6744,
      "Ġvictims": 6745,
      "Ġupvotes": 6746,
      "Ġuncomfortable": 6747,
      "Ġunz": 6748,
      "Ġoldest": 6749,
      "Ġdecor": 6750,
      "Ġfeelings": 6751,
      "brush": 6752,
      "Ġcares": 6753,
      "Ġrubbing": 6754,
      "Ġcloses": 6755,
      "Ġequal": 6756,
      "Ġchatting": 6757,
      "Ġnephew": 6758,
      "field": 6759,
      "verted": 6760,
      "star": 6761,
      "Ġdelight": 6762,
      "Ġrept": 6763,
      "Ġchain": 6764,
      "Ġcharles": 6765,
      "Ġeskim": 6766,
      "Ġmountains": 6767,
      "Ġrhym": 6768,
      "Ġcivil": 6769,
      "Ġepileptic": 6770,
      "not": 6771,
      "Ġpm": 6772,
      "Ġ26": 6773,
      "Ġbitches": 6774,
      "shield": 6775,
      "Ġfinishing": 6776,
      "Ġproperly": 6777,
      "Ġjunk": 6778,
      "Ġank": 6779,
      "Ġsuc": 6780,
      "Ġcomfortable": 6781,
      "orted": 6782,
      "Ġmothers": 6783,
      "Ġpupp": 6784,
      "Ġregist": 6785,
      "Ġrapist": 6786,
      "Ġdumped": 6787,
      "Ġshrugs": 6788,
      "fly": 6789,
      "Ġbacks": 6790,
      "Ġhisp": 6791,
      "ctomy": 6792,
      "Ġvo": 6793,
      "Ġimgur": 6794,
      "ship": 6795,
      "Ġquarters": 6796,
      "80": 6797,
      "brew": 6798,
      "fting": 6799,
      "arts": 6800,
      "Ġpeel": 6801,
      "Ġ27": 6802,
      "Ġwindshield": 6803,
      "Ġprostate": 6804,
      "Ġproducts": 6805,
      "Ġbursts": 6806,
      "Ġscratch": 6807,
      "Ġcritic": 6808,
      "Ġoverheard": 6809,
      "Ġhare": 6810,
      "Ġparked": 6811,
      "Ġsubst": 6812,
      "Ġrubs": 6813,
      "Ġcomplains": 6814,
      "mith": 6815,
      "aste": 6816,
      "boys": 6817,
      "Ġdoesnt": 6818,
      "Ġschwar": 6819,
      "Ġlaws": 6820,
      "Ġironic": 6821,
      "Ġmuseum": 6822,
      "nuts": 6823,
      "Ġkerm": 6824,
      "ively": 6825,
      "Ġhusbands": 6826,
      "Ġmidnight": 6827,
      "Ġmillenn": 6828,
      "jobs": 6829,
      "Ġaxe": 6830,
      "Ġinstrument": 6831,
      "Ġscissors": 6832,
      "Ġkangar": 6833,
      "Ġsip": 6834,
      "Ġpessim": 6835,
      "Ġoutstanding": 6836,
      "Ġtherefore": 6837,
      "Ġolds": 6838,
      "Ġhookers": 6839,
      "Ġdyslexia": 6840,
      "Ġzebra": 6841,
      "Ġsunglasses": 6842,
      "rated": 6843,
      "Ġfian": 6844,
      "idal": 6845,
      "Ġdial": 6846,
      "Ġunus": 6847,
      "Ġunex": 6848,
      "Ġtalent": 6849,
      "Ġideas": 6850,
      "Ġraw": 6851,
      "Ġbanging": 6852,
      "Ġitems": 6853,
      "Ġresponsible": 6854,
      "Ġmasochist": 6855,
      "Ġdishwasher": 6856,
      "away": 6857,
      "ray": 6858,
      "xit": 6859,
      "Ġintense": 6860,
      "Ġflood": 6861,
      "Ġsidewalk": 6862,
      "Ġstaying": 6863,
      "Ġtickles": 6864,
      "Ġunemployed": 6865,
      "Ġstrength": 6866,
      "cas": 6867,
      "ester": 6868,
      "Ġages": 6869,
      "Ġapproach": 6870,
      "Ġviolence": 6871,
      "Ġmidgets": 6872,
      "Ġlifts": 6873,
      "Ġcaptured": 6874,
      "Ġenviron": 6875,
      "gra": 6876,
      "ghan": 6877,
      "Ġwurst": 6878,
      "Ġtheres": 6879,
      "Ġknowledge": 6880,
      "Ġplat": 6881,
      "Ġdropping": 6882,
      "Ġbeaten": 6883,
      "Ġscand": 6884,
      "Ġcomplained": 6885,
      "Ġdefend": 6886,
      "Ġdeveloped": 6887,
      "Ġweakness": 6888,
      "Ġcouples": 6889,
      "Ġduty": 6890,
      "Ġimprove": 6891,
      "Ġphilosoph": 6892,
      "Ġwidow": 6893,
      "Ġdocumentary": 6894,
      "Ġcampaign": 6895,
      "Ġlugg": 6896,
      "Ġthread": 6897,
      "gee": 6898,
      "Ġchili": 6899,
      "Ġsurprising": 6900,
      "Ġcommunism": 6901,
      "Ġtreatment": 6902,
      "Ġcasket": 6903,
      "Ġlevels": 6904,
      "Ġmcdonalds": 6905,
      "Ġmethod": 6906,
      "Ġejaculation": 6907,
      "Ġrecommend": 6908,
      "Ġstir": 6909,
      "ading": 6910,
      "Ġchase": 6911,
      "Ġfrequ": 6912,
      "Ġtowers": 6913,
      "Ġsensitive": 6914,
      "Ġtornado": 6915,
      "Ġchimney": 6916,
      "bor": 6917,
      "Ġfasc": 6918,
      "escending": 6919,
      "Ġnaught": 6920,
      "ota": 6921,
      "Ġbloke": 6922,
      "Ġprepared": 6923,
      "Ġens": 6924,
      "Ġ32": 6925,
      "Ġpleased": 6926,
      "Ġdiscover": 6927,
      "Ġargue": 6928,
      "Ġnormally": 6929,
      "Ġpronounce": 6930,
      "Ġmortician": 6931,
      "Ġrepublicans": 6932,
      "Ġallergic": 6933,
      "Ġiq": 6934,
      "haps": 6935,
      "lyn": 6936,
      "Ġsevere": 6937,
      "Ġunit": 6938,
      "Ġretired": 6939,
      "Ġtyr": 6940,
      "Ġmiche": 6941,
      "Ġbury": 6942,
      "Ġempire": 6943,
      "Ġoscar": 6944,
      "Ġenvironment": 6945,
      "tub": 6946,
      "Ġfried": 6947,
      "Ġgamb": 6948,
      "ena": 6949,
      "icing": 6950,
      "Ġsweater": 6951,
      "Ġfluid": 6952,
      "Ġpours": 6953,
      "Ġhillbilly": 6954,
      "zenegger": 6955,
      "Ġwound": 6956,
      "Ġliar": 6957,
      "Ġshy": 6958,
      "ape": 6959,
      "Ġcheat": 6960,
      "Ġdisaster": 6961,
      "Ġcomputers": 6962,
      "Ġshepher": 6963,
      "Ġperformance": 6964,
      "rex": 6965,
      "Ġpure": 6966,
      "Ġgary": 6967,
      "riff": 6968,
      "Ġatoms": 6969,
      "estic": 6970,
      "Ġintoler": 6971,
      "Ġlecture": 6972,
      "Ġorang": 6973,
      "Ġbackyard": 6974,
      "Ġcompos": 6975,
      "Ġscotland": 6976,
      "wwww": 6977,
      "Ġfeathers": 6978,
      "Ġlumberjack": 6979,
      "Ġrome": 6980,
      "Ġdisag": 6981,
      "Ġcontro": 6982,
      "Ġattorn": 6983,
      "rrr": 6984,
      "Ġmurdered": 6985,
      "Ġpowerful": 6986,
      "Ġpistol": 6987,
      "Ġnipples": 6988,
      "tw": 6989,
      "Ġni": 6990,
      "Ġcrashes": 6991,
      "Ġbushes": 6992,
      "Ġleads": 6993,
      "Ġcheetah": 6994,
      "Ġluggage": 6995,
      "hamm": 6996,
      "Ġpuff": 6997,
      "Ġdownload": 6998,
      "Ġchildhood": 6999,
      "Ġsupplies": 7000,
      "kkkk": 7001,
      "Ġdirectly": 7002,
      "Ġtemperature": 7003,
      "just": 7004,
      "Ġfag": 7005,
      "Ġformat": 7006,
      "iece": 7007,
      "Ġhobb": 7008,
      "Ġaccess": 7009,
      "ostic": 7010,
      "Ġbuddies": 7011,
      "fia": 7012,
      "Ġspiders": 7013,
      "Ġpregnancy": 7014,
      "Ġstuffed": 7015,
      "Ġscotch": 7016,
      "Ġskydiving": 7017,
      "Ġglobal": 7018,
      "Ġthumb": 7019,
      "Ġoutta": 7020,
      "Ġrepair": 7021,
      "Ġconnery": 7022,
      "ension": 7023,
      "Ġsurvey": 7024,
      "Ġcells": 7025,
      "Ġtrainer": 7026,
      "Ġroyal": 7027,
      "Ġschwarzenegger": 7028,
      "ya": 7029,
      "orters": 7030,
      "Ġnasty": 7031,
      "ista": 7032,
      "Ġslides": 7033,
      "Ġpervert": 7034,
      "Ġstere": 7035,
      "Ġidk": 7036,
      "Ġbiker": 7037,
      "Ġgreeted": 7038,
      "Ġdolphin": 7039,
      "Ġkangaroo": 7040,
      "Ġscr": 7041,
      "Ġmarx": 7042,
      "Ġjeho": 7043,
      "Ġslams": 7044,
      "Ġsinking": 7045,
      "Ġcolors": 7046,
      "Ġrange": 7047,
      "Ġtransform": 7048,
      "Ġillness": 7049,
      "Ġfools": 7050,
      "Ġdemands": 7051,
      "Ġconductor": 7052,
      "Ġoui": 7053,
      "Ġrhymes": 7054,
      "ios": 7055,
      "nob": 7056,
      "ody": 7057,
      "Ġmorm": 7058,
      "Ġarts": 7059,
      "Ġplain": 7060,
      "Ġnightm": 7061,
      "Ġwednes": 7062,
      "Ġbritain": 7063,
      "vent": 7064,
      "Ġhou": 7065,
      "isions": 7066,
      "Ġstress": 7067,
      "Ġabra": 7068,
      "Ġsubs": 7069,
      "ometry": 7070,
      "Ġsurrounded": 7071,
      "stone": 7072,
      "Ġleague": 7073,
      "Ġdowns": 7074,
      "iper": 7075,
      "Ġpolicy": 7076,
      "Ġsupply": 7077,
      "Ġdelivered": 7078,
      "Ġchemical": 7079,
      "Ġsmartest": 7080,
      "Ġoffender": 7081,
      "Ġvalue": 7082,
      "Ġnervously": 7083,
      "Ġleaned": 7084,
      "Ġsatisfied": 7085,
      "Ġinjured": 7086,
      "Ġsouthern": 7087,
      "Ġtables": 7088,
      "Ġbust": 7089,
      "Ġashamed": 7090,
      "Ġdisplay": 7091,
      "Ġvend": 7092,
      "Ġmagaz": 7093,
      "ivity": 7094,
      "Ġhyster": 7095,
      "Ġmisunder": 7096,
      "Ġdisgusted": 7097,
      "Ġeastern": 7098,
      "Ġjerry": 7099,
      "Ġsneak": 7100,
      "Ġcomrade": 7101,
      "husi": 7102,
      "Ġwednesday": 7103,
      "Ġsins": 7104,
      "Ġitaly": 7105,
      "Ġstared": 7106,
      "Ġtrous": 7107,
      "Ġstartled": 7108,
      "Ġcondescending": 7109,
      "Ġfrogs": 7110,
      "Ġoccasion": 7111,
      "Ġdesperate": 7112,
      "hog": 7113,
      "Ġja": 7114,
      "acts": 7115,
      "Ġseag": 7116,
      "Ġchic": 7117,
      "Ġbarack": 7118,
      "aging": 7119,
      "Ġhoe": 7120,
      "Ġgrandad": 7121,
      "Ġstores": 7122,
      "Ġinternational": 7123,
      "Ġtelevision": 7124,
      "Ġgreece": 7125,
      "Ġbubba": 7126,
      "Ġstunned": 7127,
      "Ġstatistician": 7128,
      "Ġkoala": 7129,
      "Ġtiss": 7130,
      "Ġry": 7131,
      "Ġwhoa": 7132,
      "Ġconference": 7133,
      "Ġbricks": 7134,
      "Ġparan": 7135,
      "Ġserving": 7136,
      "Ġmurphy": 7137,
      "Ġtexting": 7138,
      "build": 7139,
      "Ġprepare": 7140,
      "Ġdutch": 7141,
      "Ġtin": 7142,
      "Ġshat": 7143,
      "imir": 7144,
      "Ġsheriff": 7145,
      "Ġloaf": 7146,
      "Ġairline": 7147,
      "Ġcandle": 7148,
      "Ġreported": 7149,
      "Ġmentally": 7150,
      "Ġlength": 7151,
      "Ġpineapp": 7152,
      "iner": 7153,
      "Ġyup": 7154,
      "Ġnarr": 7155,
      "Ġjet": 7156,
      "Ġnovel": 7157,
      "Ġoccup": 7158,
      "Ġprevious": 7159,
      "Ġeffect": 7160,
      "Ġsenior": 7161,
      "Ġepisode": 7162,
      "Ġgalaxy": 7163,
      "Ġthesaurus": 7164,
      "Ġhispanic": 7165,
      "Ġgat": 7166,
      "Ġot": 7167,
      "Ġchir": 7168,
      "Ġvow": 7169,
      "Ġbathtub": 7170,
      "Ġtopic": 7171,
      "Ġlarger": 7172,
      "Ġfilling": 7173,
      "Ġbrilli": 7174,
      "coming": 7175,
      "Ġsoftware": 7176,
      "ener": 7177,
      "Ġcod": 7178,
      "000": 7179,
      "ograp": 7180,
      "Ġenthusi": 7181,
      "shirt": 7182,
      "Ġmete": 7183,
      "Ġgoldfish": 7184,
      "Ġcanadians": 7185,
      "Ġegyptian": 7186,
      "gian": 7187,
      "acing": 7188,
      "Ġarmed": 7189,
      "Ġqual": 7190,
      "Ġkeeper": 7191,
      "Ġbroad": 7192,
      "Ġrefle": 7193,
      "Ġjuly": 7194,
      "Ġcurtain": 7195,
      "Ġdawn": 7196,
      "Ġbillionaire": 7197,
      "Ġqueue": 7198,
      "Ġpurchase": 7199,
      "Ġvladimir": 7200,
      "Ġunexpected": 7201,
      "gw": 7202,
      "llo": 7203,
      "Ġinner": 7204,
      "Ġnearest": 7205,
      "Ġboston": 7206,
      "Ġwaking": 7207,
      "Ġmafia": 7208,
      "Ġaccompl": 7209,
      "Ġbites": 7210,
      "Ġreluct": 7211,
      "Ġtomatoes": 7212,
      "Ġconcentration": 7213,
      "Ġexplorer": 7214,
      "Ġinsomniac": 7215,
      "Ġmourning": 7216,
      "inating": 7217,
      "Ġpeps": 7218,
      "Ġdisorder": 7219,
      "Ġtrig": 7220,
      "Ġsquad": 7221,
      "Ġboxes": 7222,
      "Ġcircles": 7223,
      "Ġsimilarity": 7224,
      "Ġrisk": 7225,
      "rad": 7226,
      "Ġwis": 7227,
      "Ġlung": 7228,
      "Ġbrexit": 7229,
      "Ġknocking": 7230,
      "Ġmayo": 7231,
      "Ġcigar": 7232,
      "Ġincredibly": 7233,
      "Ġdemocr": 7234,
      "Ġaven": 7235,
      "rets": 7236,
      "Ġowe": 7237,
      "Ġkard": 7238,
      "Ġsake": 7239,
      "Ġcovers": 7240,
      "Ġhugh": 7241,
      "Ġpopulation": 7242,
      "Ġbiology": 7243,
      "Ġslippers": 7244,
      "Ġpuzzle": 7245,
      "Ġseparate": 7246,
      "Ġintelligent": 7247,
      "Ġsuspicious": 7248,
      "Ġrudolph": 7249,
      "Ġkermit": 7250,
      "Ġnaughty": 7251,
      "Ġbent": 7252,
      "Ġcone": 7253,
      "Ġaside": 7254,
      "onda": 7255,
      "Ġagn": 7256,
      "Ġimpl": 7257,
      "Ġconspir": 7258,
      "Ġconstant": 7259,
      "Ġlouder": 7260,
      "Ġservices": 7261,
      "Ġinspector": 7262,
      "Ġsergeant": 7263,
      "Ġties": 7264,
      "Ġike": 7265,
      "atory": 7266,
      "Ġthunder": 7267,
      "agers": 7268,
      "Ġspeaker": 7269,
      "Ġcompanies": 7270,
      "Ġinstructions": 7271,
      "Ġcoincidence": 7272,
      "kers": 7273,
      "esh": 7274,
      "oma": 7275,
      "Ġsched": 7276,
      "izer": 7277,
      "Ġsadist": 7278,
      "Ġforgotten": 7279,
      "Ġtaxes": 7280,
      "hahahaha": 7281,
      "Ġrectal": 7282,
      "Ġvendor": 7283,
      "crow": 7284,
      "oni": 7285,
      "Ġhebrew": 7286,
      "Ġkfc": 7287,
      "Ġtesting": 7288,
      "Ġrais": 7289,
      "Ġtexts": 7290,
      "Ġporcup": 7291,
      "Ġkidnapping": 7292,
      "Ġpancakes": 7293,
      "gins": 7294,
      "Ġoy": 7295,
      "Ġranger": 7296,
      "raine": 7297,
      "Ġcomic": 7298,
      "Ġcomfort": 7299,
      "Ġtrooper": 7300,
      "Ġhose": 7301,
      "Ġrooms": 7302,
      "Ġclimbs": 7303,
      "clock": 7304,
      "Ġchernob": 7305,
      "foot": 7306,
      "Ġprescription": 7307,
      "Ġtorture": 7308,
      "Ġseagull": 7309,
      "bag": 7310,
      "ipping": 7311,
      "Ġari": 7312,
      "Ġol": 7313,
      "otion": 7314,
      "Ġmeme": 7315,
      "Ġsofa": 7316,
      "Ġherd": 7317,
      "Ġsup": 7318,
      "Ġamy": 7319,
      "Ġdracul": 7320,
      "guard": 7321,
      "Ġurinal": 7322,
      "Ġburns": 7323,
      "Ġirony": 7324,
      "hetic": 7325,
      "Ġhighest": 7326,
      "Ġdrummer": 7327,
      "Ġzombies": 7328,
      "Ġachie": 7329,
      "Ġcaesar": 7330,
      "Ġkardash": 7331,
      "Ġling": 7332,
      "Ġblast": 7333,
      "igner": 7334,
      "Ġtripped": 7335,
      "Ġfirefight": 7336,
      "Ġdammit": 7337,
      "Ġpopped": 7338,
      "Ġobsessed": 7339,
      "Ġcoworkers": 7340,
      "Ġbrilliant": 7341,
      "lk": 7342,
      "ern": 7343,
      "Ġpushes": 7344,
      "Ġabuse": 7345,
      "geons": 7346,
      "Ġproct": 7347,
      "Ġmode": 7348,
      "Ġattacks": 7349,
      "Ġgenes": 7350,
      "Ġdamage": 7351,
      "Ġapprop": 7352,
      "Ġequip": 7353,
      "Ġintroduce": 7354,
      "Ġyogurt": 7355,
      "Ġphilosopher": 7356,
      "Ġharambe": 7357,
      "Ġpepsi": 7358,
      "Ġstiff": 7359,
      "Ġsmir": 7360,
      "aux": 7361,
      "Ġtripping": 7362,
      "Ġmillionaire": 7363,
      "Ġdefense": 7364,
      "Ġpsychologist": 7365,
      "Ġroller": 7366,
      "Ġlanguages": 7367,
      "Ġprinter": 7368,
      "Ġwitnesses": 7369,
      "Ġtesla": 7370,
      "Ġtransgender": 7371,
      "Ġbie": 7372,
      "Ġmakeup": 7373,
      "place": 7374,
      "Ġplanets": 7375,
      "Ġsettle": 7376,
      "Ġregister": 7377,
      "Ġtweets": 7378,
      "Ġconvince": 7379,
      "Ġreptile": 7380,
      "eli": 7381,
      "Ġak": 7382,
      "Ġmand": 7383,
      "erals": 7384,
      "Ġlame": 7385,
      "Ġstd": 7386,
      "Ġfallen": 7387,
      "Ġpunishment": 7388,
      "Ġwaving": 7389,
      "Ġflashlight": 7390,
      "Ġipad": 7391,
      "Ġintolerant": 7392,
      "list": 7393,
      "Ġpony": 7394,
      "Ġjill": 7395,
      "ament": 7396,
      "Ġpercent": 7397,
      "Ġwalker": 7398,
      "Ġvanilla": 7399,
      "Ġattorney": 7400,
      "bes": 7401,
      "Ġdang": 7402,
      "Ġhub": 7403,
      "Ġumm": 7404,
      "Ġfruits": 7405,
      "Ġsiri": 7406,
      "Ġmoron": 7407,
      "Ġreports": 7408,
      "Ġsucceed": 7409,
      "Ġshepherd": 7410,
      "Ġtrousers": 7411,
      "sight": 7412,
      "Ġaid": 7413,
      "see": 7414,
      "weight": 7415,
      "Ġsmack": 7416,
      "Ġassoc": 7417,
      "iw": 7418,
      "oys": 7419,
      "onge": 7420,
      "Ġeli": 7421,
      "Ġstones": 7422,
      "Ġsober": 7423,
      "umes": 7424,
      "Ġwiped": 7425,
      "Ġrobert": 7426,
      "ucker": 7427,
      "Ġcocon": 7428,
      "Ġadmin": 7429,
      "Ġindeed": 7430,
      "Ġlabel": 7431,
      "Ġdetector": 7432,
      "Ġintelligence": 7433,
      "Ġhouston": 7434,
      "Ġdracula": 7435,
      "ua": 7436,
      "Ġlane": 7437,
      "umbs": 7438,
      "Ġfrown": 7439,
      "Ġintri": 7440,
      "Ġlew": 7441,
      "Ġlovers": 7442,
      "Ġafghan": 7443,
      "Ġreserv": 7444,
      "Ġeyel": 7445,
      "Ġjewel": 7446,
      "Ġslog": 7447,
      "Ġinvite": 7448,
      "occh": 7449,
      "Ġtransport": 7450,
      "Ġdealers": 7451,
      "Ġregard": 7452,
      "Ġholidays": 7453,
      "Ġpretending": 7454,
      "Ġveteran": 7455,
      "Ġbeep": 7456,
      "Ġrou": 7457,
      "Ġpoet": 7458,
      "Ġcrabs": 7459,
      "Ġprofession": 7460,
      "Ġporpo": 7461,
      "Ġdrums": 7462,
      "Ġchernobyl": 7463,
      "Ġequipment": 7464,
      "por": 7465,
      "Ġanonym": 7466,
      "Ġwendy": 7467,
      "Ġbarrel": 7468,
      "Ġaware": 7469,
      "Ġabraham": 7470,
      "xed": 7471,
      "Ġbusty": 7472,
      "Ġwasted": 7473,
      "rogen": 7474,
      "antically": 7475,
      "Ġblur": 7476,
      "Ġprint": 7477,
      "Ġpauses": 7478,
      "Ġsalty": 7479,
      "Ġwinner": 7480,
      "obic": 7481,
      "Ġfailure": 7482,
      "Ġreplaced": 7483,
      "Ġdestroyed": 7484,
      "Ġeternal": 7485,
      "Ġmeteor": 7486,
      "Ġbaking": 7487,
      "itation": 7488,
      "Ġpew": 7489,
      "Ġorgy": 7490,
      "Ġdrill": 7491,
      "Ġpolite": 7492,
      "Ġstew": 7493,
      "Ġsteam": 7494,
      "Ġenjoyed": 7495,
      "Ġmotion": 7496,
      "Ġviolent": 7497,
      "Ġunusual": 7498,
      "hy": 7499,
      "kins": 7500,
      "xic": 7501,
      "Ġcia": 7502,
      "Ġgest": 7503,
      "Ġinit": 7504,
      "Ġspain": 7505,
      "Ġclue": 7506,
      "Ġaged": 7507,
      "Ġminnie": 7508,
      "Ġpaw": 7509,
      "Ġpenn": 7510,
      "Ġswift": 7511,
      "Ġhardware": 7512,
      "Ġkinderg": 7513,
      "Ġexpress": 7514,
      "Ġremoves": 7515,
      "Ġblender": 7516,
      "Ġstatement": 7517,
      "Ġexcitedly": 7518,
      "knock": 7519,
      "Ġethiopian": 7520,
      "Ġagnostic": 7521,
      "Ġtys": 7522,
      "Ġgord": 7523,
      "Ġgoof": 7524,
      "Ġbeet": 7525,
      "Ġbells": 7526,
      "step": 7527,
      "Ġsele": 7528,
      "Ġbooth": 7529,
      "thy": 7530,
      "Ġsnakes": 7531,
      "Ġobese": 7532,
      "Ġxbox": 7533,
      "Ġfigures": 7534,
      "Ġsharing": 7535,
      "Ġtampons": 7536,
      "Ġikea": 7537,
      "iar": 7538,
      "Ġreun": 7539,
      "Ġanth": 7540,
      "Ġhandy": 7541,
      "Ġmug": 7542,
      "Ġrealizing": 7543,
      "Ġentertain": 7544,
      "Ġfires": 7545,
      "Ġboxer": 7546,
      "Ġjuli": 7547,
      "Ġdisturb": 7548,
      "Ġsharks": 7549,
      "Ġadmitted": 7550,
      "Ġdemanded": 7551,
      "Ġrelief": 7552,
      "Ġimmigrants": 7553,
      "mission": 7554,
      "aii": 7555,
      "yr": 7556,
      "anes": 7557,
      "Ġhal": 7558,
      "Ġhaun": 7559,
      "Ġprices": 7560,
      "Ġnights": 7561,
      "zerland": 7562,
      "Ġparticularly": 7563,
      "Ġhamburger": 7564,
      "bal": 7565,
      "rete": 7566,
      "Ġpipe": 7567,
      "...": 7568,
      "Ġadults": 7569,
      "Ġcolleague": 7570,
      "Ġnursing": 7571,
      "Ġcentury": 7572,
      "Ġspecific": 7573,
      "Ġrecognize": 7574,
      "Ġdetermin": 7575,
      "Ġinfinite": 7576,
      "Ġbieber": 7577,
      "bird": 7578,
      "mine": 7579,
      "oly": 7580,
      "zzy": 7581,
      "Ġpets": 7582,
      "arter": 7583,
      "Ġnach": 7584,
      "Ġstutter": 7585,
      "Ġaston": 7586,
      "Ġfinnish": 7587,
      "Ġtriangle": 7588,
      "Ġfloats": 7589,
      "obile": 7590,
      "Ġkingdom": 7591,
      "Ġclimate": 7592,
      "Ġdemocrat": 7593,
      "Ġstoner": 7594,
      "Ġeyebrows": 7595,
      "uals": 7596,
      "Ġmoose": 7597,
      "Ġgn": 7598,
      "arians": 7599,
      "eted": 7600,
      "Ġmeals": 7601,
      "Ġfrantically": 7602,
      "Ġleather": 7603,
      "Ġalert": 7604,
      "aph": 7605,
      "Ġaggress": 7606,
      "Ġspelled": 7607,
      "Ġswiss": 7608,
      "Ġgluten": 7609,
      "Ġsmallest": 7610,
      "Ġsigned": 7611,
      "parent": 7612,
      "Ġtherapy": 7613,
      "Ġpianist": 7614,
      "Ġtattooed": 7615,
      "Ġpronounced": 7616,
      "ograph": 7617,
      "Ġnudist": 7618,
      "Ġtrailer": 7619,
      "Ġnecrophiliac": 7620,
      "Ġintrigu": 7621,
      "cs": 7622,
      "hib": 7623,
      "now": 7624,
      "Ġcin": 7625,
      "owl": 7626,
      "Ġanne": 7627,
      "Ġcrusty": 7628,
      "Ġschiz": 7629,
      "Ġcowboys": 7630,
      "Ġplanned": 7631,
      "Ġrocket": 7632,
      "ophren": 7633,
      "Ġprocla": 7634,
      "Ġjanitor": 7635,
      "Ġswitzerland": 7636,
      "cr": 7637,
      "long": 7638,
      "Ġtide": 7639,
      "Ġstain": 7640,
      "essary": 7641,
      "Ġproced": 7642,
      "Ġcarried": 7643,
      "Ġzone": 7644,
      "Ġelbow": 7645,
      "Ġsolar": 7646,
      "Ġinventor": 7647,
      "Ġpreparing": 7648,
      "Ġwrapped": 7649,
      "ribly": 7650,
      "Ġtyson": 7651,
      "ety": 7652,
      "vember": 7653,
      "Ġelf": 7654,
      "Ġjk": 7655,
      "Ġcaller": 7656,
      "ulk": 7657,
      "Ġfinest": 7658,
      "Ġfighter": 7659,
      "Ġlanding": 7660,
      "jected": 7661,
      "Ġtailor": 7662,
      "Ġmulti": 7663,
      "Ġpurpose": 7664,
      "Ġoranges": 7665,
      "Ġgathered": 7666,
      "win": 7667,
      "Ġtons": 7668,
      "Ġtires": 7669,
      "inct": 7670,
      "Ġlaced": 7671,
      "Ġeager": 7672,
      "Ġsteven": 7673,
      "ibility": 7674,
      "Ġfloating": 7675,
      "Ġracism": 7676,
      "Ġordering": 7677,
      "Ġrevolution": 7678,
      "Ġeconomy": 7679,
      "Ġtheat": 7680,
      "Ġdv": 7681,
      "erved": 7682,
      "Ġguts": 7683,
      "Ġbends": 7684,
      "Ġneil": 7685,
      "Ġrack": 7686,
      "Ġtoddler": 7687,
      "Ġklept": 7688,
      "cers": 7689,
      "cour": 7690,
      "Ġyan": 7691,
      "Ġing": 7692,
      "Ġjay": 7693,
      "Ġkaren": 7694,
      "Ġseiz": 7695,
      "Ġrav": 7696,
      "Ġpeach": 7697,
      "Ġshowers": 7698,
      "Ġhardly": 7699,
      "Ġcausing": 7700,
      "Ġearthqu": 7701,
      "Ġnurses": 7702,
      "Ġtoothp": 7703,
      "Ġscarecrow": 7704,
      "Ġvasectomy": 7705,
      "Ġfocus": 7706,
      "Ġslogan": 7707,
      "real": 7708,
      "Ġsequ": 7709,
      "Ġsponge": 7710,
      "Ġconvert": 7711,
      "Ġsmarter": 7712,
      "Ġbroc": 7713,
      "Ġsneeze": 7714,
      "ickers": 7715,
      "Ġsmash": 7716,
      "Ġpence": 7717,
      "Ġsmoked": 7718,
      "Ġcreating": 7719,
      "Ġdudes": 7720,
      "etes": 7721,
      "Ġital": 7722,
      "Ġbeaver": 7723,
      "aman": 7724,
      "store": 7725,
      "Ġboiling": 7726,
      "Ġplug": 7727,
      "Ġperhaps": 7728,
      "coli": 7729,
      "psy": 7730,
      "sole": 7731,
      "Ġiceberg": 7732,
      "Ġevents": 7733,
      "Ġnickname": 7734,
      "Ġstrawberry": 7735,
      "Ġgrenade": 7736,
      "orant": 7737,
      "Ġnom": 7738,
      "Ġnint": 7739,
      "iding": 7740,
      "Ġseas": 7741,
      "Ġdevice": 7742,
      "Ġyeast": 7743,
      "Ġadolf": 7744,
      "Ġsteals": 7745,
      "Ġthroughout": 7746,
      "Ġskunk": 7747,
      "Ġconfusion": 7748,
      "Ġmustard": 7749,
      "Ġmagical": 7750,
      "rolog": 7751,
      "Ġhipsters": 7752,
      "Ġconvinced": 7753,
      "girlfriend": 7754,
      "Ġcrustace": 7755,
      "Ġintrigued": 7756,
      "bles": 7757,
      "ipper": 7758,
      "pg": 7759,
      "arant": 7760,
      "Ġreven": 7761,
      "Ġkinky": 7762,
      "Ġnovember": 7763,
      "Ġschools": 7764,
      "Ġterminal": 7765,
      "Ġnaan": 7766,
      "Ġcastle": 7767,
      "Ġceremony": 7768,
      "Ġvietnamese": 7769,
      "Ġkindergart": 7770,
      "fire": 7771,
      "Ġll": 7772,
      "Ġcad": 7773,
      "Ġthie": 7774,
      "Ġoverd": 7775,
      "Ġcarbon": 7776,
      "ounts": 7777,
      "ansas": 7778,
      "Ġplayground": 7779,
      "Ġturtles": 7780,
      "Ġvideos": 7781,
      "Ġsuggests": 7782,
      "ylum": 7783,
      "Ġmentioned": 7784,
      "Ġgloves": 7785,
      "Ġbend": 7786,
      "Ġstan": 7787,
      "Ġkl": 7788,
      "iled": 7789,
      "Ġmini": 7790,
      "Ġmassage": 7791,
      "Ġcollap": 7792,
      "Ġbranch": 7793,
      "Ġjehovah": 7794,
      "Ġschizophren": 7795,
      "Ġfond": 7796,
      "Ġpul": 7797,
      "Ġgap": 7798,
      "Ġupper": 7799,
      "Ġdonuts": 7800,
      "Ġpod": 7801,
      "Ġmarks": 7802,
      "Ġneedless": 7803,
      "aze": 7804,
      "Ġsentences": 7805,
      "Ġtoilets": 7806,
      "Ġcrimin": 7807,
      "Ġtechnically": 7808,
      "Ġrhino": 7809,
      "Ġdetails": 7810,
      "Ġphilosophy": 7811,
      "pen": 7812,
      "Ġbeast": 7813,
      "stal": 7814,
      "epend": 7815,
      "Ġnewborn": 7816,
      "Ġincest": 7817,
      "Ġstrikes": 7818,
      "Ġdiscussion": 7819,
      "Ġshakespe": 7820,
      "Ġmansion": 7821,
      "Ġcreepy": 7822,
      "Ġgoddamn": 7823,
      "Ġanus": 7824,
      "ffle": 7825,
      "Ġgroups": 7826,
      "Ġcurry": 7827,
      "Ġgroceries": 7828,
      "Ġtelephone": 7829,
      "Ġvolume": 7830,
      "Ġwaved": 7831,
      "Ġjamaica": 7832,
      "Ġconspiracy": 7833,
      "course": 7834,
      "Ġmaker": 7835,
      "Ġscan": 7836,
      "Ġchains": 7837,
      "Ġmatthe": 7838,
      "Ġcafe": 7839,
      "Ġhiv": 7840,
      "Ġraising": 7841,
      "Ġtouches": 7842,
      "Ġhawaii": 7843,
      "Ġstumbles": 7844,
      "bit": 7845,
      "Ġwhoops": 7846,
      "Ġasylum": 7847,
      "Ġseated": 7848,
      "Ġkidney": 7849,
      "Ġskip": 7850,
      "Ġlarry": 7851,
      "Ġlocation": 7852,
      "Ġengineering": 7853,
      "Ġcatching": 7854,
      "Ġlouis": 7855,
      "Ġcabinet": 7856,
      "Ġatl": 7857,
      "Ġanytime": 7858,
      "pee": 7859,
      "Ġstarving": 7860,
      "Ġraces": 7861,
      "Ġchoking": 7862,
      "Ġspoiler": 7863,
      "Ġmotherfucker": 7864,
      "Ġretirement": 7865,
      "aid": 7866,
      "Ġgoose": 7867,
      "Ġbye": 7868,
      "Ġkelly": 7869,
      "Ġpatty": 7870,
      "Ġbrave": 7871,
      "Ġrubbed": 7872,
      "Ġadvertise": 7873,
      "Ġguests": 7874,
      "Ġwilliam": 7875,
      "Ġmermaid": 7876,
      "Ġrepresent": 7877,
      "Ġchicago": 7878,
      "Ġanonymous": 7879,
      "eds": 7880,
      "Ġbutth": 7881,
      "Ġvat": 7882,
      "Ġmoms": 7883,
      "Ġswims": 7884,
      "Ġterms": 7885,
      "Ġfloat": 7886,
      "ushi": 7887,
      "Ġfuel": 7888,
      "Ġcracked": 7889,
      "Ġsuicidal": 7890,
      "Ġcourage": 7891,
      "Ġfalse": 7892,
      "ris": 7893,
      "Ġwhit": 7894,
      "Ġlions": 7895,
      "Ġdonut": 7896,
      "rency": 7897,
      "Ġexit": 7898,
      "Ġconsole": 7899,
      "Ġholly": 7900,
      "Ġpatron": 7901,
      "Ġurge": 7902,
      "Ġaccepted": 7903,
      "Ġspecies": 7904,
      "Ġexplosion": 7905,
      "got": 7906,
      "rels": 7907,
      "Ġgand": 7908,
      "opath": 7909,
      "Ġsuffe": 7910,
      "apers": 7911,
      "Ġflush": 7912,
      "Ġpho": 7913,
      "Ġanswering": 7914,
      "Ġearn": 7915,
      "Ġwarri": 7916,
      "Ġwhack": 7917,
      "Ġtoothbrush": 7918,
      "Ġdisappears": 7919,
      "Ġparticip": 7920,
      "Ġupdate": 7921,
      "Ġspilled": 7922,
      "Ġgoofy": 7923,
      "tt": 7924,
      "Ġfab": 7925,
      "Ġea": 7926,
      "Ġruff": 7927,
      "Ġresume": 7928,
      "Ġbiting": 7929,
      "Ġpatri": 7930,
      "Ġbragging": 7931,
      "laws": 7932,
      "Ġshorts": 7933,
      "Ġburgers": 7934,
      "Ġeric": 7935,
      "Ġlipstick": 7936,
      "Ġelementary": 7937,
      "Ġcandidate": 7938,
      "Ġstrangers": 7939,
      "Ġalaska": 7940,
      "Ġbroccoli": 7941,
      "cis": 7942,
      "Ġpard": 7943,
      "Ġpages": 7944,
      "rier": 7945,
      "imum": 7946,
      "Ġdiana": 7947,
      "Ġwomb": 7948,
      "osure": 7949,
      "Ġattitude": 7950,
      "Ġclassroom": 7951,
      "Ġshopkeeper": 7952,
      "Ġsupporters": 7953,
      "Ġwhisky": 7954,
      "Ġmachines": 7955,
      "eyed": 7956,
      "while": 7957,
      "Ġimmigrant": 7958,
      "Ġrecruit": 7959,
      "test": 7960,
      "va": 7961,
      "Ġdor": 7962,
      "Ġjoker": 7963,
      "dder": 7964,
      "Ġfinan": 7965,
      "Ġranch": 7966,
      "Ġtransplant": 7967,
      "Ġwarming": 7968,
      "Ġmelon": 7969,
      "Ġlogic": 7970,
      "Ġsighed": 7971,
      "Ġarthur": 7972,
      "Ġnintendo": 7973,
      "rant": 7974,
      "tail": 7975,
      "Ġtheft": 7976,
      "Ġlg": 7977,
      "olar": 7978,
      "Ġvit": 7979,
      "ittens": 7980,
      "Ġpolitely": 7981,
      "Ġlax": 7982,
      "Ġpainful": 7983,
      "Ġgolfing": 7984,
      "Ġcorrectly": 7985,
      "Ġshakespeare": 7986,
      "rem": 7987,
      "Ġcau": 7988,
      "Ġconce": 7989,
      "Ġmates": 7990,
      "Ġgays": 7991,
      "azz": 7992,
      "Ġnaming": 7993,
      "Ġtypo": 7994,
      "Ġcaps": 7995,
      "Ġcleaned": 7996,
      "Ġhopefully": 7997,
      "Ġexpression": 7998,
      "Ġleading": 7999,
      "Ġkisses": 8000,
      "Ġprotection": 8001,
      "Ġrobbery": 8002,
      "Ġemotional": 8003,
      "Ġcrustacean": 8004,
      "die": 8005,
      "nut": 8006,
      "run": 8007,
      "uah": 8008,
      "Ġflex": 8009,
      "ressing": 8010,
      "Ġhorrified": 8011,
      "Ġsteward": 8012,
      "Ġ2017": 8013,
      "Ġsweetie": 8014,
      "Ġadvent": 8015,
      "Ġwealthy": 8016,
      "hammad": 8017,
      "Ġmormon": 8018,
      "Ġcriminals": 8019,
      "auts": 8020,
      "iate": 8021,
      "Ġhedge": 8022,
      "Ġstorms": 8023,
      "Ġkong": 8024,
      "Ġsheets": 8025,
      "ucky": 8026,
      "ological": 8027,
      "Ġfrost": 8028,
      "Ġcripp": 8029,
      "Ġcups": 8030,
      "Ġarabia": 8031,
      "Ġperplex": 8032,
      "Ġgordon": 8033,
      "cure": 8034,
      "non": 8035,
      "Ġyouth": 8036,
      "Ġreinde": 8037,
      "Ġthom": 8038,
      "Ġscal": 8039,
      "Ġquote": 8040,
      "Ġdoggy": 8041,
      "onto": 8042,
      "Ġtrips": 8043,
      "Ġhighly": 8044,
      "Ġsinned": 8045,
      "Ġwarned": 8046,
      "Ġspends": 8047,
      "Ġinnocent": 8048,
      "Ġmatthew": 8049,
      "gor": 8050,
      "ule": 8051,
      "Ġpik": 8052,
      "Ġhil": 8053,
      "add": 8054,
      "Ġmelt": 8055,
      "Ġheadphones": 8056,
      "Ġbabys": 8057,
      "Ġ400": 8058,
      "Ġrealise": 8059,
      "Ġlimo": 8060,
      "Ġrequired": 8061,
      "Ġspoken": 8062,
      "Ġheroin": 8063,
      "Ġkidnapped": 8064,
      "Ġinsect": 8065,
      "Ġerectile": 8066,
      "Ġnodded": 8067,
      "Ġporcupine": 8068,
      "bid": 8069,
      "Ġtut": 8070,
      "care": 8071,
      "Ġplag": 8072,
      "Ġaffect": 8073,
      "Ġpoly": 8074,
      "Ġharm": 8075,
      "Ġbrew": 8076,
      "Ġtrumps": 8077,
      "eee": 8078,
      "Ġreco": 8079,
      "Ġchuckle": 8080,
      "Ġpalm": 8081,
      "Ġeffective": 8082,
      "Ġjourney": 8083,
      "hold": 8084,
      "pro": 8085,
      "Ġding": 8086,
      "any": 8087,
      "Ġclo": 8088,
      "Ġcocks": 8089,
      "Ġpoked": 8090,
      "Ġholl": 8091,
      "Ġunderwater": 8092,
      "Ġbrake": 8093,
      "Ġfoods": 8094,
      "Ġincident": 8095,
      "ractor": 8096,
      "Ġgrizz": 8097,
      "Ġwhores": 8098,
      "Ġaltar": 8099,
      "Ġnarc": 8100,
      "Ġeskimo": 8101,
      "Ġtone": 8102,
      "Ġfid": 8103,
      "Ġpter": 8104,
      "Ġpints": 8105,
      "Ġstor": 8106,
      "Ġcheaper": 8107,
      "Ġprick": 8108,
      "Ġrescue": 8109,
      "Ġyoungest": 8110,
      "Ġrequire": 8111,
      "Ġcelebrity": 8112,
      "Ġepstein": 8113,
      "flage": 8114,
      "Ġimplants": 8115,
      "hile": 8116,
      "Ġtss": 8117,
      "Ġtune": 8118,
      "inks": 8119,
      "Ġink": 8120,
      "Ġthri": 8121,
      "Ġsting": 8122,
      "Ġkg": 8123,
      "Ġbobby": 8124,
      "Ġwipes": 8125,
      "Ġspaces": 8126,
      "achu": 8127,
      "Ġmonica": 8128,
      "Ġemine": 8129,
      "Ġindepend": 8130,
      "Ġcheesebur": 8131,
      "Ġattracted": 8132,
      "Ġtravelling": 8133,
      "ihuah": 8134,
      "Ġweapons": 8135,
      "Ġconclusion": 8136,
      "Ġflavor": 8137,
      "Ġswedish": 8138,
      "Ġwatermelon": 8139,
      "Ġproctologist": 8140,
      "loo": 8141,
      "Ġpaed": 8142,
      "Ġtermin": 8143,
      "Ġentr": 8144,
      "Ġincorrect": 8145,
      "fficient": 8146,
      "Ġmerry": 8147,
      "Ġbalcon": 8148,
      "Ġnerd": 8149,
      "ufact": 8150,
      "mill": 8151,
      "oons": 8152,
      "Ġgin": 8153,
      "Ġstair": 8154,
      "Ġguarant": 8155,
      "Ġvoted": 8156,
      "igs": 8157,
      "Ġprec": 8158,
      "Ġflaming": 8159,
      "Ġdrunken": 8160,
      "Ġscares": 8161,
      "Ġdiscount": 8162,
      "Ġcreature": 8163,
      "Ġobsession": 8164,
      "Ġdefeat": 8165,
      "Ġmanagement": 8166,
      "Ġjewelry": 8167,
      "'...": 8168,
      "hd": 8169,
      "Ġsushi": 8170,
      "Ġree": 8171,
      "Ġmanufact": 8172,
      "cho": 8173,
      "Ġshri": 8174,
      "iland": 8175,
      "Ġleper": 8176,
      "Ġwilly": 8177,
      "Ġwayne": 8178,
      "Ġchances": 8179,
      "inson": 8180,
      "Ġtomb": 8181,
      "Ġbuildings": 8182,
      "Ġcorny": 8183,
      "Ġexplan": 8184,
      "Ġperiods": 8185,
      "Ġsuitcase": 8186,
      "Ġjersey": 8187,
      "Ġruler": 8188,
      "free": 8189,
      "your": 8190,
      "Ġmumb": 8191,
      "ona": 8192,
      "Ġpand": 8193,
      "Ġuber": 8194,
      "lips": 8195,
      "ava": 8196,
      "Ġfucker": 8197,
      "Ġeleven": 8198,
      "Ġskill": 8199,
      "Ġhomoph": 8200,
      "Ġquarant": 8201,
      "Ġbomber": 8202,
      "Ġfest": 8203,
      "Ġhulk": 8204,
      "oses": 8205,
      "Ġpaws": 8206,
      "Ġremembers": 8207,
      "obia": 8208,
      "Ġporno": 8209,
      "Ġpoorly": 8210,
      "ugged": 8211,
      "Ġrednecks": 8212,
      "Ġmushrooms": 8213,
      "Ġperplexed": 8214,
      "nic": 8215,
      "Ġwes": 8216,
      "Ġmph": 8217,
      "Ġwhips": 8218,
      "Ġdip": 8219,
      "Ġscent": 8220,
      "Ġengage": 8221,
      "Ġconfuse": 8222,
      "Ġsandy": 8223,
      "Ġannual": 8224,
      "Ġbikes": 8225,
      "Ġtrained": 8226,
      "chers": 8227,
      "Ġhistor": 8228,
      "Ġvictor": 8229,
      "Ġreminds": 8230,
      "works": 8231,
      "Ġsearched": 8232,
      "Ġreindeer": 8233,
      "Ġbalcony": 8234,
      "Ġfright": 8235,
      "llll": 8236,
      "enced": 8237,
      "Ġjaw": 8238,
      "Ġkicking": 8239,
      "Ġshaped": 8240,
      "Ġentering": 8241,
      "Ġinsisted": 8242,
      "Ġsignal": 8243,
      "Ġapparent": 8244,
      "Ġcounsel": 8245,
      "Ġsecretly": 8246,
      "Ġmiracle": 8247,
      "Ġclimbed": 8248,
      "Ġfacing": 8249,
      "Ġsemi": 8250,
      "cop": 8251,
      "lar": 8252,
      "ucks": 8253,
      "Ġinju": 8254,
      "Ġreaching": 8255,
      "chw": 8256,
      "Ġtee": 8257,
      "Ġvine": 8258,
      "Ġbooty": 8259,
      "Ġsexist": 8260,
      "Ġheadlines": 8261,
      "Ġserves": 8262,
      "Ġclasses": 8263,
      "approp": 8264,
      "Ġscrewing": 8265,
      "Ġmessed": 8266,
      "Ġdebt": 8267,
      "Ġcycle": 8268,
      "Ġsleeve": 8269,
      "Ġfrancis": 8270,
      "Ġappropriate": 8271,
      "Ġkindergarten": 8272,
      "pat": 8273,
      "that": 8274,
      "Ġcube": 8275,
      "Ġshown": 8276,
      "Ġfris": 8277,
      "Ġarcha": 8278,
      "mele": 8279,
      "Ġcalories": 8280,
      "Ġmemes": 8281,
      "Ġclubs": 8282,
      "Ġ199": 8283,
      "Ġcamou": 8284,
      "Ġocd": 8285,
      "Ġdublin": 8286,
      "ara": 8287,
      "usive": 8288,
      "Ġdock": 8289,
      "adays": 8290,
      "rain": 8291,
      "umer": 8292,
      "wayne": 8293,
      "Ġunw": 8294,
      "Ġbitter": 8295,
      "Ġsketch": 8296,
      "onnaise": 8297,
      "Ġawhile": 8298,
      "Ġfores": 8299,
      "Ġrides": 8300,
      "Ġturd": 8301,
      "Ġalike": 8302,
      "Ġobjects": 8303,
      "Ġincluding": 8304,
      "Ġalternative": 8305,
      "Ġconservative": 8306,
      "66": 8307,
      "nt": 8308,
      "had": 8309,
      "Ġny": 8310,
      "Ġrage": 8311,
      "opoly": 8312,
      "Ġunlike": 8313,
      "Ġnowadays": 8314,
      "berries": 8315,
      "Ġprank": 8316,
      "Ġswam": 8317,
      "Ġlegend": 8318,
      "Ġchristopher": 8319,
      "Ġpinocch": 8320,
      "Ġthailand": 8321,
      "Ġstatistics": 8322,
      "Ġoptimist": 8323,
      "Ġexecutioner": 8324,
      "Ġcoconut": 8325,
      "stra": 8326,
      "umed": 8327,
      "Ġintro": 8328,
      "Ġoffering": 8329,
      "Ġfungi": 8330,
      "Ġcattle": 8331,
      "Ġunderstanding": 8332,
      "Ġfund": 8333,
      "Ġsunb": 8334,
      "Ġpilots": 8335,
      "Ġexamination": 8336,
      "Ġsusie": 8337,
      "Ġescal": 8338,
      "Ġcunts": 8339,
      "Ġroutine": 8340,
      "Ġprocedure": 8341,
      "Ġnons": 8342,
      "cel": 8343,
      "Ġlepre": 8344,
      "Ġflop": 8345,
      "Ġmayonnaise": 8346,
      "Ġsupper": 8347,
      "Ġboxing": 8348,
      "Ġracing": 8349,
      "Ġselfie": 8350,
      "Ġoptions": 8351,
      "Ġ!'\"": 8352,
      "Ġreminded": 8353,
      "Ġastronauts": 8354,
      "Ġisraeli": 8355,
      "Ġgranny": 8356,
      "Ġfiance": 8357,
      "Ġitalians": 8358,
      "bus": 8359,
      "bac": 8360,
      "Ġts": 8361,
      "Ġtask": 8362,
      "Ġdolls": 8363,
      "unte": 8364,
      "Ġfry": 8365,
      "Ġvic": 8366,
      "osit": 8367,
      "Ġhandjob": 8368,
      "Ġacqu": 8369,
      "gggg": 8370,
      "Ġmint": 8371,
      "ogue": 8372,
      "Ġmatches": 8373,
      "Ġpunct": 8374,
      "Ġreposted": 8375,
      "Ġchairs": 8376,
      "Ġgrasshop": 8377,
      "Ġexistence": 8378,
      "Ġinformed": 8379,
      "Ġhaunted": 8380,
      "ea": 8381,
      "fav": 8382,
      "Ġdal": 8383,
      "Ġgim": 8384,
      "Ġooh": 8385,
      "Ġhail": 8386,
      "ulting": 8387,
      "Ġrobb": 8388,
      "Ġcongreg": 8389,
      "Ġbarking": 8390,
      "Ġmoz": 8391,
      "Ġflour": 8392,
      "Ġchamele": 8393,
      "Ġbrag": 8394,
      "Ġvirgins": 8395,
      "Ġgeese": 8396,
      "ikh": 8397,
      "Ġstruggle": 8398,
      "Ġflorist": 8399,
      "----------------": 8400,
      "Ġdictator": 8401,
      "Ġeminem": 8402,
      "Ġpinocchio": 8403,
      "vv": 8404,
      "Ġahh": 8405,
      "Ġlun": 8406,
      "abl": 8407,
      "Ġtrou": 8408,
      "Ġscri": 8409,
      "Ġ31": 8410,
      "Ġmayor": 8411,
      "Ġbiologist": 8412,
      "Ġsticker": 8413,
      "Ġbleeding": 8414,
      "nnnn": 8415,
      "ippi": 8416,
      "Ġelectrical": 8417,
      "Ġhmmm": 8418,
      "Ġstretch": 8419,
      "Ġconcrete": 8420,
      "Ġinjuries": 8421,
      "oli": 8422,
      "Ġcorr": 8423,
      "Ġinapprop": 8424,
      "Ġashes": 8425,
      "lipse": 8426,
      "Ġactive": 8427,
      "oyd": 8428,
      "lings": 8429,
      "Ġ85": 8430,
      "Ġindec": 8431,
      "Ġpaste": 8432,
      "Ġtested": 8433,
      "char": 8434,
      "Ġmanages": 8435,
      "Ġgrill": 8436,
      "Ġsafely": 8437,
      "Ġenemies": 8438,
      "Ġrelieved": 8439,
      "Ġyu": 8440,
      "itis": 8441,
      "Ġjac": 8442,
      "amas": 8443,
      "Ġgrind": 8444,
      "Ġimpe": 8445,
      "Ġ51": 8446,
      "Ġwrist": 8447,
      "Ġaww": 8448,
      "Ġfreaking": 8449,
      "osphere": 8450,
      "chaun": 8451,
      "Ġentirely": 8452,
      "Ġmirrors": 8453,
      "Ġsweetheart": 8454,
      "Ġperfume": 8455,
      "Ġcrawling": 8456,
      "Ġarchae": 8457,
      "fk": 8458,
      "Ġstink": 8459,
      "Ġkat": 8460,
      "ilities": 8461,
      "Ġalot": 8462,
      "Ġowns": 8463,
      "Ġconfront": 8464,
      "odact": 8465,
      "Ġinsist": 8466,
      "Ġrestaurants": 8467,
      "Ġmiser": 8468,
      "Ġtools": 8469,
      "Ġblacksmith": 8470,
      "Ġkardashian": 8471,
      "Ġsuffered": 8472,
      "Ġexplanation": 8473,
      "Ġsank": 8474,
      "Ġ\"'": 8475,
      "Ġpix": 8476,
      "Ġpimp": 8477,
      "ads": 8478,
      "Ġkkk": 8479,
      "Ġpros": 8480,
      "Ġbackpack": 8481,
      "Ġusers": 8482,
      "Ġharvey": 8483,
      "Ġchased": 8484,
      "Ġinvention": 8485,
      "Ġimpression": 8486,
      "Ġsinks": 8487,
      "Ġeasiest": 8488,
      "Ġdaisy": 8489,
      "Ġgoog": 8490,
      "Ġvolunte": 8491,
      "Ġprotein": 8492,
      "Ġpeacefully": 8493,
      "Ġfifteen": 8494,
      "Ġemotion": 8495,
      "Ġearthquake": 8496,
      "Ġstewardess": 8497,
      "Ġaust": 8498,
      "Ġwank": 8499,
      "Ġfi": 8500,
      "atically": 8501,
      "icer": 8502,
      "ending": 8503,
      "Ġvom": 8504,
      "Ġflock": 8505,
      "Ġeyesight": 8506,
      "Ġhiking": 8507,
      "Ġreturning": 8508,
      "Ġ2019": 8509,
      "door": 8510,
      "Ġdomestic": 8511,
      "Ġliberal": 8512,
      "Ġaus": 8513,
      "rial": 8514,
      "Ġshorter": 8515,
      "Ġshih": 8516,
      "Ġaback": 8517,
      "Ġboats": 8518,
      "Ġcoal": 8519,
      "Ġcarol": 8520,
      "Ġminer": 8521,
      "Ġdecent": 8522,
      "Ġmonopoly": 8523,
      "Ġhorm": 8524,
      "Ġbros": 8525,
      "Ġconfusing": 8526,
      "Ġdental": 8527,
      "Ġtraveler": 8528,
      "Ġexploded": 8529,
      "Ġturb": 8530,
      "Ġwarden": 8531,
      "Ġreass": 8532,
      "Ġudder": 8533,
      "lio": 8534,
      "Ġflint": 8535,
      "Ġslim": 8536,
      "Ġparlor": 8537,
      "Ġtrigger": 8538,
      "Ġsque": 8539,
      "Ġapproaching": 8540,
      "Ġcracker": 8541,
      "Ġphotograp": 8542,
      "known": 8543,
      "Ġfantasy": 8544,
      "Ġimpressive": 8545,
      "Ġsavings": 8546,
      "Ġshades": 8547,
      "Ġshelter": 8548,
      "Ġpterodact": 8549,
      "dri": 8550,
      "Ġsib": 8551,
      "Ġanna": 8552,
      "Ġkent": 8553,
      "Ġweasel": 8554,
      "Ġrolex": 8555,
      "Ġtheme": 8556,
      "Ġoverweight": 8557,
      "Ġlistened": 8558,
      "Ġsolved": 8559,
      "Ġclaimed": 8560,
      "Ġcandles": 8561,
      "Ġperforming": 8562,
      "Ġeclipse": 8563,
      "Ġbenefits": 8564,
      "Ġpardon": 8565,
      "Ġlgbt": 8566,
      "gent": 8567,
      "pting": 8568,
      "Ġive": 8569,
      "Ġdand": 8570,
      "Ġfck": 8571,
      "Ġlump": 8572,
      "Ġraz": 8573,
      "gered": 8574,
      "Ġarrow": 8575,
      "Ġheadline": 8576,
      "Ġcrick": 8577,
      "Ġsadd": 8578,
      "Ġprogrammers": 8579,
      "Ġsixt": 8580,
      "Ġwoah": 8581,
      "Ġcheeks": 8582,
      "Ġneutr": 8583,
      "Ġswitched": 8584,
      "Ġactivity": 8585,
      "Ġassassin": 8586,
      "Ġcabbage": 8587,
      "Ġdisagree": 8588,
      "pool": 8589,
      "zan": 8590,
      "Ġfen": 8591,
      "icap": 8592,
      "Ġusain": 8593,
      "ookie": 8594,
      "Ġ65": 8595,
      "teen": 8596,
      "Ġinsp": 8597,
      "lov": 8598,
      "Ġneighbours": 8599,
      "Ġwwii": 8600,
      "Ġbeyond": 8601,
      "Ġoriginally": 8602,
      "Ġcamouflage": 8603,
      "Ġdwayne": 8604,
      "Ġyah": 8605,
      "Ġleon": 8606,
      "orts": 8607,
      "Ġmarvel": 8608,
      "Ġstandards": 8609,
      "Ġbelieved": 8610,
      "Ġhallway": 8611,
      "Ġrequests": 8612,
      "why": 8613,
      "Ġdelete": 8614,
      "Ġmusicians": 8615,
      "Ġconnection": 8616,
      "Ġatmosphere": 8617,
      "Ġsympt": 8618,
      "Ġrevenge": 8619,
      "Ġnonsense": 8620,
      "Ġleprechaun": 8621,
      "Ġgrasshopper": 8622,
      "upt": 8623,
      "Ġtay": 8624,
      "Ġtaps": 8625,
      "Ġauss": 8626,
      "Ġii": 8627,
      "Ġmute": 8628,
      "Ġmmm": 8629,
      "Ġoak": 8630,
      "Ġjur": 8631,
      "Ġwhey": 8632,
      "Ġunif": 8633,
      "Ġadele": 8634,
      "ifically": 8635,
      "Ġcounted": 8636,
      "Ġadds": 8637,
      "Ġheavily": 8638,
      "Ġbanker": 8639,
      "Ġprisoners": 8640,
      "Ġhidden": 8641,
      "Ġpearl": 8642,
      "Ġbouncer": 8643,
      "Ġclouds": 8644,
      "Ġprovide": 8645,
      "Ġpowder": 8646,
      "Ġkleptomaniac": 8647,
      "Ġpaedoph": 8648,
      "40": 8649,
      "lets": 8650,
      "tz": 8651,
      "Ġfought": 8652,
      "icorn": 8653,
      "Ġstump": 8654,
      "Ġwashed": 8655,
      "sexual": 8656,
      "Ġnotre": 8657,
      "Ġnoble": 8658,
      "Ġchihuah": 8659,
      "Ġwriter": 8660,
      "Ġcait": 8661,
      "Ġinsists": 8662,
      "Ġadding": 8663,
      "Ġmemor": 8664,
      "Ġcooler": 8665,
      "Ġhunger": 8666,
      "Ġgraveyard": 8667,
      "Ġparachutes": 8668,
      "bait": 8669,
      "Ġcollecting": 8670,
      "Ġjuggler": 8671,
      "Ġthieves": 8672,
      "Ġtumb": 8673,
      "happy": 8674,
      "Ġpacks": 8675,
      "Ġdoo": 8676,
      "Ġjpg": 8677,
      "epee": 8678,
      "Ġbrad": 8679,
      "Ġbrut": 8680,
      "Ġgraph": 8681,
      "athy": 8682,
      "Ġcrushed": 8683,
      "Ġsniper": 8684,
      "Ġowners": 8685,
      "Ġzipp": 8686,
      "Ġ72": 8687,
      "Ġsalary": 8688,
      "Ġcorpor": 8689,
      "Ġfingering": 8690,
      "Ġsmelled": 8691,
      "Ġbuttons": 8692,
      "Ġhomo": 8693,
      "Ġgardener": 8694,
      "nament": 8695,
      "Ġcunning": 8696,
      "Ġmuffins": 8697,
      "Ġfamiliar": 8698,
      "Ġmagazine": 8699,
      "Ġhysterically": 8700,
      "Ġporpoise": 8701,
      "Ġwil": 8702,
      "Ġkha": 8703,
      "Ġsomewhat": 8704,
      "Ġplates": 8705,
      "ishing": 8706,
      "aug": 8707,
      "Ġwherever": 8708,
      "Ġasses": 8709,
      "Ġrecipe": 8710,
      "Ġpleas": 8711,
      "Ġdesc": 8712,
      "Ġmeanwhile": 8713,
      "Ġbelieves": 8714,
      "Ġgear": 8715,
      "lette": 8716,
      "Ġbumped": 8717,
      "Ġchallenged": 8718,
      "Ġgiggles": 8719,
      "Ġfreudian": 8720,
      "Ġtrampoline": 8721,
      "Ġdetermined": 8722,
      "Ġsession": 8723,
      "Ġapplied": 8724,
      "Ġchristians": 8725,
      "Ġdrawn": 8726,
      "Ġdreamed": 8727,
      "Ġclause": 8728,
      "Ġprayers": 8729,
      "Ġhops": 8730,
      "Ġvarious": 8731,
      "Ġpuppies": 8732,
      "bot": 8733,
      "lot": 8734,
      "point": 8735,
      "town": 8736,
      "rely": 8737,
      "Ġcena": 8738,
      "erves": 8739,
      "Ġpors": 8740,
      "Ġorche": 8741,
      "Ġdownv": 8742,
      "Ġgray": 8743,
      "Ġimage": 8744,
      "issippi": 8745,
      "Ġshady": 8746,
      "Ġcheckout": 8747,
      "Ġreceives": 8748,
      "Ġpressing": 8749,
      "Ġcasino": 8750,
      "Ġbuns": 8751,
      "Ġodds": 8752,
      "Ġattempts": 8753,
      "Ġintroduced": 8754,
      "Ġinflu": 8755,
      "Ġcitizen": 8756,
      "Ġdaniel": 8757,
      "Ġmozart": 8758,
      "Ġfowl": 8759,
      "rion": 8760,
      "Ġfloyd": 8761,
      "Ġmaria": 8762,
      "Ġdisbelie": 8763,
      "ometrist": 8764,
      "Ġspect": 8765,
      "Ġeyed": 8766,
      "Ġpainter": 8767,
      "Ġinspir": 8768,
      "Ġdraft": 8769,
      "Ġphoton": 8770,
      "Ġcollar": 8771,
      "Ġgrades": 8772,
      "Ġupvote": 8773,
      "Ġebola": 8774,
      "Ġpessimist": 8775,
      "Ġpikachu": 8776,
      "Ġtube": 8777,
      "Ġyr": 8778,
      "Ġreprodu": 8779,
      "Ġbarista": 8780,
      "Ġscen": 8781,
      "Ġribb": 8782,
      "Ġhitch": 8783,
      "Ġstepping": 8784,
      "neath": 8785,
      "Ġmeter": 8786,
      "Ġlistens": 8787,
      "Ġmedal": 8788,
      "Ġugliest": 8789,
      "Ġflags": 8790,
      "Ġgroaned": 8791,
      "Ġexhaust": 8792,
      "Ġchampion": 8793,
      "Ġgathering": 8794,
      "Ġcitizens": 8795,
      "Ġsurface": 8796,
      "Ġjournalist": 8797,
      "Ġreluctantly": 8798,
      "once": 8799,
      "Ġmyth": 8800,
      "Ġthus": 8801,
      "Ġstated": 8802,
      "amer": 8803,
      "Ġdivers": 8804,
      "oodles": 8805,
      "Ġchamber": 8806,
      "ups": 8807,
      "Ġunderneath": 8808,
      "Ġbonus": 8809,
      "Ġproposed": 8810,
      "Ġrectum": 8811,
      "Ġvibrator": 8812,
      "Ġmichelle": 8813,
      "Ġhollywood": 8814,
      "Ġnarciss": 8815,
      "Ġentrance": 8816,
      "Ġporsche": 8817,
      "Ġpitt": 8818,
      "Ġheal": 8819,
      "oters": 8820,
      "Ġshirts": 8821,
      "gebra": 8822,
      "Ġboot": 8823,
      "oused": 8824,
      "Ġunderground": 8825,
      "lessly": 8826,
      "Ġmustache": 8827,
      "Ġremoving": 8828,
      "Ġnorwe": 8829,
      "Ġdestination": 8830,
      "Ġchewing": 8831,
      "Ġbesides": 8832,
      "girl": 8833,
      "Ġmattress": 8834,
      "Ġathlet": 8835,
      "Ġwestern": 8836,
      "Ġcongregation": 8837,
      "vior": 8838,
      "orc": 8839,
      "Ġlact": 8840,
      "Ġwhim": 8841,
      "Ġtricks": 8842,
      "Ġprose": 8843,
      "Ġpoll": 8844,
      "Ġunicorn": 8845,
      "Ġstandard": 8846,
      "Ġbraille": 8847,
      "lared": 8848,
      "Ġsett": 8849,
      "Ġbait": 8850,
      "Ġmedication": 8851,
      "Ġfuriously": 8852,
      "Ġeffects": 8853,
      "strong": 8854,
      "Ġrepeatedly": 8855,
      "Ġnightmare": 8856,
      "Ġsupreme": 8857,
      "mary": 8858,
      "Ġmild": 8859,
      "Ġlid": 8860,
      "Ġitch": 8861,
      "Ġrobe": 8862,
      "Ġdogg": 8863,
      "Ġdisgu": 8864,
      "Ġ55": 8865,
      "Ġsmokes": 8866,
      "Ġslips": 8867,
      "Ġtarzan": 8868,
      "Ġspirits": 8869,
      "Ġcommander": 8870,
      "Ġcancelled": 8871,
      "Ġryan": 8872,
      "pass": 8873,
      "Ġaj": 8874,
      "Ġbound": 8875,
      "Ġdre": 8876,
      "Ġhut": 8877,
      "Ġreward": 8878,
      "ooked": 8879,
      "iments": 8880,
      "artes": 8881,
      "ept": 8882,
      "Ġscat": 8883,
      "Ġquiz": 8884,
      "Ġdeclared": 8885,
      "Ġpartners": 8886,
      "Ġindiv": 8887,
      "Ġtesticle": 8888,
      "Ġgasps": 8889,
      "Ġviolin": 8890,
      "Ġtattoos": 8891,
      "Ġfacts": 8892,
      "Ġmoore": 8893,
      "Ġloser": 8894,
      "Ġexecuted": 8895,
      "Ġreunion": 8896,
      "Ġtang": 8897,
      "Ġbegg": 8898,
      "Ġjury": 8899,
      "ilot": 8900,
      "ores": 8901,
      "osing": 8902,
      "Ġlifeguard": 8903,
      "Ġpresidents": 8904,
      "Ġcorpse": 8905,
      "Ġbutterfly": 8906,
      "Ġcircumcised": 8907,
      "Ġmamma": 8908,
      "Ġwisdom": 8909,
      "Ġthomas": 8910,
      "Ġgrizzly": 8911,
      "chwitz": 8912,
      "eing": 8913,
      "Ġaer": 8914,
      "Ġbj": 8915,
      "Ġniece": 8916,
      "uls": 8917,
      "Ġfee": 8918,
      "Ġbooze": 8919,
      "Ġdraws": 8920,
      "Ġoption": 8921,
      "Ġoptometrist": 8922,
      "Ġemails": 8923,
      "Ġinstalled": 8924,
      "Ġbehavior": 8925,
      "Ġgraduate": 8926,
      "Ġpudding": 8927,
      "pants": 8928,
      "Ġjun": 8929,
      "Ġstark": 8930,
      "rimin": 8931,
      "Ġforty": 8932,
      "Ġshed": 8933,
      "Ġgul": 8934,
      "Ġpeed": 8935,
      "Ġchau": 8936,
      "Ġclassical": 8937,
      "Ġxd": 8938,
      "Ġmistaken": 8939,
      "Ġexamine": 8940,
      "Ġcooks": 8941,
      "Ġtreated": 8942,
      "Ġpracticing": 8943,
      "Ġtrek": 8944,
      "Ġplagiar": 8945,
      "bull": 8946,
      "vet": 8947,
      "Ġbison": 8948,
      "Ġcd": 8949,
      "Ġpoured": 8950,
      "lem": 8951,
      "ros": 8952,
      "wels": 8953,
      "Ġbackground": 8954,
      "Ġpale": 8955,
      "Ġschro": 8956,
      "Ġbats": 8957,
      "Ġartists": 8958,
      "Ġlessons": 8959,
      "Ġclosing": 8960,
      "Ġ2018": 8961,
      "Ġsausages": 8962,
      "Ġcalculus": 8963,
      "Ġpupil": 8964,
      "Ġdecember": 8965,
      "Ġdiabetes": 8966,
      "five": 8967,
      "wall": 8968,
      "Ġtuck": 8969,
      "Ġcav": 8970,
      "orgh": 8971,
      "idency": 8972,
      "Ġshes": 8973,
      "Ġdeod": 8974,
      "Ġblo": 8975,
      "Ġ38": 8976,
      "Ġpoland": 8977,
      "Ġfreeze": 8978,
      "Ġrelatives": 8979,
      "Ġstronger": 8980,
      "Ġbachel": 8981,
      "Ġcases": 8982,
      "Ġbrowsing": 8983,
      "Ġtemple": 8984,
      "Ġpakistani": 8985,
      "Ġcakes": 8986,
      "Ġjal": 8987,
      "Ġwheat": 8988,
      "Ġsoy": 8989,
      "Ġrug": 8990,
      "Ġvia": 8991,
      "Ġthemed": 8992,
      "Ġcob": 8993,
      "Ġsnat": 8994,
      "Ġnoticing": 8995,
      "Ġwarn": 8996,
      "Ġtransparent": 8997,
      "Ġchuckles": 8998,
      "Ġorganization": 8999,
      "Ġattempted": 9000,
      "Ġwok": 9001,
      "Ġdomin": 9002,
      "Ġbaptist": 9003,
      "Ġmisunderstood": 9004,
      "Ġachieve": 9005,
      "lord": 9006,
      "Ġbake": 9007,
      "Ġbish": 9008,
      "Ġdash": 9009,
      "asp": 9010,
      "Ġalbert": 9011,
      "Ġ37": 9012,
      "Ġneedle": 9013,
      "Ġarmstrong": 9014,
      "Ġmotiv": 9015,
      "Ġprayed": 9016,
      "Ġteenagers": 9017,
      "Ġinvestigator": 9018,
      "Ġaccepts": 9019,
      "Ġchoked": 9020,
      "Ġsailors": 9021,
      "ipede": 9022,
      "Ġcounselor": 9023,
      "Ġtaylor": 9024,
      "Ġdame": 9025,
      "Ġcact": 9026,
      "Ġjess": 9027,
      "Ġoutfit": 9028,
      "Ġdadjoke": 9029,
      "Ġbarbers": 9030,
      "aple": 9031,
      "bean": 9032,
      "Ġtyping": 9033,
      "Ġsymb": 9034,
      "Ġprofile": 9035,
      "Ġburr": 9036,
      "Ġdeeply": 9037,
      "Ġclip": 9038,
      "Ġmolest": 9039,
      "Ġfunnier": 9040,
      "Ġgambling": 9041,
      "Ġseizure": 9042,
      "fu": 9043,
      "nite": 9044,
      "Ġpav": 9045,
      "Ġjr": 9046,
      "Ġgoodness": 9047,
      "Ġprints": 9048,
      "Ġwrink": 9049,
      "Ġpaused": 9050,
      "Ġshaving": 9051,
      "Ġterrif": 9052,
      "Ġconfidence": 9053,
      "Ġsounded": 9054,
      "Ġsimps": 9055,
      "Ġbuddha": 9056,
      "Ġmistress": 9057,
[...]
