{
  "version": "1.0",
  "truncation": {
    "direction": "Right",
    "max_length": 256,
    "strategy": "LongestFirst",
    "stride": 0
  },
  "padding": {
    "strategy": "BatchLongest",
    "direction": "Right",
    "pad_to_multiple_of": null,
    "pad_id": 2,
    "pad_type_id": 0,
    "pad_token": "[PAD]"
  },
  "added_tokens": [
    {
      "id": 0,
      "content": "[S]",
      "single_word": false,
      "lstrip": false,
      "rstrip": false,
      "normalized": false,
      "special": true
    },
    {
      "id": 1,
      "content": "[/S]",
      "single_word": false,
      "lstrip": false,
      "rstrip": false,
      "normalized": false,
      "special": true
    },
    {
      "id": 2,
      "content": "[PAD]",
      "single_word": false,
      "lstrip": false,
      "rstrip": false,
      "normalized": false,
      "special": true
    },
    {
      "id": 3,
      "content": "[UNK]",
      "single_word": false,
      "lstrip": false,
      "rstrip": false,
      "normalized": false,
      "special": true
    },
    {
      "id": 4,
      "content": "[MASK]",
      "single_word": false,
      "lstrip": false,
      "rstrip": false,
      "normalized": false,
      "special": true
    },
    {
      "id": 5,
      "content": "[USER]",
      "single_word": false,
      "lstrip": false,
      "rstrip": false,
      "normalized": false,
      "special": true
    },
    {
      "id": 6,
      "content": "[JOKE]",
      "single_word": false,
      "lstrip": false,
      "rstrip": false,
      "normalized": false,
      "special": true
    }
  ],
  "normalizer": null,
  "pre_tokenizer": {
    "type": "ByteLevel",
    "add_prefix_space": true,
    "trim_offsets": true,
    "use_regex": true
  },
  "post_processor": {
    "type": "TemplateProcessing",
    "single": [
      {
        "SpecialToken": {
          "id": "[S]",
          "type_id": 0
        }
      },
      {
        "Sequence": {
          "id": "A",
          "type_id": 0
        }
      },
      {
        "SpecialToken": {
          "id": "[/S]",
          "type_id": 0
        }
      }
    ],
    "pair": [
      {
        "SpecialToken": {
          "id": "[S]",
          "type_id": 0
        }
      },
      {
        "Sequence": {
          "id": "A",
          "type_id": 0
        }
      },
      {
        "SpecialToken": {
          "id": "[JOKE]",
          "type_id": 0
        }
      },
      {
        "Sequence": {
          "id": "B",
          "type_id": 0
        }
      },
      {
        "SpecialToken": {
          "id": "[/S]",
          "type_id": 0
        }
      }
    ],
    "special_tokens": {
      "[/S]": {
        "id": "[/S]",
        "ids": [
          1
        ],
        "tokens": [
          "[/S]"
        ]
      },
      "[JOKE]": {
        "id": "[JOKE]",
        "ids": [
          6
        ],
        "tokens": [
          "[JOKE]"
        ]
      },
      "[S]": {
        "id": "[S]",
        "ids": [
          0
        ],
        "tokens": [
          "[S]"
        ]
      }
    }
  },
  "decoder": {
    "type": "ByteLevel",
    "add_prefix_space": true,
    "trim_offsets": true,
    "use_regex": true
  },
  "model": {
    "type": "Unigram",
    "unk_id": 3,
    "vocab": [
      [
        "[S]",
        0.0
      ],
      [
        "[/S]",
        0.0
      ],
      [
        "[PAD]",
        0.0
      ],
      [
        "[UNK]",
        0.0
      ],
      [
        "[MASK]",
        0.0
      ],
      [
        "[USER]",
        0.0
      ],
      [
        "[JOKE]",
        0.0
      ],
      [
        "Ġ",
        -1.7863286755394903
      ],
      [
        "a",
        -3.451068343485158
      ],
      [
        ".",
        -3.4523619069601725
      ],
      [
        "s",
        -3.4684286484107805
      ],
      [
        "Ġthe",
        -3.505299721004251
      ],
      [
        ",",
        -3.7749155618418744
      ],
      [
        "\"",
        -3.7969640028962495
      ],
      [
        "'",
        -3.936029467436221
      ],
      [
        "i",
        -3.987581459688201
      ],
      [
        "Ġto",
        -4.250110226746729
      ],
      [
        "Ġand",
        -4.335053725028514
      ],
      [
        "?",
        -4.359575802938597
      ],
      [
        "Ġyou",
        -4.460122919526873
      ],
      [
        "t",
        -4.534856416663903
      ],
      [
        "Ġit",
        -4.7967921828488045
      ],
      [
        "Ġin",
        -4.876366749285614
      ],
      [
        "Ġof",
        -4.905675533640171
      ],
      [
        "Ġwhat",
        -4.982309104129383
      ],
      [
        "Ġhe",
        -4.998690748691665
      ],
      [
        "Ġmy",
        -5.020520594229707
      ],
      [
        "Ġis",
        -5.125031745864387
      ],
      [
        "ed",
        -5.140284448115926
      ],
      [
        ":",
        -5.170461088993944
      ],
      [
        "ing",
        -5.28452988198908
      ],
      [
        "!",
        -5.3017733945599375
      ],
      [
        "Ġthat",
        -5.309058269851834
      ],
      [
        "Ġwas",
        -5.30932733081046
      ],
      [
        "d",
        -5.312750519961723
      ],
      [
        "Ġ...",
        -5.326541753970009
      ],
      [
        "Ġdo",
        -5.447979794914517
      ],
      [
        "Ġme",
        -5.467262163981971
      ],
      [
        "Ġfor",
        -5.479290636512548
      ],
      [
        "Ġon",
        -5.490680284016539
      ],
      [
        "y",
        -5.503026913120008
      ],
      [
        "Ġhis",
        -5.530761428793413
      ],
      [
        "Ġwith",
        -5.60089460155765
      ],
      [
        "m",
        -5.6073426670986155
      ],
      [
        "Ġthey",
        -5.663567251635417
      ],
      [
        "Ġhave",
        -5.726926274983761
      ],
      [
        "Ġare",
        -5.7938487343943965
      ],
      [
        "Ġshe",
        -5.841880244062137
      ],
      [
        "Ġso",
        -5.84290037715942
      ],
      [
        "Ġman",
        -5.852072276141355
      ],
      [
        "Ġbut",
        -5.883673132157265
      ],
      [
        "Ġwhen",
        -5.889231560487392
      ],
      [
        "Ġone",
        -5.8943433040179105
      ],
      [
        "-",
        -5.917060524326642
      ],
      [
        "Ġher",
        -5.930222822412416
      ],
      [
        "Ġwhy",
        -5.951115012194814
      ],
      [
        "Ġsays",
        -5.965891859360731
      ],
      [
        "Ġyour",
        -5.994849847975116
      ],
      [
        "Ġan",
        -5.999932564895252
      ],
      [
        "Ġcan",
        -6.011729779830166
      ],
      [
        "Ġup",
        -6.041474748168
      ],
      [
        "Ġdid",
        -6.070185828966789
      ],
      [
        "Ġout",
        -6.071791960109014
      ],
      [
        "Ġthis",
        -6.086189388221415
      ],
      [
        "Ġhow",
        -6.091810074191924
      ],
      [
        "ly",
        -6.092739564899674
      ],
      [
        "Ġbe",
        -6.123087052518155
      ],
      [
        "Ġlike",
        -6.131538644701562
      ],
      [
        "Ġjust",
        -6.160366766829002
      ],
      [
        "Ġsaid",
        -6.164044401142609
      ],
      [
        "Ġif",
        -6.179523310103226
      ],
      [
        "Ġhim",
        -6.195934219435216
      ],
      [
        "Ġget",
        -6.218993310642196
      ],
      [
        "e",
        -6.2351716946723155
      ],
      [
        "Ġabout",
        -6.247232633062076
      ],
      [
        "Ġno",
        -6.269309635360276
      ],
      [
        "Ġall",
        -6.314956320859583
      ],
      [
        "Ġwe",
        -6.378046354679887
      ],
      [
        "Ġcall",
        -6.380428297710045
      ],
      [
        "Ġbecause",
        -6.3807298040689275
      ],
      [
        "Ġdon",
        -6.381727180160652
      ],
      [
        "Ġthere",
        -6.389193226192996
      ],
      [
        "Ġwho",
        -6.400277402617197
      ],
      [
        "Ġnot",
        -6.4265713940656255
      ],
      [
        "Ġinto",
        -6.435784611613753
      ],
      [
        "o",
        -6.461836749011706
      ],
      [
        "re",
        -6.4652222293006005
      ],
      [
        "Ġknow",
        -6.467770071814019
      ],
      [
        "Ġfrom",
        -6.529990055685802
      ],
      [
        "Ġsay",
        -6.583090486223991
      ],
      [
        "Ġhad",
        -6.58450436898317
      ],
      [
        "Ġwife",
        -6.629319993776752
      ],
      [
        "Ġlook",
        -6.635911153263633
      ],
      [
        "Ġgot",
        -6.653116313929907
      ],
      [
        "h",
        -6.675930342706502
      ],
      [
        "Ġthen",
        -6.695147547069466
      ],
      [
        "Ġguy",
        -6.712447262402019
      ],
      [
        "Ġtwo",
        -6.768921293422347
      ],
      [
        "Ġgo",
        -6.775007741178351
      ],
      [
        "Ġday",
        -6.791370574799803
      ],
      [
        "Ġpeople",
        -6.792583611392336
      ],
      [
        "Ġasked",
        -6.821641627810523
      ],
      [
        "Ġthem",
        -6.8238362065569635
      ],
      [
        "Ġdoes",
        -6.830157616616512
      ],
      [
        "Ġdad",
        -6.839958189527016
      ],
      [
        "Ġtime",
        -6.848025280681663
      ],
      [
        "Ġother",
        -6.848628218062657
      ],
      [
        "Ġwould",
        -6.857063080082861
      ],
      [
        "Ġby",
        -6.868014200492828
      ],
      [
        "Ġhas",
        -6.896544328067135
      ],
      [
        "Ġwere",
        -6.901584507112746
      ],
      [
        "Ġback",
        -6.9100405253894746
      ],
      [
        "Ġafter",
        -6.91586406413105
      ],
      [
        "Ġtheir",
        -6.916622442301939
      ],
      [
        "Ġdown",
        -6.925947356375682
      ],
      [
        "Ġjoke",
        -6.929676596677146
      ],
      [
        "Ġasks",
        -6.930981116421485
      ],
      [
        "ll",
        -6.958155912768726
      ],
      [
        "Ġfirst",
        -6.978160215765174
      ],
      [
        "Ġwant",
        -6.9798933406256864
      ],
      [
        "r",
        -6.980238913417546
      ],
      [
        "Ġbar",
        -6.9880484300191945
      ],
      [
        "n",
        -6.991292623371729
      ],
      [
        "ve",
        -6.993196842078952
      ],
      [
        "Ġwill",
        -7.010820207604903
      ],
      [
        "Ġwell",
        -7.018502980387742
      ],
      [
        "Ġnow",
        -7.029349281110429
      ],
      [
        "Ġover",
        -7.031059219521692
      ],
      [
        "Ġsee",
        -7.0312859139614705
      ],
      [
        "Ġsome",
        -7.0422183050614
      ],
      [
        "Ġoff",
        -7.092530953846632
      ],
      [
        "Ġwoman",
        -7.0982890405241825
      ],
      [
        "Ġmake",
        -7.108914106455353
      ],
      [
        "Ġtold",
        -7.114890016867047
      ],
      [
        "Ġyear",
        -7.120186907817361
      ],
      [
        "Ġdoctor",
        -7.127969284537581
      ],
      [
        "Ġtake",
        -7.1377370169613545
      ],
      [
        "Ġonly",
        -7.138576481018816
      ],
      [
        "Ġthink",
        -7.141722778998606
      ],
      [
        "Ġold",
        -7.16976148384798
      ],
      [
        "Ġgood",
        -7.175358805319384
      ],
      [
        "Ġgoing",
        -7.19257735975272
      ],
      [
        "Ġfriend",
        -7.1973600206068475
      ],
      [
        "Ġreally",
        -7.218020966811029
      ],
      [
        "Ġstart",
        -7.235259926220223
      ],
      [
        "Ġwalks",
        -7.241600017149901
      ],
      [
        "Ġnever",
        -7.24461977628191
      ],
      [
        ")",
        -7.253136306652406
      ],
      [
        "Ġnew",
        -7.259843836423141
      ],
      [
        "Ġlittle",
        -7.285360363147097
      ],
      [
        "Ġbetween",
        -7.295570557579252
      ],
      [
        "Ġwhere",
        -7.3013356242589325
      ],
      [
        "Ġbeen",
        -7.303262164059751
      ],
      [
        "Ġtell",
        -7.3056087853684755
      ],
      [
        "Ġor",
        -7.3123217414461585
      ],
      [
        "Ġson",
        -7.315991269276013
      ],
      [
        "Ġgirl",
        -7.328506493576542
      ],
      [
        "Ġgoes",
        -7.330539274207332
      ],
      [
        "Ġwent",
        -7.347937605626791
      ],
      [
        "g",
        -7.352027981318564
      ],
      [
        "(",
        -7.358499269729467
      ],
      [
        "2",
        -7.359334246963719
      ],
      [
        "Ġhear",
        -7.376645366163116
      ],
      [
        "Ġsex",
        -7.381877098664141
      ],
      [
        "Ġgive",
        -7.421568177332976
      ],
      [
        "Ġdidn",
        -7.422441149087312
      ],
      [
        "Ġtoo",
        -7.430740720878685
      ],
      [
        "Ġcould",
        -7.4372527113450815
      ],
      [
        "Ġlast",
        -7.444717213376295
      ],
      [
        "Ġreplie",
        -7.460337914411925
      ],
      [
        "Ġalway",
        -7.460794052171906
      ],
      [
        "Ġhere",
        -7.464172944890731
      ],
      [
        "Ġtoday",
        -7.482011183572547
      ],
      [
        "Ġcar",
        -7.507352594300269
      ],
      [
        "Ġmore",
        -7.5134839025044595
      ],
      [
        "Ġhome",
        -7.517203762231878
      ],
      [
        "Ġdifference",
        -7.520646804622741
      ],
      [
        "Ġnight",
        -7.523837173761073
      ],
      [
        "Ġright",
        -7.531838307291775
      ],
      [
        "Ġput",
        -7.534514577142939
      ],
      [
        "Ġwalk",
        -7.538377194646193
      ],
      [
        "Ġbefore",
        -7.542969537250288
      ],
      [
        "Ġway",
        -7.545119693104386
      ],
      [
        "Ġnext",
        -7.560099499261547
      ],
      [
        "Ġcome",
        -7.571770836094384
      ],
      [
        "3",
        -7.5988371742711145
      ],
      [
        "Ġdog",
        -7.606549463759219
      ],
      [
        "Ġboy",
        -7.609381995652708
      ],
      [
        "Ġneed",
        -7.612096034173867
      ],
      [
        "Ġmany",
        -7.627277772039662
      ],
      [
        "Ġwork",
        -7.638311041307441
      ],
      [
        "Ġwhile",
        -7.647452405170625
      ],
      [
        "Ġagain",
        -7.648340466223116
      ],
      [
        "Ġaround",
        -7.660437174375833
      ],
      [
        "Ġname",
        -7.661247994643606
      ],
      [
        "Ġfind",
        -7.669057384249664
      ],
      [
        "Ġblack",
        -7.672731741437866
      ],
      [
        "Ġshould",
        -7.6772897539688
      ],
      [
        "Ġreplied",
        -7.684227513386334
      ],
      [
        "Ġask",
        -7.686321291638437
      ],
      [
        "Ġsomeone",
        -7.68680037653939
      ],
      [
        "Ġany",
        -7.688853471310088
      ],
      [
        "Ġevery",
        -7.716645831086462
      ],
      [
        "Ġsecond",
        -7.720848147701995
      ],
      [
        "Ġhusband",
        -7.72203393815345
      ],
      [
        "Ġbartender",
        -7.734032168777519
      ],
      [
        "Ġvery",
        -7.734435122619706
      ],
      [
        "Ġthree",
        -7.7389342089626165
      ],
      [
        "Ġgirlfriend",
        -7.739793631239646
      ],
      [
        "Ġmuch",
        -7.739818692351008
      ],
      [
        "c",
        -7.742692633735739
      ],
      [
        "Ġfather",
        -7.744770851869577
      ],
      [
        "u",
        -7.7458807157499585
      ],
      [
        "Ġ1",
        -7.748441125134688
      ],
      [
        "Ġlove",
        -7.754724023998131
      ],
      [
        "Ġlet",
        -7.754881605131239
      ],
      [
        "Ġbad",
        -7.756647639368177
      ],
      [
        "Ġwhich",
        -7.760510131410765
      ],
      [
        "Ġstill",
        -7.761856150050711
      ],
      [
        "Ġcame",
        -7.764719280154033
      ],
      [
        "called",
        -7.773334491221178
      ],
      [
        "Ġlife",
        -7.776241171083672
      ],
      [
        "Ġhouse",
        -7.781586661428195
      ],
      [
        "Ġlong",
        -7.783084873739249
      ],
      [
        "Ġmom",
        -7.783274377022893
      ],
      [
        "Ġthing",
        -7.7838492483517285
      ],
      [
        "Ġmade",
        -7.79163796378845
      ],
      [
        "on",
        -7.794051186178585
      ],
      [
        "Ġwomen",
        -7.80314211472097
      ],
      [
        "Ġgod",
        -7.818700428352335
      ],
      [
        "Ġthan",
        -7.827130283415201
      ],
      [
        "Ġbest",
        -7.836346171233455
      ],
      [
        "Ġplay",
        -7.838318451553999
      ],
      [
        "Ġdoesn",
        -7.838403521639718
      ],
      [
        "l",
        -7.8506073891101185
      ],
      [
        "Ġthought",
        -7.857756925203585
      ],
      [
        "Ġeat",
        -7.858406101008592
      ],
      [
        "Ġshit",
        -7.865843403492656
      ],
      [
        "Ġever",
        -7.866059726426434
      ],
      [
        "Ġteacher",
        -7.868203350672047
      ],
      [
        "Ġdrink",
        -7.8689861812187125
      ],
      [
        "Ġhaving",
        -7.87369290186254
      ],
      [
        "Ġgets",
        -7.874826325443417
      ],
      [
        "Ġsaw",
        -7.8750747017470175
      ],
      [
        "Ġour",
        -7.887568617485352
      ],
      [
        "Ġonce",
        -7.888926392397016
      ],
      [
        "Ġknock",
        -7.89415872361824
      ],
      [
        "Ġsure",
        -7.8965682186660455
      ],
      [
        "Ġtrump",
        -7.900420291709112
      ],
      [
        "Ġeven",
        -7.902922948834528
      ],
      [
        "Ġturn",
        -7.905331102409274
      ],
      [
        "Ġgreat",
        -7.916931523052742
      ],
      [
        "Ġbeing",
        -7.9172751777902395
      ],
      [
        "Ġboth",
        -7.920931555631247
      ],
      [
        "Ġcomes",
        -7.92620176377455
      ],
      [
        "Ġhead",
        -7.929070617996409
      ],
      [
        "Ġjokes",
        -7.929164652031128
      ],
      [
        "getting",
        -7.932493465520928
      ],
      [
        "Ġmother",
        -7.937213561467205
      ],
      [
        "Ġsomething",
        -7.943972194170325
      ],
      [
        "Ġanother",
        -7.955632811260113
      ],
      [
        "Ġmen",
        -7.95610193950421
      ],
      [
        "Ġwatch",
        -7.96373572926151
      ],
      [
        "Ġyes",
        -7.964561096891954
      ],
      [
        "Ġsame",
        -7.967546669138882
      ],
      [
        "5",
        -7.97020702866512
      ],
      [
        "Ġdoor",
        -7.976789600512426
      ],
      [
        "in",
        -7.979382055768349
      ],
      [
        "Ġheard",
        -7.98058684071302
      ],
      [
        "Ġleft",
        -7.990320973655397
      ],
      [
        "Ġsorry",
        -7.993730346026734
      ],
      [
        "Ġfound",
        -7.995913272443703
      ],
      [
        "Ġmost",
        -7.999029785245122
      ],
      [
        "Ġbig",
        -8.00116686056716
      ],
      [
        "f",
        -8.002806353510683
      ],
      [
        "Ġuse",
        -8.004416490780377
      ],
      [
        "Ġstop",
        -8.0076883717031
      ],
      [
        "Ġhey",
        -8.022445584973534
      ],
      [
        "Ġroom",
        -8.027173092119693
      ],
      [
        "Ġaway",
        -8.033962189517753
      ],
      [
        "Ġjob",
        -8.03717004580443
      ],
      [
        "Ġfavorite",
        -8.042264805009335
      ],
      [
        "Ġ10",
        -8.047206038536496
      ],
      [
        "p",
        -8.04831822174208
      ],
      [
        "Ġeveryone",
        -8.054903332332758
      ],
      [
        "er",
        -8.058091134035324
      ],
      [
        "Ġworld",
        -8.063668184503545
      ],
      [
        "Ġlater",
        -8.064097142954251
      ],
      [
        "Ġhand",
        -8.072740287122832
      ],
      [
        "Ġanswer",
        -8.074449796954255
      ],
      [
        "Ġkid",
        -8.077261943086041
      ],
      [
        "Ġfuck",
        -8.082270190821411
      ],
      [
        "Ġthrough",
        -8.084532327213013
      ],
      [
        "Ġhelp",
        -8.084948068322271
      ],
      [
        "b",
        -8.085009606360641
      ],
      [
        "Ġwanted",
        -8.091538026853078
      ],
      [
        "Ġbaby",
        -8.096133110247342
      ],
      [
        "Ġhard",
        -8.099250520209344
      ],
      [
        "Ġwater",
        -8.102765052559729
      ],
      [
        "Ġperson",
        -8.108289362667929
      ],
      [
        "Ġend",
        -8.113523406014309
      ],
      [
        "Ġschool",
        -8.116500431286717
      ],
      [
        "Ġwhite",
        -8.118060695142074
      ],
      [
        "Ġchange",
        -8.122032314250422
      ],
      [
        "Ġfew",
        -8.143779052484795
      ],
      [
        "Ġdead",
        -8.148892929786864
      ],
      [
        "Ġblonde",
        -8.149260690386042
      ],
      [
        "Ġface",
        -8.155504277440539
      ],
      [
        "Ġkeep",
        -8.160662814372799
      ],
      [
        "self",
        -8.162721495485467
      ],
      [
        "w",
        -8.169248709786382
      ],
      [
        "Ġguys",
        -8.174618819346044
      ],
      [
        "Ġthose",
        -8.17495745784395
      ],
      [
        "Ġdoing",
        -8.177728576304872
      ],
      [
        "Ġweek",
        -8.178119482258476
      ],
      [
        "Ġnothing",
        -8.181533755714412
      ],
      [
        "Ġmoney",
        -8.188324798733806
      ],
      [
        "Ġorder",
        -8.201258275185554
      ],
      [
        "Ġus",
        -8.20209190391834
      ],
      [
        "Ġkids",
        -8.202974388550784
      ],
      [
        "Ġtook",
        -8.206949520576408
      ],
      [
        "Ġplease",
        -8.209093206670472
      ],
      [
        "Ġcouldn",
        -8.22084562315024
      ],
      [
        "Ġlot",
        -8.224724713349381
      ],
      [
        "Ġused",
        -8.226152236822372
      ],
      [
        "Ġwrong",
        -8.248352407630183
      ],
      [
        "Ġwon",
        -8.255680988425095
      ],
      [
        "Ġbuy",
        -8.26199045014539
      ],
      [
        "Ġguess",
        -8.268119328683978
      ],
      [
        "Ġpull",
        -8.278508343461855
      ],
      [
        "Ġgay",
        -8.285398136588677
      ],
      [
        "Ġhate",
        -8.288493684399853
      ],
      [
        "Ġbetter",
        -8.291319829710464
      ],
      [
        "Ġmorning",
        -8.29342564119432
      ],
      [
        "v",
        -8.29440462516935
      ],
      [
        "Ġpriest",
        -8.29478680330271
      ],
      [
        "Ġbeer",
        -8.297264750646095
      ],
      [
        "Ġlady",
        -8.320706167864367
      ],
      [
        "Ġbed",
        -8.323960298578525
      ],
      [
        "Ġkind",
        -8.329976017351507
      ],
      [
        "walking",
        -8.33116601279718
      ],
      [
        "Ġshow",
        -8.33750798090287
      ],
      [
        "Ġlight",
        -8.338363002663742
      ],
      [
        "Ġopen",
        -8.34040785344336
      ],
      [
        "Ġchicken",
        -8.342872697224102
      ],
      [
        "Ġdick",
        -8.343602169000988
      ],
      [
        "Ġ4",
        -8.34591800989362
      ],
      [
        "Ġeach",
        -8.350175903470857
      ],
      [
        "Ġfucking",
        -8.350304740716293
      ],
      [
        "Ġmean",
        -8.3530518666298
      ],
      [
        "Ġfish",
        -8.355548129585284
      ],
      [
        "Ġturns",
        -8.357452915094695
      ],
      [
        "Ġcommon",
        -8.358773249126452
      ],
      [
        "Ġfriends",
        -8.36369929061287
      ],
      [
        "Ġtalking",
        -8.372930645349722
      ],
      [
        "Ġsir",
        -8.373455488410494
      ],
      [
        "Ġfood",
        -8.374133628970384
      ],
      [
        "Ġthese",
        -8.374746956529469
      ],
      [
        "Ġphone",
        -8.37513623349985
      ],
      [
        "Ġanything",
        -8.37698703598171
      ],
      [
        "Ġsitting",
        -8.37863458535255
      ],
      [
        "Ġplace",
        -8.380069997723819
      ],
      [
        "Ġwithout",
        -8.381752817428016
      ],
      [
        "Ġstore",
        -8.391323220095524
      ],
      [
        "Ġcross",
        -8.391538677895907
      ],
      [
        "Ġjesus",
        -8.39574188751114
      ],
      [
        "Ġrun",
        -8.396123398882558
      ],
      [
        "Ġfamily",
        -8.397997191632495
      ],
      [
        "Ġroad",
        -8.398330765069112
      ],
      [
        "Ġminutes",
        -8.398591104501001
      ],
      [
        "Ġyoung",
        -8.402301141801223
      ],
      [
        "Ġtells",
        -8.403138711163244
      ],
      [
        "Ġyeah",
        -8.407167258189045
      ],
      [
        "k",
        -8.414193432408142
      ],
      [
        "Ġok",
        -8.417264729278504
      ],
      [
        "Ġpolice",
        -8.420620244311438
      ],
      [
        "Ġgave",
        -8.420825787796357
      ],
      [
        "Ġdaughter",
        -8.427552864029694
      ],
      [
        "Ġuntil",
        -8.430257951704347
      ],
      [
        "Ġmust",
        -8.432817762530757
      ],
      [
        "Ġ20",
        -8.43524349224446
      ],
      [
        "Ġcat",
        -8.436411449127542
      ],
      [
        "est",
        -8.43798347761012
      ],
      [
        "Ġsmall",
        -8.438398257684355
      ],
      [
        "Ġtrying",
        -8.439910572444767
      ],
      [
        "able",
        -8.440687151831892
      ],
      [
        "Ġfeel",
        -8.44277467831096
      ],
      [
        "Ġthings",
        -8.443579270311321
      ],
      [
        "Ġpretty",
        -8.457525721715813
      ],
      [
        "Ġass",
        -8.457914160452132
      ],
      [
        "Ġdied",
        -8.458323501906634
      ],
      [
        "Ġfall",
        -8.458450678017378
      ],
      [
        "Ġlive",
        -8.460105129619212
      ],
      [
        "Ġproblem",
        -8.461760115186948
      ],
      [
        "Ġlost",
        -8.463150691027264
      ],
      [
        "Ġfinall",
        -8.46472139775641
      ],
      [
        "Ġfront",
        -8.465131628888804
      ],
      [
        "Ġhit",
        -8.465861996104335
      ],
      [
        "Ġtakes",
        -8.467101691769683
      ],
      [
        "Ġcouple",
        -8.467650293072264
      ],
      [
        "Ġhorse",
        -8.470523105333013
      ],
      [
        "Ġlaugh",
        -8.473194571148971
      ],
      [
        "Ġred",
        -8.490920292083635
      ],
      [
        ";",
        -8.492440198969174
      ],
      [
        "Ġenough",
        -8.493459820421986
      ],
      [
        "Ġunder",
        -8.503010551756681
      ],
      [
        "Ġpenis",
        -8.505492027578915
      ],
      [
        "Ġhands",
        -8.506856598925372
      ],
      [
        "Ġword",
        -8.50818835641402
      ],
      [
        "Ġtry",
        -8.51682751295935
      ],
      [
        "man",
        -8.5169931122074
      ],
      [
        "Ġhigh",
        -8.517972870754933
      ],
      [
        "Ġtried",
        -8.518398614003889
      ],
      [
        "Ġline",
        -8.519100991196263
      ],
      [
        "Ġhell",
        -8.524148849218719
      ],
      [
        "Ġdecided",
        -8.524509109066683
      ],
      [
        "Ġside",
        -8.52686785349493
      ],
      [
        "Ġremember",
        -8.527261910803592
      ],
      [
        "Ġown",
        -8.533445894385522
      ],
      [
        "Ġpart",
        -8.535033687116329
      ],
      [
        "Ġwish",
        -8.53664729735733
      ],
      [
        "Ġmyself",
        -8.537276725504741
      ],
      [
        "Ġhot",
        -8.543150267308414
      ],
      [
        "Ġbit",
        -8.547084871874596
      ],
      [
        "Ġsaying",
        -8.550126135226717
      ],
      [
        "Ġeverything",
        -8.557576891313618
      ],
      [
        "Ġjohnny",
        -8.559983984034831
      ],
      [
        "9",
        -8.56080500772143
      ],
      [
        "Ġeyes",
        -8.561530542865341
      ],
      [
        "Ġfat",
        -8.562857963885614
      ],
      [
        "Ġdie",
        -8.56367021566145
      ],
      [
        "Ġwasn",
        -8.569633694348836
      ],
      [
        "Ġseen",
        -8.572008099488487
      ],
      [
        "Ġ6",
        -8.573931105697552
      ],
      [
        "Ġfunny",
        -8.574329444887193
      ],
      [
        "Ġgonna",
        -8.577738364239949
      ],
      [
        "Ġisn",
        -8.580587295207858
      ],
      [
        "Ġmaking",
        -8.58290428891632
      ],
      [
        "Ġamerican",
        -8.585188599426308
      ],
      [
        "Ġmakes",
        -8.587164796164693
      ],
      [
        "Ġalso",
        -8.5872086722939
      ],
      [
        "Ġdriver",
        -8.587776149922341
      ],
      [
        "Ġwait",
        -8.589559886121144
      ],
      [
        "Ġsees",
        -8.592434245712079
      ],
      [
        "Ġbear",
        -8.59267114042346
      ],
      [
        "Ġnice",
        -8.592902381300101
      ],
      [
        "Ġhalf",
        -8.593351595187043
      ],
      [
        "Ġfull",
        -8.598912985236854
      ],
      [
        "Ġbrother",
        -8.599064896493303
      ],
      [
        "Ġchild",
        -8.605255026130218
      ],
      [
        "Ġlegs",
        -8.611775965654838
      ],
      [
        "Ġthird",
        -8.615312265572536
      ],
      [
        "Ġmonth",
        -8.617415353102626
      ],
      [
        "Ġbelieve",
        -8.621053241836245
      ],
      [
        "Ġbring",
        -8.624267912133627
      ],
      [
        "Ġthrow",
        -8.626596580676456
      ],
      [
        "Ġtree",
        -8.628412023283417
      ],
      [
        "Ġeye",
        -8.632974723680526
      ],
      [
        "Ġfire",
        -8.636737294598117
      ],
      [
        "Ġtalk",
        -8.637136108634325
      ],
      [
        "Ġnews",
        -8.642553285175396
      ],
      [
        "Ġofficer",
        -8.643252690460926
      ],
      [
        "Ġmexican",
        -8.645674823063768
      ],
      [
        "Ġyell",
        -8.6472643602923
      ],
      [
        "Ġleave",
        -8.65344343800724
      ],
      [
        "Ġclass",
        -8.653966386723875
      ],
      [
        "Ġfarmer",
        -8.660625635325173
      ],
      [
        "Ġshot",
        -8.664059861723272
      ],
      [
        "Ġshout",
        -8.66474926671941
      ],
      [
        "Ġgerman",
        -8.666734649989175
      ],
      [
        "Ġgame",
        -8.667678166889658
      ],
      [
        "Ġbook",
        -8.670008163272502
      ],
      [
        "Ġnotice",
        -8.670904170754458
      ],
      [
        "Ġdrunk",
        -8.677508558250391
      ],
      [
        "Ġbill",
        -8.68052614616195
      ],
      [
        "Ġpick",
        -8.684347644990915
      ],
      [
        "Ġblind",
        -8.68470346221111
      ],
      [
        "Ġread",
        -8.687541040630455
      ],
      [
        "Ġbehind",
        -8.695196301619704
      ],
      [
        "Ġparty",
        -8.700839864613874
      ],
      [
        "Ġcoming",
        -8.704589193797982
      ],
      [
        "Ġmarried",
        -8.706156956841504
      ],
      [
        "Ġdrivin",
        -8.710411370453265
      ],
      [
        "Ġsister",
        -8.710618819457208
      ],
      [
        "Ġhappy",
        -8.711239540054882
      ],
      [
        "Ġdonald",
        -8.714800912740392
      ],
      [
        "Ġquestion",
        -8.717548575883344
      ],
      [
        "Ġscream",
        -8.718305706325996
      ],
      [
        "during",
        -8.721944146675071
      ],
      [
        "Ġreal",
        -8.723165980264358
      ],
      [
        "Ġtable",
        -8.724274342006108
      ],
      [
        "Ġclose",
        -8.72673373953861
      ],
      [
        "Ġanyone",
        -8.726989816575278
      ],
      [
        "Ġkill",
        -8.733577407135895
      ],
      [
        "Ġ7",
        -8.73586861612176
      ],
      [
        "Ġcow",
        -8.746277526429228
      ],
      [
        "Ġtogether",
        -8.747866972865882
      ],
      [
        "Ġchristmas",
        -8.748916388712017
      ],
      [
        "Ġinside",
        -8.749340758575544
      ],
      [
        "Ġdate",
        -8.749522837102017
      ],
      [
        "eating",
        -8.750415061481903
      ],
      [
        "Ġdecide",
        -8.755606599085755
      ],
      [
        "Ġhair",
        -8.757110056961885
      ],
      [
        "Ġrespond",
        -8.7576862186901
      ],
      [
        "Ġdinner",
        -8.759864661525192
      ],
      [
        "Ġalread",
        -8.76079941880484
      ],
      [
        "Ġparents",
        -8.763413645475406
      ],
      [
        "Ġstand",
        -8.763980716894748
      ],
      [
        "Ġsince",
        -8.766690732004024
      ],
      [
        "Ġpost",
        -8.770806502013576
      ],
      [
        "Ġyesterday",
        -8.772362261025371
      ],
      [
        "Ġbought",
        -8.772410970489133
      ],
      [
        "Ġwonder",
        -8.778280748328326
      ],
      [
        "ies",
        -8.778526641128368
      ],
      [
        "Ġcheck",
        -8.78045977206029
      ],
      [
        "Ġactuall",
        -8.782911807178232
      ],
      [
        "Ġhappen",
        -8.783124828396533
      ],
      [
        "Ġcop",
        -8.783468331887908
      ],
      [
        "Ġedit",
        -8.785712785859364
      ],
      [
        "Ġchildren",
        -8.786420699784353
      ],
      [
        "less",
        -8.786834043545657
      ],
      [
        "Ġbus",
        -8.789637732070174
      ],
      [
        "Ġmay",
        -8.79010855037631
      ],
      [
        "Ġun",
        -8.791209063071383
      ],
      [
        "Ġbody",
        -8.793933994584906
      ],
      [
        "Ġseem",
        -8.794019333131244
      ],
      [
        "Ġfell",
        -8.795812960529691
      ],
      [
        "Ġpay",
        -8.79631115421945
      ],
      [
        "Ġboss",
        -8.797066590454445
      ],
      [
        "Ġpass",
        -8.79768582674819
      ],
      [
        "Ġwhole",
        -8.800676179333829
      ],
      [
        "Ġnamed",
        -8.80609591623863
      ],
      [
        "Ġmovie",
        -8.811728519580534
      ],
      [
        "Ġsleep",
        -8.813803344206251
      ],
      [
        "Ġoffice",
        -8.815174159609796
      ],
      [
        "Ġcoffee",
        -8.818111558730516
      ],
      [
        "Ġdays",
        -8.818929610407169
      ],
      [
        "Ġfree",
        -8.81943820945212
      ],
      [
        "Ġice",
        -8.820054975082172
      ],
      [
        "Ġdone",
        -8.82121581048094
      ],
      [
        "x",
        -8.8237401299807
      ],
      [
        "Ġprobabl",
        -8.825491110942112
      ],
      [
        "Ġstreet",
        -8.828096610843748
      ],
      [
        "Ġpresident",
        -8.830033886046934
      ],
      [
        "Ġnumber",
        -8.832608536740812
      ],
      [
        "Ġfour",
        -8.843464390632167
      ],
      [
        "Ġwear",
        -8.846383576878978
      ],
      [
        "Ġjohn",
        -8.84692933587999
      ],
      [
        "Ġpaper",
        -8.848043848909326
      ],
      [
        "Ġpants",
        -8.848887855133617
      ],
      [
        "Ġhole",
        -8.85087836593574
      ],
      [
        "Ġear",
        -8.85094549583462
      ],
      [
        "Ġsign",
        -8.851720162026295
      ],
      [
        "Ġtimes",
        -8.851989951878556
      ],
      [
        "Ġchinese",
        -8.854179770516929
      ],
      [
        "Ġmight",
        -8.856351855631075
      ],
      [
        "Ġtaking",
        -8.858313004570464
      ],
      [
        "Ġbecome",
        -8.858783095366114
      ],
      [
        "Ġtest",
        -8.858828534534085
      ],
      [
        "Ġokay",
        -8.860191909447597
      ],
      [
        "Ġquick",
        -8.861411813274048
      ],
      [
        "Ġsmell",
        -8.862008944092514
      ],
      [
        "Ġoutside",
        -8.863522972442404
      ],
      [
        "Ġplane",
        -8.866934451677409
      ],
      [
        "Ġshop",
        -8.867705254160459
      ],
      [
        "Ġtoilet",
        -8.868851538329704
      ],
      [
        "Ġgroup",
        -8.87043309018289
      ],
      [
        "Ġgirls",
        -8.870466564651565
      ],
      [
        "Ġcause",
        -8.877468486513463
      ],
      [
        "Ġsuddenly",
        -8.884336924279333
      ],
      [
        "Ġidea",
        -8.884446800803676
      ],
      [
        "Ġpatient",
        -8.887683419816137
      ],
      [
        "Ġjump",
        -8.891057082880486
      ],
      [
        "Ġmind",
        -8.894723692341644
      ],
      [
        "Ġfrench",
        -8.895701200639866
      ],
      [
        "Ġletter",
        -8.897309125285283
      ],
      [
        "Ġtop",
        -8.900710910740882
      ],
      [
        "Ġcut",
        -8.901263102407874
      ],
      [
        "Ġfight",
        -8.905954056514014
      ],
      [
        "Ġ50",
        -8.906612364033213
      ],
      [
        "Ġleast",
        -8.912833098983041
      ],
      [
        "Ġdrive",
        -8.912902891635953
      ],
      [
        "us",
        -8.91362627686462
      ],
      [
        "Ġbeautiful",
        -8.914235179667708
      ],
      [
        "Ġcount",
        -8.914865552596998
      ],
      [
        "Ġcourse",
        -8.915312969242784
      ],
      [
        "Ġbeat",
        -8.91601798757963
      ],
      [
        "Ġlate",
        -8.91604813304838
      ],
      [
        "Ġreddit",
        -8.918724731638902
      ],
      [
        "Ġinstead",
        -8.920761584538738
      ],
      [
        "Ġ8",
        -8.924966981302337
      ],
      [
        "Ġsuch",
        -8.927322260831632
      ],
      [
        "Ġq",
        -8.927680394856967
      ],
      [
        "Ġwouldn",
        -8.928010316146063
      ],
      [
        "Ġwall",
        -8.928281711309651
      ],
      [
        "Ġ100",
        -8.932773925345328
      ],
      [
        "Ġmiss",
        -8.932872970602666
      ],
      [
        "Ġmove",
        -8.935962889990886
      ],
      [
        "Ġmouth",
        -8.93644433239974
      ],
      [
        "Ġreturn",
        -8.937903553118833
      ],
      [
        "Ġhours",
        -8.939714360469468
      ],
      [
        "Ġrestaurant",
        -8.939731095180003
      ],
      [
        "Ġthanks",
        -8.946916704048935
      ],
      [
        "Ġelse",
        -8.952256007052771
      ],
      [
        "Ġbusiness",
        -8.95485448848317
      ],
      [
        "Ġstar",
        -8.955847680462819
      ],
      [
        "Ġrunning",
        -8.956112740460583
      ],
      [
        "Ġwindow",
        -8.957030312749088
      ],
      [
        "Ġmoment",
        -8.959574448261444
      ],
      [
        "Ġshort",
        -8.960140095430976
      ],
      [
        "Ġworking",
        -8.962736222726644
      ],
      [
        "Ġbathroom",
        -8.963333909790288
      ],
      [
        "Ġunderstand",
        -8.964512910571873
      ],
      [
        "across",
        -8.9653354391775
      ],
      [
        "and",
        -8.965617413592794
      ],
      [
        "Ġmillion",
        -8.9739243111248
      ],
      [
        "Ġfive",
        -8.97617589117346
      ],
      [
        "Ġago",
        -8.97625177420129
      ],
      [
        "Ġwanna",
        -8.976788639001429
      ],
      [
        "Ġmeet",
        -8.978692808365919
      ],
      [
        "Ġmine",
        -8.978779360845262
      ],
      [
        "Ġmiddle",
        -8.979856057462648
      ],
      [
        "Ġcold",
        -8.98388383792611
      ],
      [
        "Ġnear",
        -8.987578335729982
      ],
      [
        "Ġpiece",
        -8.992158362260975
      ],
      [
        "Ġwords",
        -8.993569905519248
      ],
      [
        "Ġstay",
        -8.99601458619792
      ],
      [
        "Ġfollow",
        -8.997361654358718
      ],
      [
        "ever",
        -8.999155689293051
      ],
      [
        "Ġstudent",
        -9.00456061152228
      ],
      [
        "Ġran",
        -9.00497018142324
      ],
      [
        "Ġfine",
        -9.007779244272353
      ],
      [
        "Ġstory",
        -9.012505291705041
      ],
      [
        "Ġcountry",
        -9.019469501858554
      ],
      [
        "Ġthank",
        -9.02520666553343
      ],
      [
        "Ġground",
        -9.030424039265556
      ],
      [
        "Ġlawyer",
        -9.033268158028704
      ],
      [
        "Ġtaste",
        -9.033672233420836
      ],
      [
        "Ġbag",
        -9.034430877386777
      ],
      [
        "Ġpoint",
        -9.035819108244477
      ],
      [
        "Ġfloor",
        -9.036334129529601
      ],
      [
        "Ġyet",
        -9.040219073416392
      ],
      [
        "Ġduck",
        -9.040836507489482
      ],
      [
        "Ġrussian",
        -9.040908809025076
      ],
      [
        "Ġdeath",
        -9.04159160732666
      ],
      [
        "Ġknew",
        -9.042718709629728
      ],
      [
        "Ġhitler",
        -9.044512167569035
      ],
      [
        "Ġvisit",
        -9.04827958846979
      ],
      [
        "Ġwearing",
        -9.048969423133153
      ],
      [
        "Ġroll",
        -9.049811888322253
      ],
      [
        "an",
        -9.05121140596965
      ],
      [
        "Ġsmile",
        -9.054012660918849
      ],
      [
        "Ġrecently",
        -9.057867753083132
      ],
      [
        "Ġrealize",
        -9.061395945637152
      ],
      [
        "Ġelephant",
        -9.061460203152851
      ],
      [
        "Ġfly",
        -9.062866252369151
      ],
      [
        "Ġtelling",
        -9.06329088587811
      ],
      [
        "Ġspeak",
        -9.063732779626983
      ],
      [
        "Ġsurprise",
        -9.065147537164625
      ],
      [
        "Ġblow",
        -9.066353975418494
      ],
      [
        "Ġstupid",
        -9.06998879127312
      ],
      [
        "Ġsell",
        -9.072559110359864
      ],
      [
        "Ġset",
        -9.073715499676936
      ],
      [
        "Ġmilk",
        -9.075087987936628
      ],
      [
        "Ġheaven",
        -9.078791717069246
      ],
      [
        "Ġfeet",
        -9.081168214170416
      ],
      [
        "Ġlocal",
        -9.084933910473975
      ],
      [
        "Ġchurch",
        -9.085744251136692
      ],
      [
        "Ġaren",
        -9.087372223558086
      ],
      [
        "Ġlearn",
        -9.08946876661908
      ],
      [
        "Ġapparentl",
        -9.092869006660187
      ],
      [
        "Ġexplain",
        -9.094479792342202
      ],
      [
        "Ġnsfw",
        -9.095497207204053
      ],
      [
        "Ġthough",
        -9.096481429992677
      ],
      [
        "Ġhoney",
        -9.097468011698185
      ],
      [
        "Ġpast",
        -9.101489690397736
      ],
      [
        "Ġdrinking",
        -9.101672145874016
      ],
      [
        "Ġgun",
        -9.102837363715036
      ],
      [
        "Ġwow",
        -9.106255354223656
      ],
      [
        "Ġbox",
        -9.108637442015965
      ],
      [
        "Ġpoor",
        -9.10911817632372
      ],
      [
        "Ġrest",
        -9.11144593663182
      ],
      [
        "Ġstanding",
        -9.114198202133922
      ],
      [
        "Ġhospital",
        -9.11427968623796
      ],
      [
        "Ġthinks",
        -9.114338344759926
      ],
      [
        "Ġlarge",
        -9.114481327603794
      ],
      [
        "Ġpeter",
        -9.114589206625222
      ],
      [
        "Ġbank",
        -9.116309894886513
      ],
      [
        "Ġmatter",
        -9.117872275833331
      ],
      [
        "Ġbirthday",
        -9.118243159222988
      ],
      [
        "Ġenter",
        -9.12266485395652
      ],
      [
        "Ġfun",
        -9.122791733211754
      ],
      [
        "Ġdark",
        -9.122849651740111
      ],
      [
        "Ġamerica",
        -9.123416559777182
      ],
      [
        "Ġscrew",
        -9.12507918135895
      ],
      [
        "Ġpizza",
        -9.126202691180561
      ],
      [
        "Ġdamn",
        -9.128487257443512
      ],
      [
        "Ġpirate",
        -9.13492115134281
      ],
      [
        "Ġfinal",
        -9.13659945244973
      ],
      [
        "Ġhope",
        -9.137569905544671
      ],
      [
        "Ġsoon",
        -9.137976606071504
      ],
      [
        "Ġfast",
        -9.138240957846156
      ],
      [
        "Ġworst",
        -9.13918448619863
      ],
      [
        "Ġair",
        -9.146022881469337
      ],
      [
        "Ġkick",
        -9.147651542114986
      ],
      [
        "Ġbroke",
        -9.148137210943126
      ],
      [
        "Ġten",
        -9.148484997928026
      ],
      [
        "Ġballs",
        -9.152681644813494
      ],
      [
        "Ġcaugh",
        -9.15273824894048
      ],
      [
        "Ġcheese",
        -9.157718090776976
      ],
      [
        "Ġnobody",
        -9.160461646681803
      ],
      [
        "Ġ30",
        -9.163769389746612
      ],
      [
        "Ġlightbulb",
        -9.164923800503287
      ],
      [
        "Ġfar",
        -9.165937048885459
      ],
      [
        "Ġpregnan",
        -9.166872639837464
      ],
      [
        "Ġslow",
        -9.167737727811133
      ],
      [
        "Ġblood",
        -9.169093958647336
      ],
      [
        "Ġvoice",
        -9.170001223819094
      ],
      [
        "Ġsend",
        -9.170917640618509
      ],
      [
        "Ġjewish",
        -9.171734623595425
      ],
      [
        "Ġbottle",
        -9.1726768975814
      ],
      [
        "Ġapple",
        -9.172701632297834
      ],
      [
        "Ġleg",
        -9.176171921763848
      ],
      [
        "Ġsick",
        -9.177755265557678
      ],
      [
        "Ġdrop",
        -9.17805925701323
      ],
      [
        "Ġhaven",
        -9.179831542058768
      ],
      [
        "Ġnun",
        -9.180149488614738
      ],
      [
        "Ġhi",
        -9.180877998034383
      ],
      [
        "Ġconfused",
        -9.182687731565823
      ],
      [
        "Ġseat",
        -9.182972108839651
      ],
      [
        "Ġtype",
        -9.183290228538139
      ],
      [
        "Ġgenie",
        -9.191252742755173
      ],
      [
        "Ġdifferent",
        -9.194694970550342
      ],
      [
        "Ġcomputer",
        -9.19493595405725
      ],
      [
        "Ġgrow",
        -9.196428427053524
      ],
      [
        "Ġpark",
        -9.196566668128838
      ],
      [
        "Ġsingle",
        -9.19859249989416
      ],
      [
        "Ġex",
        -9.200335225686155
      ],
      [
        "Ġbulb",
        -9.201916228943196
      ],
      [
        "Ġafraid",
        -9.202864632512975
      ],
      [
        "Ġhold",
        -9.203315286768245
      ],
      [
        "Ġball",
        -9.205267016437839
      ],
      [
        "Ġcase",
        -9.205384931859962
      ],
      [
        "Ġstick",
        -9.205785170273373
      ],
      [
        "Ġhour",
        -9.208279806487427
      ],
      [
        "Ġusing",
        -9.209180895337148
      ],
      [
        "Ġgreen",
        -9.209194425265702
      ],
      [
        "Ġsound",
        -9.209847389847708
      ],
      [
        "Ġcool",
        -9.212430720633288
      ],
      [
        "Ġfemale",
        -9.212715186048943
      ],
      [
        "thinking",
        -9.213591460941128
      ],
      [
        "Ġhappens",
        -9.217247375584622
      ],
      [
        "Ġtown",
        -9.224938631768683
      ],
      [
        "Ġmaybe",
        -9.225688631736631
      ],
      [
        "Ġstuck",
        -9.226939713300382
      ],
      [
        "Ġsanta",
        -9.227321004764633
      ],
      [
        "Ġcomplete",
        -9.22804125098547
      ],
      [
        "Ġtouch",
        -9.228770140215357
      ],
      [
        "Ġsad",
        -9.229317732407731
      ],
      [
        "ate",
        -9.229539315108342
      ],
      [
        "Ġsea",
        -9.230011976210914
      ],
      [
        "Ġborn",
        -9.230209271704581
      ],
      [
        "Ġsometime",
        -9.231619908388613
      ],
      [
        "either",
        -9.231912386399705
      ],
      [
        "Ġenglish",
        -9.233747031647766
      ],
      [
        "Ġneighbor",
        -9.23679670264511
      ],
      [
        "Ġglass",
        -9.23742189050418
      ],
      [
        "Ġagree",
        -9.237957610437379
      ],
      [
        "Ġyourself",
        -9.238369124074227
      ],
      [
        "Ġearth",
        -9.238608666487337
      ],
      [
        "Ġblue",
        -9.239021591578545
      ],
      [
        "Ġheart",
        -9.240336433186235
      ],
      [
        "Ġbreak",
        -9.242595033054886
      ],
      [
        "Ġ12",
        -9.248865531231434
      ],
      [
        "Ġasshole",
        -9.251762612858334
      ],
      [
        "Ġfavourite",
        -9.256124610072046
      ],
      [
        "where",
        -9.257559257791026
      ],
      [
        "Ġworry",
        -9.258042672650102
      ],
      [
        "Ġkilled",
        -9.258381765743668
      ],
      [
        "Ġnuts",
        -9.258538370199284
      ],
      [
        "Ġcream",
        -9.25934380507443
      ],
      [
        "Ġwaiting",
        -9.260565365598797
      ],
      [
        "Ġtrain",
        -9.260878561114406
      ],
      [
        "Ġfeeling",
        -9.260924370852791
      ],
      [
        "Ġcatch",
        -9.26132527837764
      ],
      [
        "Ġstraight",
        -9.262769119242343
      ],
      [
        "Ġgrandpa",
        -9.263664223722145
      ],
      [
        "Ġkept",
        -9.266781479365614
      ],
      [
        "he",
        -9.266817508553764
      ],
      [
        "Ġsit",
        -9.268567534463843
      ],
      [
        "Ġreason",
        -9.274193779628723
      ],
      [
        "Ġwake",
        -9.276751787780057
      ],
      [
        "Ġmusic",
        -9.280643188549137
      ],
      [
        "the",
        -9.280888242037134
      ],
      [
        "Ġnaked",
        -9.281466201603518
      ],
      [
        "Ġbird",
        -9.282337739231128
      ],
      [
        "Ġsong",
        -9.282513962956449
      ],
      [
        "Ġdress",
        -9.285454062070642
      ],
      [
        "Ġmeans",
        -9.28671560048604
      ],
      [
        "Ġsave",
        -9.287010286608101
      ],
      [
        "Ġdollar",
        -9.290639298200222
      ],
      [
        "Ġprostitute",
        -9.294703764325671
      ],
      [
        "Ġclub",
        -9.296296604303311
      ],
      [
        "Ġdaddy",
        -9.299457128718249
      ],
      [
        "terrible",
        -9.301841704166591
      ],
      [
        "giving",
        -9.302568768092515
      ],
      [
        "Ġboyfriend",
        -9.302658153573475
      ],
      [
        "Ġalmost",
        -9.30308162856364
      ],
      [
        "Ġking",
        -9.305025040641834
      ],
      [
        "Ġhuge",
        -9.305602987606576
      ],
      [
        "Ġarms",
        -9.307492033890927
      ],
      [
        "Ġdude",
        -9.309853755624445
      ],
      [
        "Ġcook",
        -9.31163988528613
      ],
      [
        "Ġ11",
        -9.31194489229155
      ],
      [
        "Ġsix",
        -9.312321825477376
      ],
      [
        "Ġhappene",
        -9.324018749479919
      ],
      [
        "Ġliving",
        -9.325462237440352
      ],
      [
        "Ġtrue",
        -9.326358341994828
      ],
      [
        "Ġcrying",
        -9.330464245453232
      ],
      [
        "Ġquite",
        -9.333836522578682
      ],
      [
        "Ġleaves",
        -9.337973218644667
      ],
      [
        "Ġburn",
        -9.33978226061062
      ],
      [
        "Ġcharge",
        -9.341977872801447
      ],
      [
        "Ġspace",
        -9.346364327202757
      ],
      [
        "Ġstep",
        -9.347065956730457
      ],
      [
        "Ġjew",
        -9.34776415038223
      ],
      [
        "Ġshoot",
        -9.348055880812769
      ],
      [
        "Ġjack",
        -9.349085325164374
      ],
      [
        "Ġsits",
        -9.351431089581173
      ],
      [
        "Ġ000",
        -9.352013783510587
      ],
      [
        "Ġdear",
        -9.35327062830785
      ],
      [
        "Ġfinger",
        -9.354314489422624
      ],
      [
        "Ġgas",
        -9.354352046242253
      ],
      [
        "Ġfigure",
        -9.359761548892898
      ],
      [
        "stopped",
        -9.362303252167468
      ],
      [
        "dollars",
        -9.362730539544922
      ],
      [
        "Ġlose",
        -9.363537151393041
      ],
      [
        "Ġage",
        -9.363655237763993
      ],
      [
        "Ġnone",
        -9.36388678991196
      ],
      [
        "Ġrabbit",
        -9.364604659437127
      ],
      [
        "Ġarm",
        -9.364796491683911
      ],
      [
        "Ġfoot",
        -9.365603910169474
      ],
      [
        "Ġbread",
        -9.366148246216575
      ],
      [
        "Ġjudge",
        -9.367483103184309
      ],
      [
        "Ġmeat",
        -9.368280873836262
      ],
      [
        "Ġwrite",
        -9.369117855185458
      ],
      [
        "Ġperfect",
        -9.369787404911822
      ],
      [
        "Ġengineer",
        -9.375592564386638
      ],
      [
        "Ġstuff",
        -9.37702224981961
      ],
      [
        "Ġlaughing",
        -9.377184821574179
      ],
      [
        "Ġboat",
        -9.380546912446025
      ],
      [
        "Ġmad",
        -9.381651174605704
      ],
      [
        "Ġclean",
        -9.382103930135468
      ],
      [
        "Ġcare",
        -9.383296594167952
      ],
      [
        "Ġbuilding",
        -9.383483681659309
      ],
      [
        "Ġclear",
        -9.383728302765917
      ],
      [
        "Ġbegin",
        -9.387554295045412
      ],
      [
        "Ġarrive",
        -9.390982204933378
      ],
      [
        "Ġmale",
        -9.391173964252213
      ],
      [
        "Ġtonight",
        -9.392018353259513
      ],
      [
        "Ġimmediatel",
        -9.395220014581827
      ],
      [
        "Ġmath",
        -9.395760067039344
      ],
      [
        "Ġrock",
        -9.39616529133491
      ],
      [
        "Ġindian",
        -9.39690103731079
      ],
      [
        "Ġshoes",
        -9.398263964046924
      ],
      [
        "Ġbob",
        -9.398326556040203
      ],
      [
        "up",
        -9.400194244059087
      ],
      [
        "Ġwedding",
        -9.401327135448364
      ],
      [
        "Ġowner",
        -9.40523693703899
      ],
      [
        "Ġwaiter",
        -9.406666874306364
      ],
      [
        "ce",
        -9.40731885961031
      ],
      [
        "Ġsent",
        -9.410162926891946
      ],
      [
        "Ġnose",
        -9.410730482858074
      ],
      [
        "Ġkitchen",
        -9.411351217654637
      ],
      [
        "Ġclothes",
        -9.414986373820483
      ],
      [
        "Ġdeep",
        -9.415757882783947
      ],
      [
        "Ġraise",
        -9.417124811754736
      ],
      [
        "Ġminute",
        -9.417725363470073
      ],
      [
        "Ġporn",
        -9.420193430974006
      ],
      [
        "Ġrabbi",
        -9.420558373924466
      ],
      [
        "Ġnurse",
        -9.421670007012278
      ],
      [
        "Ġagainst",
        -9.423670618955299
      ],
      [
        "Ġlisten",
        -9.424317122418582
      ],
      [
        "j",
        -9.426003037835597
      ],
      [
        "Ġkeeps",
        -9.43063115947795
      ],
      [
        "Ġparrot",
        -9.431578067789886
      ],
      [
        "Ġentire",
        -9.434106189092919
      ],
      [
        "Ġscientist",
        -9.436058073258755
      ],
      [
        "Ġfact",
        -9.436213010518934
      ],
      [
        "Ġcontinue",
        -9.438132798008843
      ],
      [
        "Ġtext",
        -9.438477565042888
      ],
      [
        "Ġfrog",
        -9.439447688452702
      ],
      [
        "Ġrace",
        -9.439715230736686
      ],
      [
        "Ġracist",
        -9.442769749525498
      ],
      [
        "Ġtired",
        -9.444006412781203
      ],
      [
        "Ġshower",
        -9.446945026367661
      ],
      [
        "Ġring",
        -9.448639299242561
      ],
      [
        "Ġcrazy",
        -9.45027781975826
      ],
      [
        "Ġeasy",
        -9.45066942713565
      ],
      [
        "Ġdogs",
        -9.452332789522973
      ],
      [
        "Ġpicture",
        -9.452549112499849
      ],
      [
        "Ġgone",
        -9.454232048347516
      ],
      [
        "Ġwar",
        -9.4551494686175
      ],
      [
        "Ġsuper",
        -9.455927832792682
      ],
      [
        "Ġcompany",
        -9.45648002472981
      ],
      [
        "Ġalong",
        -9.457944847828603
      ],
      [
        "Ġsuck",
        -9.45931903028265
      ],
      [
        "Ġhuman",
        -9.459848463212937
      ],
      [
        "Ġmachine",
        -9.460133058457895
      ],
      [
        "Ġbrown",
        -9.46159316338398
      ],
      [
        "Ġwin",
        -9.462653476246983
      ],
      [
        "Ġready",
        -9.46427154460065
      ],
      [
        "ugly",
        -9.464461463068595
      ],
      [
        "Ġlion",
        -9.468797263491028
      ],
      [
        "Ġcaptain",
        -9.468840627521534
      ],
      [
        "Ġexclaim",
        -9.47153592320068
      ],
      [
        "Ġitalian",
        -9.481157456676051
      ],
      [
        "Ġangry",
        -9.481248868668345
      ],
      [
        "Ġtrip",
        -9.48158832464529
      ],
      [
        "Ġserve",
        -9.482917601899217
      ],
      [
        "Ġremove",
        -9.484737338720887
      ],
      [
        "Ġcock",
        -9.48528036805632
      ],
      [
        "Ġplayer",
        -9.487946036033488
      ],
      [
        "Ġdeer",
        -9.48905348088619
      ],
      [
        "Ġweird",
        -9.48925290561374
      ],
      [
        "Ġforgot",
        -9.489314977822785
      ],
      [
        "Ġcomplain",
        -9.48971844817422
      ],
      [
        "Ġtruck",
        -9.49184411645416
      ],
      [
        "Ġfart",
        -9.498201086159341
      ],
      [
        "Ġtomorrow",
        -9.499077016546895
      ],
      [
        "Ġfuneral",
        -9.502941392487083
      ],
      [
        "Ġsmart",
        -9.5036143730517
      ],
      [
        "Ġcup",
        -9.504077088326765
      ],
      [
        "Ġfield",
        -9.504319106474949
      ],
      [
        "Ġtrouble",
        -9.505477843754832
      ],
      [
        "Ġspend",
        -9.507813470039702
      ],
      [
        "Ġcover",
        -9.507913304716745
      ],
      [
        "Ġ15",
        -9.508698571181288
      ],
      [
        "head",
        -9.509404505304413
      ],
      [
        "Ġpilot",
        -9.511079944570778
      ],
      [
        "Ġprison",
        -9.512308432326682
      ],
      [
        "Ġbunch",
        -9.513676186896001
      ],
      [
        "Ġpet",
        -9.514044890600545
      ],
      [
        "Ġmate",
        -9.51551291851148
      ],
      [
        "Ġcredit",
        -9.515741572232741
      ],
      [
        "Ġcalls",
        -9.51642376876631
      ],
      [
        "Ġanymor",
        -9.516708831775059
      ],
      [
        "Ġsentence",
        -9.522264091452225
      ],
      [
        "Ġsteal",
        -9.525065433337296
      ],
      [
        "Ġmuslim",
        -9.525510409305205
      ],
      [
        "Ġidiot",
        -9.527539244268576
      ],
      [
        "Ġallow",
        -9.527668510828288
      ],
      [
        "Ġteam",
        -9.529786275541987
      ],
      [
        "Ġsmoke",
        -9.531907992947058
      ],
      [
        "Ġsecret",
        -9.53213984526247
      ],
      [
        "Ġcustomer",
        -9.532595980202135
      ],
      [
        "Ġpocket",
        -9.53450806300626
      ],
      [
        "Ġsheep",
        -9.536387368769017
      ],
      [
        "Ġpack",
        -9.536963971580967
      ],
      [
        "Ġfit",
        -9.539040412372882
      ],
      [
        "Ġworse",
        -9.539123256172612
      ],
      [
        "Ġanimal",
        -9.53985091085007
      ],
      [
        "z",
        -9.540586101999905
      ],
      [
        "Ġbreakfast",
        -9.541189968140891
      ],
      [
        "Ġasian",
        -9.541412398630147
      ],
      [
        "Ġstate",
        -9.542111889907135
      ],
      [
        "Ġmanager",
        -9.542951644448788
      ],
      [
        "Ġhang",
        -9.543967906979436
      ],
      [
        "Ġcancer",
        -9.545374408314144
      ],
      [
        "Ġpussy",
        -9.546244798714032
      ],
      [
        "Ġalone",
        -9.546361416883487
      ],
      [
        "Ġpig",
        -9.546672136550606
      ],
      [
        "Ġdoc",
        -9.5470191137236
      ],
      [
        "Ġrich",
        -9.54749484846035
      ],
      [
        "Ġfired",
        -9.548951411474329
      ],
      [
        "Ġghost",
        -9.549752488655734
      ],
      [
        "Ġmarriage",
        -9.550699576483733
      ],
      [
        "Ġpair",
        -9.55161661218305
      ],
      [
        "Ġdivorce",
        -9.552076020776767
      ],
      [
        "Ġchair",
        -9.55327230706402
      ],
      [
        "Ġpee",
        -9.556934632424014
      ],
      [
        "Ġtea",
        -9.559540933061083
      ],
      [
        "Ġgolf",
        -9.559837269041132
      ],
      [
        "Ġlonger",
        -9.560866578748765
      ],
      [
        "Ġpunch",
        -9.561589520991888
      ],
      [
        "runs",
        -9.562315048292561
      ],
      [
        "Ġorange",
        -9.562359782165728
      ],
      [
        "Ġfinish",
        -9.564570989507835
      ],
      [
        "Ġbeach",
        -9.565686777192784
      ],
      [
        "Ġround",
        -9.56683105837983
      ],
      [
        "Ġnote",
        -9.569756550935507
      ],
      [
        "Ġland",
        -9.570613617926323
      ],
      [
        "Ġforget",
        -9.572305791072235
      ],
      [
        "Ġband",
        -9.574252830009492
      ],
      [
        "Ġholy",
        -9.574976555047693
      ],
      [
        "Ġegg",
        -9.577202161892501
      ],
      [
        "Ġinternet",
        -9.577357437793617
      ],
      [
        "Ġconversation",
        -9.577962373860053
      ],
      [
        "Ġoffer",
        -9.579025092757467
      ],
      [
        "Ġbrought",
        -9.57910435785281
      ],
      [
        "ten",
        -9.580098630599501
      ],
      [
        "Ġaccidental",
        -9.581010793455533
      ],
      [
        "pulls",
        -9.581297367716948
      ],
      [
        "Ġresponded",
        -9.581389218695017
      ],
      [
        "Ġha",
        -9.581749101654175
      ],
      [
        "Ġpaint",
        -9.582172062112114
      ],
      [
        "Ġstation",
        -9.583023347578866
      ],
      [
        "Ġbroken",
        -9.583760317666378
      ],
      [
        "ment",
        -9.58443973718001
      ],
      [
        "Ġcannibal",
        -9.584828281140961
      ],
      [
        "men",
        -9.586240035721023
      ],
      [
        "Ġbike",
        -9.589619718239028
      ],
      [
        "Ġlunch",
        -9.58992296007873
      ],
      [
        "Ġthrew",
        -9.591037856998538
      ],
      [
        "Ġcarry",
        -9.592437703806201
      ],
      [
        "Ġpush",
        -9.594937183288916
      ],
      [
        "Ġhello",
        -9.595569060413386
      ],
      [
        "Ġfelt",
        -9.596072757452191
      ],
      [
        "Ġshouldn",
        -9.596712614788604
      ],
      [
        "Ġgrandfather",
        -9.596723146745983
      ],
      [
        "Ġcost",
        -9.60067970005917
      ],
      [
        "Ġdentist",
        -9.60098902176247
      ],
      [
        "Ġwoke",
        -9.601707276956382
      ],
      [
        "Ġhurt",
        -9.602812602996286
      ],
      [
        "Ġgrandma",
        -9.602849962618038
      ],
      [
        "Ġaccident",
        -9.60290247192955
      ],
      [
        "Ġsnow",
        -9.603053952307837
      ],
      [
        "Ġreading",
        -9.60548522870231
      ],
      [
        "Ġzoo",
        -9.609658149252784
      ],
      [
        "Ġdream",
        -9.61336020685964
      ],
      [
        "Ġputs",
        -9.61390691514749
      ],
      [
        "Ġhowever",
        -9.613967356235054
      ],
      [
        "Ġsun",
        -9.613977931845984
      ],
      [
        "Ġrelationship",
        -9.615375564941717
      ],
      [
        "Ġlesbian",
        -9.61669941453427
      ],
      [
        "Ġfruit",
        -9.618599084766938
      ],
      [
        "Ġcollege",
        -9.622109727434747
      ],
      [
        "Ġladies",
        -9.623167607256368
      ],
      [
        "Ġbabies",
        -9.62317600761492
      ],
      [
        "Ġbitch",
        -9.62388527364229
      ],
      [
        "Ġfill",
        -9.625266097692212
      ],
      [
        "Ġloud",
        -9.626241941258487
      ],
      [
        "Ġpain",
        -9.627565368899983
      ],
      [
        "Ġadd",
        -9.627863358341372
      ],
      [
        "Ġwhisper",
        -9.628336790501047
      ],
      [
        "Ġsandwich",
        -9.629965496967419
      ],
      [
        "Ġattack",
        -9.630275686446232
      ],
      [
        "Ġsoldier",
        -9.630889616766751
      ],
      [
        "Ġgold",
        -9.633557416467042
      ],
      [
        "Ġshut",
        -9.634818434752393
      ],
      [
        "taken",
        -9.63589948504691
      ],
      [
        "Ġdirty",
        -9.638139848442313
      ],
      [
        "Ġfinished",
        -9.638665015183395
      ],
      [
        "Ġanyway",
        -9.640598876624148
      ],
      [
        "Ġstole",
        -9.643166337824663
      ],
      [
        "Ġchocolate",
        -9.646407931820029
      ],
      [
        "Ġseeing",
        -9.646532710068934
      ],
      [
        "0",
        -9.646592504008439
      ],
      [
        "Ġservice",
        -9.649502012597207
      ],
      [
        "Ġbuddy",
        -9.65012761222944
      ],
      [
        "Ġsounds",
        -9.650144498781472
      ],
      [
        "Ġcake",
        -9.650605859303273
      ],
      [
        "Ġlanguage",
        -9.655212231607738
      ],
      [
        "Ġproud",
        -9.655448329371843
      ],
      [
        "Ġalright",
        -9.656323649391677
      ],
      [
        "Ġticket",
        -9.658919492861035
      ],
      [
        "Ġdrug",
        -9.65895102405292
      ],
      [
        "Ġirish",
        -9.659675577095785
      ],
      [
        "Ġeggs",
        -9.660913804493276
      ],
      [
        "Ġcorrect",
        -9.66447108071235
      ],
      [
        "Ġdeal",
        -9.66475979305466
      ],
      [
        "upon",
        -9.665507331242303
      ],
      [
        "Ġbanana",
        -9.667590196427117
      ],
      [
        "ally",
        -9.66954632492098
      ],
      [
        "Ġbowl",
        -9.67080643913496
      ],
      [
        "year",
        -9.674438182153619
      ],
      [
        "Ġuncle",
        -9.674439247391105
      ],
      [
        "Ġspecial",
        -9.674782956006343
      ],
      [
        "Ġcity",
        -9.674949799309701
      ],
      [
        "Ġsense",
        -9.675472549700224
      ],
      [
        "Ġwine",
        -9.67572050299478
      ],
      [
        "Ġpool",
        -9.677207093720241
      ],
      [
        "Ġstops",
        -9.677445655466002
      ],
      [
        "Ġspell",
        -9.67765532087626
      ],
      [
        "Ġact",
        -9.68264462963105
      ],
      [
        "Ġclock",
        -9.686009636998484
      ],
      [
        "Ġmidget",
        -9.687476881218496
      ],
      [
        "Ġtoward",
        -9.69269603257705
      ],
      [
        "Ġappear",
        -9.692834986599713
      ],
      [
        "Ġjapanese",
        -9.694822260918084
      ],
      [
        "Ġmary",
        -9.699540459428508
      ],
      [
        "Ġexcuse",
        -9.700551563985169
      ],
      [
        "Ġmichael",
        -9.701251968386355
      ],
      [
        "Ġopens",
        -9.70279888452674
      ],
      [
        "Ġexcept",
        -9.703248754903283
      ],
      [
        "ness",
        -9.703337179106528
      ],
      [
        "Ġshirt",
        -9.7050193508354
      ],
      [
        "Ġtravel",
        -9.705773498109078
      ],
      [
        "Ġbang",
        -9.707181720424263
      ],
      [
        "Ġsupport",
        -9.707371578945706
      ],
      [
        "Ġsuicide",
        -9.707770175643422
      ],
      [
        "Ġreach",
        -9.710144054051957
      ],
      [
        "Ġmama",
        -9.711397493076053
      ],
      [
        "Ġanti",
        -9.712983843443501
      ],
      [
        "Ġcounter",
        -9.713293669191877
      ],
      [
        "twice",
        -9.713657101714528
      ],
      [
        "Ġvegan",
        -9.715415407918169
      ],
      [
        "Ġamazing",
        -9.715651438622562
      ],
      [
        "Ġhide",
        -9.715821330856429
      ],
      [
        "Ġinterview",
        -9.716664886422848
      ],
      [
        "old",
        -9.717460410178777
      ],
      [
        "Ġdiscover",
        -9.717871376609102
      ],
      [
        "Ġteeth",
        -9.71911393153212
      ],
      [
        "Ġmirror",
        -9.719774537706797
      ],
      [
        "Ġeventual",
        -9.720285852262933
      ],
      [
        "Ġvideo",
        -9.721399339596088
      ],
      [
        "Ġholding",
        -9.721803625644165
      ],
      [
        "Ġfeminist",
        -9.72192303870334
      ],
      [
        "Ġmum",
        -9.722603255479584
      ],
      [
        "Ġmonkey",
        -9.723565952216205
      ],
      [
        "Ġjews",
        -9.723680487488677
      ],
      [
        "Ġneeds",
        -9.724097770375824
      ],
      [
        "Ġshock",
        -9.72547312454251
      ],
      [
        "Ġfacebook",
        -9.725533721895733
      ],
      [
        "Ġbreath",
        -9.725849384481883
      ],
      [
        "Ġcard",
        -9.726837252933285
      ],
      [
        "Ġdroppe",
        -9.727093625249562
      ],
      [
        "Ġdies",
        -9.727798934033583
      ],
      [
        "Ġjoe",
        -9.728497002665982
      ],
      [
        "Ġhearing",
        -9.729607120110066
      ],
      [
        "Ġsupposed",
        -9.730075137010573
      ],
      [
        "Ġexcited",
        -9.730143004261487
      ],
      [
        "Ġflying",
        -9.730904103372849
      ],
      [
        "Ġhotel",
        -9.731433354349988
      ],
      [
        "Ġworks",
        -9.731500177391895
      ],
      [
        "Ġshare",
        -9.732509779838203
      ],
      [
        "Ġmeant",
        -9.7337889694025
      ],
      [
        "Ġbottom",
        -9.734805707903202
      ],
      [
        "Ġsub",
        -9.736052404441388
      ],
      [
        "Ġcrash",
        -9.737866982948145
      ],
      [
        "Ġshoulder",
        -9.739057693463511
      ],
      [
        "Ġenjoy",
        -9.73913834067008
      ],
      [
        "Ġlie",
        -9.739290301122825
      ],
      [
        "Ġmoon",
        -9.740973206936577
      ],
      [
        "Ġmurder",
        -9.74133759004379
      ],
      [
        "Ġdumb",
        -9.741865347794967
      ],
      [
        "Ġclinton",
        -9.742102641886117
      ],
      [
        "Ġperiod",
        -9.742314707713806
      ],
      [
        "Ġcowboy",
        -9.742379177683699
      ],
      [
        "Ġflat",
        -9.743514458198826
      ],
      [
        "Ġma",
        -9.745974788428981
      ],
      [
        "Ġlives",
        -9.746408976942416
      ],
      [
        "Ġcatholic",
        -9.746494833605926
      ],
      [
        "Ġcorner",
        -9.747103091084577
      ],
      [
        "Ġjumps",
        -9.747773378075069
      ],
      [
        "time",
        -9.747860336601052
      ],
      [
        "Ġchance",
        -9.748839224496571
      ],
      [
        "Ġdont",
        -9.74944890032842
      ],
      [
        "Ġleaving",
        -9.750887392142438
      ],
      [
        "hat",
        -9.750890513775001
      ],
      [
        "Ġship",
        -9.75093123189705
      ],
      [
        "Ġvegetable",
        -9.75141431219237
      ],
      [
        "Ġarrest",
        -9.751990360449343
      ],
      [
        "Ġfan",
        -9.754621762240602
      ],
      [
        "Ġweight",
        -9.754925597011875
      ],
      [
        "Ġquiet",
        -9.755173545295815
      ],
      [
        "Ġhealth",
        -9.755907400128532
      ],
      [
        "Ġhillary",
        -9.75628136914198
      ],
      [
        "Ġplan",
        -9.759238935354787
      ],
      [
        "by",
        -9.760104169238769
      ],
      [
        "Ġdating",
        -9.762603673836178
      ],
      [
        "Ġbecame",
        -9.763891642106582
      ],
      [
        "Ġcrack",
        -9.766741678873629
      ],
      [
        "Ġboys",
        -9.767600285399439
      ],
      [
        "Ġbedroom",
        -9.768528966202144
      ],
      [
        "Ġwoods",
        -9.768662756062813
      ],
      [
        "usually",
        -9.768734235295522
      ],
      [
        "Ġfarm",
        -9.768891730611807
      ],
      [
        "Ġpower",
        -9.770299459843908
      ],
      [
        "Ġstands",
        -9.77045918797031
      ],
      [
        "Ġclimb",
        -9.770462214203159
      ],
      [
        "Ġprofessor",
        -9.771456850690711
      ],
      [
        "Ġcows",
        -9.775044273572156
      ],
      [
        "Ġirishman",
        -9.775495484231929
      ],
      [
        "Ġseven",
        -9.776406369846523
      ],
      [
        "Ġride",
        -9.779121089908386
      ],
      [
        "Ġworker",
        -9.784282765350117
      ],
      [
        "Ġdouble",
        -9.7855359673746
      ],
      [
        "Ġvampire",
        -9.78603378917737
      ],
      [
        "Ġcontrol",
        -9.787027312387494
      ],
      [
        "Ġbrain",
        -9.787668248665405
      ],
      [
        "Ġrepost",
        -9.787948770844281
      ],
      [
        "Ġcheat",
        -9.788107149282745
      ],
      [
        "Ġimportant",
        -9.788832602387227
      ],
      [
        "Ġeverybody",
        -9.790595176916673
      ],
      [
        "Ġbigger",
        -9.790782797855453
      ],
      [
        "Ġchina",
        -9.79151642717597
      ],
      [
        "Ġconsider",
        -9.792250820564002
      ],
      [
        "Ġbirth",
        -9.794083079314456
      ],
      [
        "Ġyelled",
        -9.794228350797983
      ],
      [
        "Ġforce",
        -9.794550240580186
      ],
      [
        "fucked",
        -9.794591043059665
      ],
      [
        "Ġstudents",
        -9.796088953543329
      ],
      [
        "Ġfingers",
        -9.79673423947354
      ],
      [
        "Ġwarm",
        -9.798325839743397
      ],
      [
        "Ġhooker",
        -9.799372790190002
      ],
      [
        "Ġhistory",
        -9.799770525089246
      ],
      [
        "Ġapproache",
        -9.802324823514592
      ],
      [
        "Ġcolor",
        -9.802509106763814
      ],
      [
        "Ġmeal",
        -9.803618281176865
      ],
      [
        "Ġkiss",
        -9.803640986320167
      ],
      [
        "Ġfix",
        -9.804956335643935
      ],
      [
        "Ġvirgin",
        -9.805213879501162
      ],
      [
        "Ġriver",
        -9.808713381626447
      ],
      [
        "Ġfail",
        -9.809933830331808
      ],
      [
        "Ġscared",
        -9.813529914433058
      ],
      [
        "Ġsmoking",
        -9.814264061931718
      ],
      [
        "Ġcalm",
        -9.814692286353008
      ],
      [
        "Ġemployee",
        -9.814733346960928
      ],
      [
        "Ġbigges",
        -9.815036743991339
      ],
      [
        "wrote",
        -9.817293438243128
      ],
      [
        "Ġpenguin",
        -9.817815935811206
      ],
      [
        "Ġsleeping",
        -9.817931882786887
      ],
      [
        "Ġchristian",
        -9.819148039902462
      ],
      [
        "Ġoriginal",
        -9.824511495922163
      ],
      [
        "Ġquit",
        -9.824684954719226
      ],
      [
        "Ġnorth",
        -9.826673886342693
      ],
      [
        "Ġflight",
        -9.829134959163078
      ],
      [
        "Ġho",
        -9.829159656324094
      ],
      [
        "Ġempty",
        -9.832731187583827
      ],
      [
        "Ġocean",
        -9.832923582127043
      ],
      [
        "hanging",
        -9.832978949159692
      ],
      [
        "Ġsteak",
        -9.834595099726526
      ],
      [
        "Ġinches",
        -9.834898801115063
      ],
      [
        "Ġfence",
        -9.8351918759089
      ],
      [
        "Ġabsolute",
        -9.835301998888493
      ],
      [
        "Ġcigarette",
        -9.836676719807922
      ],
      [
        "Ġlay",
        -9.837783937700877
      ],
      [
        "Ġseveral",
        -9.839278630952375
      ],
      [
        "Ġmathematician",
        -9.839864102166889
      ],
      [
        "Ġstrong",
        -9.84373313502903
      ],
      [
        "Ġdrugs",
        -9.844379923265638
      ],
      [
        "Ġpoop",
        -9.84449595264705
      ],
      [
        "Ġsafe",
        -9.845447043048582
      ],
      [
        "Ġlaw",
        -9.846093665822796
      ],
      [
        "Ġboard",
        -9.846567991811474
      ],
      [
        "Ġ25",
        -9.848582121361197
      ],
      [
        "Ġunfortunate",
        -9.849221494577467
      ],
      [
        "Ġmommy",
        -9.849229740318318
      ],
      [
        "Ġtrust",
        -9.850682471546232
      ],
      [
        "Ġobama",
        -9.85077028987229
      ],
      [
        "Ġroof",
        -9.855141274848783
      ],
      [
        "Ġlord",
        -9.855203070480293
      ],
      [
        "Ġpublic",
        -9.863418254985405
      ],
      [
        "factory",
        -9.86434138944853
      ],
      [
        "Ġsearch",
        -9.865949373015603
      ],
      [
        "Ġdave",
        -9.866596336650737
      ],
      [
        "Ġstudy",
        -9.866716099236244
      ],
      [
        "Ġhonest",
        -9.86880608887491
      ],
      [
        "Ġreply",
        -9.870396084684234
      ],
      [
        "Ġreceive",
        -9.871651916568442
      ],
      [
        "Ġanimals",
        -9.871839720550948
      ],
      [
        "Ġobvious",
        -9.872585857449664
      ],
      [
        "Ġpresent",
        -9.87273200918097
      ],
      [
        "Ġpub",
        -9.874707658334778
      ],
      [
        "Ġnormal",
        -9.875224233634661
      ],
      [
        "older",
        -9.875247858359053
      ],
      [
        "Ġclown",
        -9.87620846884516
      ],
      [
        "Ġcats",
        -9.877595857165064
      ],
      [
        "Ġcourt",
        -9.877978639309362
      ],
      [
        "Ġdance",
        -9.880945446488361
      ],
      [
        "Ġmarry",
        -9.880999084368954
      ],
      [
        "Ġlying",
        -9.882330992437609
      ],
      [
        "Ġbrunette",
        -9.88353083084378
      ],
      [
        "Ġclerk",
        -9.883729033708402
      ],
      [
        "Ġco",
        -9.886436804242418
      ],
      [
        "Ġproceed",
        -9.886495497374682
      ],
      [
        "Ġwhale",
        -9.88713274695464
      ],
      [
        "Ġoften",
        -9.887313922669243
      ],
      [
        "Ġcashier",
        -9.88764672352874
      ],
      [
        "Ġchuck",
        -9.887877776516078
      ],
      [
        "or",
        -9.888253895288898
      ],
      [
        "Ġpunchline",
        -9.889209586396335
      ],
      [
        "Ġupset",
        -9.890708943652903
      ],
      [
        "Ġbatman",
        -9.89112475537244
      ],
      [
        "we",
        -9.892257051028075
      ],
      [
        "Ġstring",
        -9.892266092151196
      ],
      [
        "Ġpope",
        -9.89303424975699
      ],
      [
        "Ġanal",
        -9.89329575925088
      ],
      [
        "Ġhomeless",
        -9.895138106375152
      ],
      [
        "Ġmistake",
        -9.896150221045978
      ],
      [
        "Ġshows",
        -9.896276192698952
      ],
      [
        "Ġcheap",
        -9.89771675621406
      ],
      [
        "Ġgarden",
        -9.8980094931343
      ],
      [
        "Ġart",
        -9.899187371698055
      ],
      [
        "Ġinterviewer",
        -9.899964590699586
      ],
      [
        "Ġpun",
        -9.903736068013275
      ],
      [
        "ather",
        -9.904655981063708
      ],
      [
        "flies",
        -9.905108254065684
      ],
      [
        "Ġfootball",
        -9.906586986908117
      ],
      [
        "Ġlow",
        -9.907598108852165
      ],
      [
        "Ġspeed",
        -9.907730840074763
      ],
      [
        "Ġcrowd",
        -9.90875530233536
      ],
      [
        "Ġalcohol",
        -9.909737535222334
      ],
      [
        "Ġmagic",
        -9.910715682961097
      ],
      [
        "Ġmeeting",
        -9.911097916081262
      ],
      [
        "known",
        -9.911729659695935
      ],
      [
        "Ġexperience",
        -9.911996679351745
      ],
      [
        "Ġbull",
        -9.913287706505942
      ],
      [
        "Ġwhatever",
        -9.913397311322981
      ],
      [
        "Ġswallow",
        -9.914133040976456
      ],
      [
        "Ġsoup",
        -9.9149429868116
      ],
      [
        "Ġbuild",
        -9.91495802611675
      ],
      [
        "Ġquestions",
        -9.916029595574878
      ],
      [
        "Ġcondom",
        -9.916866767841388
      ],
      [
        "Ġfeed",
        -9.917386710835977
      ],
      [
        "Ġcry",
        -9.917983055917187
      ],
      [
        "Ġjail",
        -9.918033463272565
      ],
      [
        "Ġpassenger",
        -9.922374484533002
      ],
      [
        "Ġadam",
        -9.9247699788868
      ],
      [
        "Ġgeneral",
        -9.925244581062742
      ],
      [
        "Ġgym",
        -9.926029469991011
      ],
      [
        "Ġcondoms",
        -9.926161862056446
      ],
      [
        "Ġrobot",
        -9.92887102900809
      ],
      [
        "Ġboob",
        -9.929177508696288
      ],
      [
        "Ġresult",
        -9.93067616420189
      ],
      [
        "Ġjoin",
        -9.932187755522428
      ],
      [
        "given",
        -9.932741224650108
      ],
      [
        "Ġbutter",
        -9.934124829286521
      ],
      [
        "1",
        -9.934338189461705
      ],
      [
        "Ġonto",
        -9.934629175681813
      ],
      [
        "Ġposition",
        -9.934668462587657
      ],
      [
        "Ġmov",
        -9.936135361223592
      ],
      [
        "Ġneither",
        -9.936570165765584
      ],
      [
        "20",
        -9.937853829519735
      ],
      [
        "Ġpai",
        -9.938143337988013
      ],
      [
        "Ġdue",
        -9.9399611179363
      ],
      [
        "Ġbee",
        -9.940529841641368
      ],
      [
        "Ġsomebody",
        -9.940791371254244
      ],
      [
        "Ġgeorge",
        -9.940869912803475
      ],
      [
        "Ġsink",
        -9.942484131133764
      ],
      [
        "Ġplant",
        -9.945306406741594
      ],
      [
        "Ġglasse",
        -9.94634583535175
      ],
      [
        "Ġhungry",
        -9.947220888889486
      ],
      [
        "Ġsperm",
        -9.947923593005694
      ],
      [
        "gotta",
        -9.948201035392032
      ],
      [
        "Ġ40",
        -9.94870302911999
      ],
      [
        "Ġisland",
        -9.949191984439661
      ],
      [
        "Ġworried",
        -9.949821532962158
      ],
      [
        "Ġbritish",
        -9.949884960517139
      ],
      [
        "Ġchief",
        -9.951696797937721
      ],
      [
        "Ġbarber",
        -9.952575409743392
      ],
      [
        "Ġextra",
        -9.953059389782977
      ],
      [
        "Ġtrie",
        -9.956823234785222
      ],
      [
        "Ġaccept",
        -9.957256252932304
      ],
      [
        "Ġspot",
        -9.95831758155132
      ],
      [
        "Ġinvite",
        -9.95977276097111
      ],
      [
        "Ġtall",
        -9.96006059135526
      ],
      [
        "Ġsweet",
        -9.960479855266406
      ],
      [
        "Ġspen",
        -9.96064980649685
      ],
      [
        "Ġsilent",
        -9.9610570276179
      ],
      [
        "Ġmix",
        -9.962341480559559
      ],
      [
        "Ġdonkey",
        -9.96325641044314
      ],
      [
        "Ġforest",
        -9.963293494328981
      ],
      [
        "Ġdyslexic",
        -9.964478434757465
      ],
      [
        "Ġcookie",
        -9.965537338041866
      ],
      [
        "Ġworked",
        -9.965744799748547
      ],
      [
        "Ġexam",
        -9.966268629822766
      ],
      [
        "Ġworth",
        -9.966707839957593
      ],
      [
        "Ġrussia",
        -9.967254457916445
      ],
      [
        "Ġcanadian",
        -9.967510797377642
      ],
      [
        "Ġweekend",
        -9.9675422767086
      ],
      [
        "Ġsize",
        -9.96770885494729
      ],
      [
        "Ġpotato",
        -9.969484850872817
      ],
      [
        "Ġdesert",
        -9.97168223478808
      ],
      [
        "Ġprice",
        -9.972062384689895
      ],
      [
        "Ġfuture",
        -9.973689980623096
      ],
      [
        "Ġgovernment",
        -9.974974535096674
      ],
      [
        "Ġlift",
        -9.975204054288763
      ],
      [
        "Ġbeef",
        -9.976491512988659
      ],
      [
        "Ġstrange",
        -9.980373519906864
      ],
      [
        "Ġeverywhere",
        -9.981800699828053
      ],
      [
        "Ġdrown",
        -9.982440637011889
      ],
      [
        "Ġcannot",
        -9.982469554100803
      ],
      [
        "Ġpiss",
        -9.982560150279385
      ],
      [
        "Ġsilence",
        -9.982870649125509
      ],
      [
        "Ġfridge",
        -9.985710439083773
      ],
      [
        "Ġbite",
        -9.988479620077177
      ],
      [
        "Ġharry",
        -9.988524909852138
      ],
      [
        "Ġelder",
        -9.989673592329744
      ],
      [
        "Ġtattoo",
        -9.989683225877176
      ],
      [
        "Ġattention",
        -9.991870551134816
      ],
      [
        "Ġcreate",
        -9.993274533954775
      ],
      [
        "Ġtip",
        -9.99504757266047
      ],
      [
        "Ġbaker",
        -9.997992370235064
      ],
      [
        "Ġpuns",
        -9.999585168434916
      ],
      [
        "Ġsexual",
        -9.999701634638669
      ],
      [
        "Ġprefer",
        -9.999839543919652
      ],
      [
        "Ġgates",
        -10.000645850000584
      ],
      [
        "Ġpray",
        -10.002829749212484
      ],
      [
        "Ġfear",
        -10.003539832306142
      ],
      [
        "Ġnail",
        -10.00438638602972
      ],
      [
        "Ġpassword",
        -10.005613380904634
      ],
      [
        "Ġspider",
        -10.00593552778175
      ],
      [
        "Ġhalloween",
        -10.006053315010297
      ],
      [
        "alive",
        -10.006697692616438
      ],
      [
        "Ġlist",
        -10.007016240748124
      ],
      [
        "Ġtherapist",
        -10.00903746362846
      ],
      [
        "to",
        -10.00907431424503
      ],
      [
        "Ġtrees",
        -10.012535887689598
      ],
      [
        "Ġescape",
        -10.014062021546119
      ],
      [
        "Ġmouse",
        -10.014194283564677
      ],
      [
        "Ġdinosaur",
        -10.014663075622776
      ],
      [
        "Ġspanish",
        -10.01558012114546
      ],
      [
        "Ġ14",
        -10.017682001738589
      ],
      [
        "Ġodd",
        -10.018093809607102
      ],
      [
        "Ġiphone",
        -10.018484160449665
      ],
      [
        "Ġblowjob",
        -10.018816260286506
      ],
      [
        "Ġdefinite",
        -10.020266026236623
      ],
      [
        "Ġreport",
        -10.021379683290474
      ],
      [
        "Ġmarket",
        -10.021452764240443
      ],
      [
        "Ġinterest",
        -10.021911642666687
      ],
      [
        "Ġjim",
        -10.021945726543683
      ],
      [
        "ary",
        -10.022126751561274
      ],
      [
        "Ġsystem",
        -10.02275953297207
      ],
      [
        "Ġ90",
        -10.023814018509576
      ],
      [
        "Ġrefuse",
        -10.024435489640872
      ],
      [
        "Ġgoogle",
        -10.024509416045259
      ],
      [
        "Ġqueen",
        -10.02651690598631
      ],
      [
        "Ġserious",
        -10.026711781150707
      ],
      [
        "breaking",
        -10.027120054739743
      ],
      [
        "Ġ200",
        -10.028929297071123
      ],
      [
        "Ġhire",
        -10.029630463470882
      ],
      [
        "Ġdeaf",
        -10.031581653717375
      ],
      [
        "Ġbucket",
        -10.0319105386288
      ],
      [
        "Ġsteve",
        -10.032473537975342
      ],
      [
        "Ġgrabs",
        -10.033692631107652
      ],
      [
        "Ġrecord",
        -10.034053918159417
      ],
      [
        "Ġcell",
        -10.034063797395099
      ],
      [
        "Ġwheel",
        -10.034082410670653
      ],
      [
        "Ġchick",
        -10.034725832042845
      ],
      [
        "Ġcops",
        -10.035202701419049
      ],
      [
        "Ġpeanut",
        -10.035820081205829
      ],
      [
        "Ġskin",
        -10.036371174604593
      ],
      [
        "Ġpaddy",
        -10.037620101888205
      ],
      [
        "Ġsuit",
        -10.039822326686036
      ],
      [
        "Ġbush",
        -10.04027573813044
      ],
      [
        "Ġjimmy",
        -10.040763289072007
      ],
      [
        "Ġelevator",
        -10.040794592064879
      ],
      [
        "Ġtrick",
        -10.040888225045205
      ],
      [
        "Ġstates",
        -10.042734900414878
      ],
      [
        "Ġhasn",
        -10.043680615955648
      ],
      [
        "Ġteach",
        -10.045910554221635
      ],
      [
        "Ġmasturbating",
        -10.046878717010937
      ],
      [
        "Ġnazi",
        -10.047000405741912
      ],
      [
        "Ġwood",
        -10.047893452770966
      ],
      [
        "Ġredditor",
        -10.048793140643404
      ],
      [
        "Ġbarman",
        -10.049379370068547
      ],
      [
        "Ġiron",
        -10.049645940557241
      ],
      [
        "Ġtil",
        -10.049654933723058
      ],
      [
        "Ġasleep",
        -10.0503684290862
      ],
      [
        "Ġannounce",
        -10.05154925366775
      ],
      [
        "Ġholiday",
        -10.051586021162876
      ],
      [
        "Ġimagine",
        -10.052431608916514
      ],
      [
        "Ġforward",
        -10.053125587494305
      ],
      [
        "Ġsurger",
        -10.053695266525935
      ],
      [
        "Ġdisappear",
        -10.05372228290744
      ],
      [
        "Ġchoose",
        -10.054330267005268
      ],
      [
        "Ġlead",
        -10.055002539167635
      ],
      [
        "Ġthemsel",
        -10.055052029403793
      ],
      [
        "Ġmaster",
        -10.056985573200599
      ],
      [
        "Ġrose",
        -10.057413479950348
      ],
      [
        "Ġaccount",
        -10.059518378532065
      ],
      [
        "Ġ18",
        -10.060960351859507
      ],
      [
        "Ġsunday",
        -10.061142570121238
      ],
      [
        "Ġfake",
        -10.062376736331045
      ],
      [
        "Ġgroan",
        -10.067054716452791
      ],
      [
        "Ġneck",
        -10.06705594466028
      ],
      [
        "Ġlibrary",
        -10.067627031177553
      ],
      [
        "Ġexactl",
        -10.069887973325873
      ],
      [
        "Ġhill",
        -10.071029918687422
      ],
      [
        "Ġstair",
        -10.071495976685998
      ],
      [
        "Ġsnake",
        -10.073170455497822
      ],
      [
        "Ġangel",
        -10.073753451221037
      ],
      [
        "Ġdesk",
        -10.074796628285652
      ],
      [
        "you",
        -10.0752130633105
      ],
      [
        "Ġlaid",
        -10.075568595179641
      ],
      [
        "Ġruin",
        -10.077098060807657
      ],
      [
        "Ġtreat",
        -10.077891483416405
      ],
      [
        "Ġwelcome",
        -10.078131994727865
      ],
      [
        "Ġwriting",
        -10.078314573590426
      ],
      [
        "Ġsteps",
        -10.079082242830152
      ],
      [
        "Ġtwitter",
        -10.07909948358358
      ],
      [
        "Ġbath",
        -10.079275650072011
      ],
      [
        "Ġwishe",
        -10.079443220023059
      ],
      [
        "Ġturkey",
        -10.080195431788933
      ],
      [
        "Ġexpensive",
        -10.080599874815386
      ],
      [
        "Ġsky",
        -10.080835058807086
      ],
      [
        "Ġpiano",
        -10.080948664154372
      ],
      [
        "Ġterrorist",
        -10.081816708541695
      ],
      [
        "Ġnervous",
        -10.082436549264461
      ],
      [
        "Ġopposite",
        -10.082436600315592
      ],
      [
        "Ġdegree",
        -10.082547238687438
      ],
      [
        "literally",
        -10.082759523779705
      ],
      [
        "Ġstood",
        -10.083008803609504
      ],
      [
        "Ġadvice",
        -10.086109373035779
      ],
      [
        "Ġgiant",
        -10.087674669379428
      ],
      [
        "Ġdisease",
        -10.08767547973348
      ],
      [
        "Ġheavy",
        -10.088185629135403
      ],
      [
        "Ġavoid",
        -10.08848441740734
      ],
      [
        "Ġamericans",
        -10.088642008548609
      ],
      [
        "Ġeve",
        -10.091449491247428
      ],
      [
        "Ġenglishman",
        -10.091902338978933
      ],
      [
        "Ġpage",
        -10.092127368893873
      ],
      [
        "Ġcertain",
        -10.092718727450205
      ],
      [
        "Ġredneck",
        -10.0944585675363
      ],
      [
        "Ġshoppin",
        -10.09510440712874
      ],
      [
        "Ġmiles",
        -10.095918387872135
      ],
      [
        "Ġcute",
        -10.096089029298088
      ],
      [
        "Ġbega",
        -10.097845863490484
      ],
      [
        "Ġsquare",
        -10.098244247439869
      ],
      [
        "Ġgrass",
        -10.098329033061246
      ],
      [
        "Ġhumor",
        -10.09861136392513
      ],
      [
        "Ġswim",
        -10.098753106954252
      ],
      [
        "Ġpolitician",
        -10.100738082967027
      ],
      [
        "Ġbell",
        -10.102447520529918
      ],
      [
        "Ġwhiskey",
        -10.10332694001635
      ],
      [
        "Ġfriday",
        -10.103525121752332
      ],
      [
        "Ġcom",
        -10.10519663779706
      ],
      [
        "Ġbilly",
        -10.105933829349825
      ],
      [
        "Ġbirds",
        -10.10614331339766
      ],
      [
        "Ġvagina",
        -10.107471773559555
      ],
      [
        "seriously",
        -10.10808430240587
      ],
      [
        "Ġmanage",
        -10.108475776489332
      ],
      [
        "Ġrain",
        -10.108968033327105
      ],
      [
        "Ġcoworker",
        -10.111224526113766
      ],
      [
        "Ġbase",
        -10.111572942799251
      ],
      [
        "Ġkey",
        -10.112086081357951
      ],
      [
        "Ġpopular",
        -10.113534388606656
      ],
      [
        "Ġsalad",
        -10.11387945293556
      ],
      [
        "Ġmemor",
        -10.116068624795128
      ],
      [
        "Ġmonk",
        -10.117745624967387
      ],
      [
        "Ġpour",
        -10.118668635091755
      ],
      [
        "ur",
        -10.118845170723226
      ],
      [
        "Ġartist",
        -10.118875774883595
      ],
      [
        "Ġarreste",
        -10.11895820234771
      ],
      [
        "Ġfaster",
        -10.122062860989242
      ],
      [
        "Ġstranger",
        -10.12230258586023
      ],
      [
        "Ġbridge",
        -10.122550211424578
      ],
      [
        "Ġswimming",
        -10.124365322659738
      ],
      [
        "Ġwindows",
        -10.125441544536859
      ],
      [
        "Ġunited",
        -10.125592678922452
      ],
      [
        "Ġairplane",
        -10.126444737190702
      ],
      [
        "Ġba",
        -10.126873090445413
      ],
      [
        "Ġmagician",
        -10.127069447442176
      ],
      [
        "Ġcrime",
        -10.127169478762035
      ],
      [
        "Ġmike",
        -10.129864817347373
      ],
      [
        "Ġevening",
        -10.130558493931513
      ],
      [
        "Ġdry",
        -10.130729699107897
      ],
      [
        "Ġguard",
        -10.13192073926259
      ],
      [
        "Ġblew",
        -10.132201761759998
      ],
      [
        "Ġthousand",
        -10.132237953083983
      ],
      [
        "Ġnative",
        -10.132318604434172
      ],
      [
        "Ġsocial",
        -10.132518010312953
      ],
      [
        "Ġsituation",
        -10.133096857674762
      ],
      [
        "Ġcum",
        -10.133267956314562
      ],
      [
        "Ġcondition",
        -10.133796498492845
      ],
      [
        "Ġbucks",
        -10.134422713064957
      ],
      [
        "Ġchoice",
        -10.135081392136488
      ],
      [
        "Ġriding",
        -10.135504101233266
      ],
      [
        "law",
        -10.135863131893977
      ],
      [
        "Ġpot",
        -10.136922936599447
      ],
      [
        "Ġsouth",
        -10.136937212783273
      ],
      [
        "Ġdiet",
        -10.137253494820587
      ],
      [
        "Ġfeels",
        -10.137606386728901
      ],
      [
        "Ġjuan",
        -10.139544626798177
      ],
      [
        "Ġbackward",
        -10.139913274092157
      ],
      [
        "Ġbastard",
        -10.140421177566758
      ],
      [
        "Ġfilm",
        -10.14085841759575
      ],
      [
        "Ġresponse",
        -10.142386243565943
      ],
      [
        "Ġpounds",
        -10.142454850167677
      ],
      [
        "Ġbullet",
        -10.143997489813167
      ],
      [
        "Ġal",
        -10.144520815430175
      ],
      [
        "Ġcrie",
        -10.14484405687489
      ],
      [
        "Ġregular",
        -10.145490032619506
      ],
      [
        "Ġtwenty",
        -10.146347291997316
      ],
      [
        "Ġwind",
        -10.146769114191166
      ],
      [
        "Ġvacation",
        -10.15113666726979
      ],
      [
        "Ġstone",
        -10.151516324061266
      ],
      [
        "Ġchest",
        -10.152590797603153
      ],
      [
        "Ġbutton",
        -10.153842490636489
      ],
      [
        "Ġbrand",
        -10.153966521057068
      ],
      [
        "Ġkilling",
        -10.154843891456027
      ],
      [
        "Ġplanet",
        -10.155180237017973
      ],
      [
        "4",
        -10.155337106154311
      ],
      [
        "Ġpause",
        -10.155591870795362
      ],
      [
        "Ġbaseball",
        -10.15675889050232
      ],
      [
        "Ġpissed",
        -10.156872532162062
      ],
      [
        "one",
        -10.157303963139231
      ],
      [
        "Ġbomb",
        -10.157673149808204
      ],
      [
        "Ġpop",
        -10.158311368193155
      ],
      [
        "Ġnah",
        -10.158810088603772
      ],
      [
        "Ġsimple",
        -10.161604479966305
      ],
      [
        "Ġfamous",
        -10.162562344831157
      ],
      [
        "Ġmessage",
        -10.163497540662831
      ],
      [
        "Ġdump",
        -10.164529730081501
      ],
      [
        "Ġpositive",
        -10.164542804616158
      ],
      [
        "Ġfinding",
        -10.16459852884595
      ],
      [
        "Ġdiscuss",
        -10.16488818062174
      ],
      [
        "Ġeight",
        -10.164958280340006
      ],
      [
        "Ġhundred",
        -10.167583255441688
      ],
      [
        "ther",
        -10.16786074406669
      ],
      [
        "Ġpossible",
        -10.170404484270538
      ],
      [
        "Ġcandy",
        -10.172288330612549
      ],
      [
        "Ġfair",
        -10.172715951019576
      ],
      [
        "Ġstorm",
        -10.172982313344017
      ],
      [
        "Ġsuggest",
        -10.173752307114313
      ],
      [
        "Ġrub",
        -10.174167264709652
      ],
      [
        "Ġpicks",
        -10.174548403028979
      ],
      [
        "Ġputin",
        -10.175658652800543
      ],
      [
        "Ġnorris",
        -10.176215230680492
      ],
      [
        "Ġarmy",
        -10.177218593122653
      ],
      [
        "tally",
        -10.178340021495114
      ],
      [
        "coming",
        -10.181348500222843
      ],
      [
        "Ġwhe",
        -10.182352415382395
      ],
      [
        "Ġlights",
        -10.183512556048072
      ],
      [
        "stolen",
        -10.183977881210497
      ],
      [
        "Ġalien",
        -10.186882241558243
      ],
      [
        "Ġtiny",
        -10.188859270431625
      ],
      [
        "Ġplate",
        -10.189210030224885
      ],
      [
        "Ġbelt",
        -10.189718041609648
      ],
      [
        "Ġearlie",
        -10.191548835228012
      ],
      [
        "Ġargument",
        -10.192730421815835
      ],
      [
        "Ġwaitress",
        -10.193173312587472
      ],
      [
        "Ġgrape",
        -10.193652932388938
      ],
      [
        "Ġgender",
        -10.194072249554495
      ],
      [
        "Ġnumbers",
        -10.194110848099719
      ],
      [
        "Ġcomedian",
        -10.194192720351985
      ],
      [
        "Ġdeliver",
        -10.195112735623955
      ],
      [
        "Ġgift",
        -10.19553943935853
      ],
      [
        "Ġ80",
        -10.198391010816955
      ],
      [
        "Ġagent",
        -10.201657997586334
      ],
      [
        "Ġbuil",
        -10.202195580039387
      ],
      [
        "side",
        -10.202883608017896
      ],
      [
        "Ġpencil",
        -10.203330833524475
      ],
      [
        "Ġ500",
        -10.203480701646924
      ],
      [
        "Ġslept",
        -10.203577086429519
      ],
      [
        "Ġducks",
        -10.203757617105008
      ],
      [
        "Ġgrade",
        -10.204082613387238
      ],
      [
        "Ġmovies",
        -10.204417125323367
      ],
      [
        "Ġillegal",
        -10.204471425132514
      ],
      [
        "Ġpersonal",
        -10.205556101107273
      ],
      [
        "Ġ13",
        -10.206236627090504
      ],
      [
        "Ġfresh",
        -10.208279950166512
      ],
      [
        "Ġlevel",
        -10.208371146988181
      ],
      [
        "Ġunderwear",
        -10.208723671861204
      ],
      [
        "Ġweather",
        -10.21018095428396
      ],
      [
        "Ġnine",
        -10.210933377003663
      ],
      [
        "Ġcousin",
        -10.21463713056168
      ],
      [
        "Ġwave",
        -10.21515926820786
      ],
      [
        "Ġmissed",
        -10.216291319050757
      ],
      [
        "Ġchef",
        -10.216298975265953
      ],
      [
        "Ġcoke",
        -10.216314313134188
      ],
      [
        "Ġclaim",
        -10.218063545518248
      ],
      [
        "Ġnames",
        -10.22196455816764
      ],
      [
        "Ġviagra",
        -10.22208088593267
      ],
      [
        "Ġrow",
        -10.222309185313549
      ],
      [
        "Ġpen",
        -10.224528750942703
      ],
      [
        "Ġbacon",
        -10.225199246021155
      ],
      [
        "Ġhears",
        -10.22670458330941
      ],
      [
        "Ġjuice",
        -10.226903941274074
      ],
      [
        "Ġreache",
        -10.227027529102145
      ],
      [
        "Ġdescribe",
        -10.227055431858682
      ],
      [
        "Ġdevil",
        -10.227394348792886
      ],
      [
        "Ġradio",
        -10.228234775337258
      ],
      [
        "Ġbra",
        -10.228864114939203
      ],
      [
        "Ġswear",
        -10.229179075840769
      ],
      [
        "Ġtears",
        -10.231173234096207
      ],
      [
        "Ġnon",
        -10.231715808136853
      ],
      [
        "Ġknife",
        -10.23252788969054
      ],
      [
        "Ġafrica",
        -10.23462528204047
      ],
      [
        "Ġpie",
        -10.235391952461022
      ],
      [
        "Ġsalesman",
        -10.23539603018501
      ],
      [
        "Ġblock",
        -10.23688015480633
      ],
      [
        "Ġinvente",
        -10.237127017050891
      ],
      [
        "Ġpro",
        -10.237230695323202
      ],
      [
        "Ġsucks",
        -10.237625765644713
      ],
      [
        "Ġroman",
        -10.238247714568264
      ],
      [
        "Ġmedical",
        -10.238590573948745
      ],
      [
        "Ġprove",
        -10.239098753621487
      ],
      [
        "Ġexist",
        -10.239294494696793
      ],
      [
        "Ġgrocery",
        -10.24035943990402
      ],
      [
        "Ġwipe",
        -10.241445355847219
      ],
      [
        "Ġflowers",
        -10.242251991062542
      ],
      [
        "Ġattempt",
        -10.242882053824319
      ],
      [
        "Ġprivate",
        -10.244122560236383
      ],
      [
        "ying",
        -10.244197709927771
      ],
      [
        "Ġcouch",
        -10.244418017332112
      ],
      [
        "ance",
        -10.244980821908106
      ],
      [
        "Ġyellow",
        -10.246101060409526
      ],
      [
        "Ġtweet",
        -10.2462006473122
      ],
      [
        "Ġkiller",
        -10.247250733559692
      ],
      [
        "Ġlol",
        -10.247352747803465
      ],
      [
        "Ġpolish",
        -10.24798997790453
      ],
      [
        "Ġtypes",
        -10.248056738820292
      ],
      [
        "Ġhanded",
        -10.2501754401928
      ],
      [
        "Ġtits",
        -10.250910320872858
      ],
      [
        "Ġattractive",
        -10.250984160140536
      ],
      [
        "Ġspeech",
        -10.251054544791398
      ],
      [
        "Ġhits",
        -10.251526173737627
      ],
      [
        "Ġsecurit",
        -10.25287769877052
      ],
      [
        "Ġremind",
        -10.254365428254376
      ],
      [
        "Ġload",
        -10.254889870076232
      ],
      [
        "Ġweed",
        -10.255867633807418
      ],
      [
        "Ġsoviet",
        -10.257177712089561
      ],
      [
        "Ġlamp",
        -10.2577630640169
      ],
      [
        "Ġwhose",
        -10.258469959812576
      ],
      [
        "Ġaverage",
        -10.25949037809172
      ],
      [
        "Ġneighbour",
        -10.259648548252041
      ],
      [
        "Ġtitle",
        -10.259732037755509
      ],
      [
        "Ġlistening",
        -10.260021951059514
      ],
      [
        "Ġper",
        -10.261463220891315
      ],
      [
        "Ġpanda",
        -10.26155595408854
      ],
      [
        "Ġgoat",
        -10.262420257640766
      ],
      [
        "Ġalphabet",
        -10.264912518007062
      ],
      [
        "Ġturtle",
        -10.26592138337881
      ],
      [
        "Ġcorn",
        -10.268652279504272
      ],
      [
        "held",
        -10.269052826859472
      ],
      [
        "Ġpoliceman",
        -10.269244194578867
      ],
      [
        "Ġterm",
        -10.269455881075814
      ],
      [
        "Ġrip",
        -10.269616365887476
      ],
      [
        "Ġsale",
        -10.27149839473248
      ],
      [
        "land",
        -10.274124684726827
      ],
      [
        "Ġglad",
        -10.274321279695119
      ],
      [
        "Ġexpect",
        -10.275073428387811
      ],
      [
        "Ġpaul",
        -10.277488305169864
      ],
      [
        "Ġcamel",
        -10.277746048638079
      ],
      [
        "Ġlucky",
        -10.279502203444155
      ],
      [
        "how",
        -10.279552065677304
      ],
      [
        "Ġyounger",
        -10.280145379003127
      ],
      [
        "Ġdrove",
        -10.280625464921377
      ],
      [
        "Ġairport",
        -10.281539971517041
      ],
      [
        "Ġnatural",
        -10.281627088979999
      ],
      [
        "Ġdealer",
        -10.282054447214486
      ],
      [
        "Ġcrap",
        -10.284232506773293
      ],
      [
        "Ġfrance",
        -10.28432596315164
      ],
      [
        "Ġredhead",
        -10.284790188230513
      ],
      [
        "Ġafrican",
        -10.285349427785594
      ],
      [
        "age",
        -10.286479695314824
      ],
      [
        "Ġdirection",
        -10.286569857764544
      ],
      [
        "Ġwooden",
        -10.287052395308681
      ],
      [
        "Ġsummer",
        -10.287107084846104
      ],
      [
        "Ġgrab",
        -10.287622069301278
      ],
      [
        "Ġfrank",
        -10.288258462034932
      ],
      [
        "Ġstare",
        -10.288503864216327
      ],
      [
        "Ġcliff",
        -10.288678288038207
      ],
      [
        "Ġrequest",
        -10.288844943918575
      ],
      [
        "Ġmess",
        -10.289354445032139
      ],
      [
        "Ġsoft",
        -10.28965031000331
      ],
      [
        "Ġtank",
        -10.291542232087622
      ],
      [
        "Ġhop",
        -10.291694262279663
      ],
      [
        "Ġjar",
        -10.29171113010771
      ],
      [
        "Ġoil",
        -10.291837527015403
      ],
      [
        "Ġparking",
        -10.29239399793024
      ],
      [
        "Ġmechanic",
        -10.293533462625287
      ],
      [
        "Ġleader",
        -10.293772186816708
      ],
      [
        "Ġluck",
        -10.293977451789576
      ],
      [
        "Ġtough",
        -10.296529996124235
      ],
      [
        "Ġaustralian",
        -10.297664308542792
      ],
      [
        "Ġargu",
        -10.298915451566906
      ],
      [
        "Ġpsychiatrist",
        -10.29900305520006
      ],
      [
        "Ġrobber",
        -10.299797097229902
      ],
      [
        "Ġwheelchair",
        -10.29990938929205
      ],
      [
        "Ġmountain",
        -10.301096048290582
      ],
      [
        "Ġheads",
        -10.302280900812164
      ],
      [
        "Ġhipster",
        -10.302781653113215
      ],
      [
        "Ġitself",
        -10.303521779889584
      ],
      [
        "Ġpromise",
        -10.304129424699862
      ],
      [
        "Ġpretend",
        -10.304597028270635
      ],
      [
        "Ġtaxi",
        -10.305298251110566
      ],
      [
        "Ġplastic",
        -10.306713395067048
      ],
      [
        "Ġsort",
        -10.306754344313127
      ],
      [
        "Ġmrs",
        -10.306954107633498
      ],
      [
        "Ġsurvive",
        -10.308042608049353
      ],
      [
        "ation",
        -10.308943966965836
      ],
      [
        "Ġspread",
        -10.309337496413427
      ],
      [
        "Ġwallet",
        -10.310245778648234
      ],
      [
        "Ġweren",
        -10.311018183227969
      ],
      [
        "Ġbreast",
        -10.311656190233478
      ],
      [
        "Ġatheist",
        -10.312534991610896
      ],
      [
        "rank",
        -10.312707093688307
      ],
      [
        "stair",
        -10.3136456138572
      ],
      [
        "Ġamount",
        -10.314027765910307
      ],
      [
        "Ġpink",
        -10.314525880934406
      ],
      [
        "Ġexample",
        -10.314591883097648
      ],
      [
        "Ġjerk",
        -10.315456362764973
      ],
      [
        "Ġbro",
        -10.315825484415523
      ],
      [
        "Ġtower",
        -10.316567937370039
      ],
      [
        "Ġshoe",
        -10.318669881688063
      ],
      [
        "Ġchrist",
        -10.318854371192643
      ],
      [
        "Ġscience",
        -10.318968684484009
      ],
      [
        "Ġgorilla",
        -10.319312086494861
      ],
      [
        "Ġdifficult",
        -10.319571535504066
      ],
      [
        "Ġjackson",
        -10.319606515546262
      ],
      [
        "Ġkim",
        -10.321240805519132
      ],
      [
        "Ġtiger",
        -10.321511696718119
      ],
      [
        "Ġcanada",
        -10.321939394377829
      ],
      [
        "Ġrelease",
        -10.323354269354262
      ],
      [
        "Ġnuns",
        -10.324435582080831
      ],
      [
        "Ġawkward",
        -10.32501269911392
      ],
      [
        "Ġfurious",
        -10.325207195135254
      ],
      [
        "Ġdepressed",
        -10.32536196497539
      ],
      [
        "Ġweigh",
        -10.326134711186569
      ],
      [
        "Ġbooks",
        -10.327338299066852
      ],
      [
        "Ġchemist",
        -10.328369682122526
      ],
      [
        "Ġelection",
        -10.329593048500588
      ],
      [
        "Ġrings",
        -10.331498214639188
      ],
      [
        "Ġyork",
        -10.331578132298569
      ],
      [
        "loved",
        -10.332023634843658
      ],
      [
        "Ġloves",
        -10.33208620573062
      ],
      [
        "Ġemail",
        -10.332147279920918
      ],
      [
        "Ġcurious",
        -10.332308182324823
      ],
      [
        "Ġseal",
        -10.332764987144284
      ],
      [
        "Ġgames",
        -10.334287676195364
      ],
      [
        "Ġreporter",
        -10.33432199857612
      ],
      [
        "Ġmomma",
        -10.334403834261565
      ],
      [
        "Ġperform",
        -10.334574086183942
      ],
      [
        "Ġtight",
        -10.334693292623172
      ],
      [
        "Ġsudden",
        -10.336487301817796
      ],
      [
        "Ġdemand",
        -10.337053437365233
      ],
      [
        "Ġsmith",
        -10.338009223529177
      ],
      [
        "Ġhorrible",
        -10.338908312550712
      ],
      [
        "Ġ.''",
        -10.338956102840491
      ],
      [
        "what",
        -10.339523510590766
      ],
      [
        "Ġcars",
        -10.340423283782076
      ],
      [
        "Ġexact",
        -10.340528980338735
      ],
      [
        "Ġjames",
        -10.340574397222902
      ],
      [
        "Ġsurgeon",
        -10.340607686185834
      ],
      [
        "Ġmajor",
        -10.340830427595847
      ],
      [
        "Ġoven",
        -10.341016244572842
      ],
      [
        "Ġmass",
        -10.342470240558129
      ],
      [
        "Ġrope",
        -10.345864257034535
      ],
      [
        "Ġnut",
        -10.347354530407276
      ],
      [
        "Ġcunt",
        -10.34762538846077
      ],
      [
        "Ġtraffic",
        -10.348211488331817
      ],
      [
        "Ġfool",
        -10.349308701645679
      ],
      [
        "Ġrandom",
        -10.351019455045535
      ],
      [
        "Ġcomment",
        -10.352210033901567
      ],
      [
        "Ġknee",
        -10.352298789735936
      ],
      [
        "Ġshooting",
        -10.35310475219201
      ],
      [
        "Ġcamp",
        -10.353455082194188
      ],
      [
        "Ġsalt",
        -10.35477873802077
      ],
      [
        "Ġwatson",
        -10.35686426852452
      ],
      [
        "Ġbusy",
        -10.357264323161598
      ],
      [
        "Ġcents",
        -10.358248159751202
      ],
      [
        "Ġstomach",
        -10.359107317996639
      ],
      [
        "Ġhorny",
        -10.36040441535647
      ],
      [
        "Ġapart",
        -10.362514846875754
      ],
      [
        "Ġmental",
        -10.362587092219705
      ],
      [
        "Ġblondes",
        -10.363122448231675
      ],
      [
        "Ġseason",
        -10.363735621137515
      ],
      [
        "Ġonion",
        -10.363788014948202
      ],
      [
        "Ġrape",
        -10.365089519296708
      ],
      [
        "Ġ00",
        -10.365643577474152
      ],
      [
        "Ġwinter",
        -10.365763117845711
      ],
      [
        "Ġhunting",
        -10.365804106899631
      ],
      [
        "Ġrooster",
        -10.366027836685205
      ],
      [
        "Ġdig",
        -10.366521738837037
      ],
      [
        "Ġalzheimer",
        -10.367015393415764
      ],
      [
        "Ġsausage",
        -10.367023219312747
      ],
      [
        "Ġnope",
        -10.36738596726255
      ],
      [
        "Ġwild",
        -10.367830584089592
      ],
      [
        "Ġolympic",
        -10.368959762288718
      ],
      [
        "ries",
        -10.369272226807974
      ],
      [
        "Ġgreet",
        -10.369615323251463
      ],
      [
        "Ġyard",
        -10.370780788971079
      ],
      [
        "Ġhighway",
        -10.370943243051936
      ],
      [
        "Ġforever",
        -10.371545869885754
      ],
      [
        "way",
        -10.373364015271274
      ],
      [
        "Ġjean",
        -10.374176188589967
      ],
      [
        "Ġtoast",
        -10.374961905016821
      ],
      [
        "Ġcommunist",
        -10.375033802597278
      ],
      [
        "Ġmexico",
        -10.375509098983054
      ],
      [
        "Ġpint",
        -10.375656994757243
      ],
      [
        "Ġsinging",
        -10.376257870119128
      ],
      [
        "Ġstalin",
        -10.37641096618911
      ],
      [
        "Ġapril",
        -10.377025562981016
      ],
      [
        "Ġzombie",
        -10.37710461824954
      ],
      [
        "Ġlake",
        -10.378032409629322
      ],
      [
        "Ġbean",
        -10.378321479618748
      ],
      [
        "Ġnoise",
        -10.37910938077792
      ],
      [
        "Ġmark",
        -10.381445357789692
      ],
      [
        "Ġopinion",
        -10.381476257062396
      ],
      [
        "Ġ911",
        -10.382467891567742
      ],
      [
        "Ġladder",
        -10.383062792912945
      ],
      [
        "online",
        -10.384463677433509
      ],
      [
        "Ġmatch",
        -10.387060764152121
      ],
      [
        "Ġnewspaper",
        -10.387088113796741
      ],
      [
        "Ġmention",
        -10.389896832600778
      ],
      [
        "Ġburger",
        -10.390060773207555
      ],
      [
        "Ġcure",
        -10.390362908117744
      ],
      [
        "Ġmember",
        -10.391519237562843
      ],
      [
        "Ġactual",
        -10.39181034962586
      ],
      [
        "Ġengine",
        -10.391856996903684
      ],
      [
        "line",
        -10.3924081239605
      ],
      [
        "Ġdelivery",
        -10.393044271756185
      ],
      [
        "Ġpasses",
        -10.393437330865321
      ],
      [
        "Ġhook",
        -10.393546062624274
      ],
      [
        "Ġclick",
        -10.394074621066945
      ],
      [
        "Ġcash",
        -10.394838906086866
      ],
      [
        "Ġshape",
        -10.395218441972615
      ],
      [
        "Ġsuccessful",
        -10.396441438529369
      ],
      [
        "Ġminor",
        -10.397230052791658
      ],
      [
        "Ġbreasts",
        -10.398726392557517
      ],
      [
        "Ġmonster",
        -10.39875944197213
      ],
      [
        "Ġdiarrhea",
        -10.399259695166823
      ],
      [
        "Ġalabama",
        -10.400453531777703
      ],
      [
        "Ġrepeat",
        -10.40083889747557
      ],
      [
        "ous",
        -10.402188382762576
      ],
      [
        "Ġwars",
        -10.404626018189614
      ],
      [
        "Ġvote",
        -10.404778090038203
      ],
      [
        "Ġerection",
        -10.405017164745734
      ],
      [
        "Ġcriminal",
        -10.405539461061451
      ],
      [
        "Ġ?''",
        -10.405864709949055
      ],
      [
        "Ġlibrarian",
        -10.4067759548788
      ],
      [
        "Ġtongue",
        -10.407385183986765
      ],
      [
        "Ġbench",
        -10.407509435455129
      ],
      [
        "Ġfreak",
        -10.407549842608397
      ],
      [
        "Ġawesome",
        -10.407819441332792
      ],
      [
        "Ġtesticle",
        -10.408250520927915
      ],
      [
        "Ġalcoholic",
        -10.40912916887098
      ],
      [
        "Ġcompetition",
        -10.409254962565496
      ],
      [
        "Ġview",
        -10.409485483067613
      ],
      [
        "Ġstrip",
        -10.409921211478938
      ],
      [
        "Ġcontact",
        -10.410091029860965
      ],
      [
        "Ġconstant",
        -10.411991611706073
      ],
      [
        "Ġmushroom",
        -10.412662707120298
      ],
      [
        "Ġaids",
        -10.412976607237715
      ],
      [
        "Ġwhore",
        -10.415138085576185
      ],
      [
        "Ġ60",
        -10.415592363067567
      ],
      [
        "Ġholes",
        -10.415783119618627
      ],
      [
        "Ġhorses",
        -10.416313135211269
      ],
      [
        "points",
        -10.4171800067535
      ],
      [
        "Ġshake",
        -10.418927387698824
      ],
      [
        "Ġstage",
        -10.420176273956233
      ],
      [
        "Ġscene",
        -10.422220976139961
      ],
      [
        "Ġgrant",
        -10.42268220480532
      ],
      [
        "Ġafford",
        -10.422716622327215
      ],
      [
        "Ġapartment",
        -10.423255774469865
      ],
      [
        "Ġsexy",
        -10.42628849168996
      ],
      [
        "Ġpictures",
        -10.426594931746958
      ],
      [
        "Ġdwarf",
        -10.426723228423256
      ],
      [
        "Ġvan",
        -10.42775893765753
      ],
      [
        "Ġteller",
        -10.429175916490458
      ],
      [
        "Ġcarrot",
        -10.429828529582093
      ],
      [
        "Ġgre",
        -10.430268642436129
      ],
      [
        "Ġmedium",
        -10.431778663864804
      ],
      [
        "Ġslight",
        -10.43255600668468
      ],
      [
        "Ġpile",
        -10.435924261110229
      ],
      [
        "Ġjam",
        -10.436648724074765
      ],
      [
        "Ġbattle",
        -10.436815198256365
      ],
      [
        "Ġnational",
        -10.439338099861331
      ],
      [
        "Ġtimmy",
        -10.4410198439146
      ],
      [
        "Ġskeleton",
        -10.441102049545236
      ],
      [
        "Ġtwins",
        -10.441250205801847
      ],
      [
        "Ġawful",
        -10.442519768308909
      ],
      [
        "Ġbreaks",
        -10.442993774908112
      ],
      [
        "Ġrule",
        -10.443001449232325
      ],
      [
        "Ġdavid",
        -10.44330675840483
      ],
      [
        "Ġapproach",
        -10.443368802069795
      ],
      [
        "Ġhandle",
        -10.443568697132118
      ],
      [
        "Ġsigh",
        -10.444020563234522
      ],
      [
        "Ġcamera",
        -10.444183310299945
      ],
      [
        "Ġvacuum",
        -10.444293472738808
      ],
      [
        "Ġbible",
        -10.444858859254069
      ],
      [
        "Ġgrandmother",
        -10.445064074830409
      ],
      [
        "explained",
        -10.4455020408414
      ],
      [
        "potatoes",
        -10.446085721769185
      ],
      [
        "Ġ69",
        -10.446235979301704
      ],
      [
        "Ġemergenc",
        -10.447531538330665
      ],
      [
        "Ġlazy",
        -10.449135954561195
      ],
      [
        "bove",
        -10.449705409608663
      ],
      [
        "Ġpepper",
        -10.449759226163629
      ],
      [
        "Ġhurts",
        -10.450612859936662
      ],
      [
        "Ġwest",
        -10.451448962730687
      ],
      [
        "Ġlets",
        -10.451555613018051
      ],
      [
        "Ġpolar",
        -10.452138164509986
      ],
      [
        "Ġpole",
        -10.452182206072731
      ],
      [
        "Ġphysicist",
        -10.4528529945892
      ],
      [
        "Ġcamping",
        -10.45311379389796
      ],
      [
        "Ġinteresting",
        -10.453263564367942
      ],
      [
        "Ġscotsman",
        -10.45508591070449
      ],
      [
        "back",
        -10.455644648399332
      ],
      [
        "Ġfortune",
        -10.455729765639466
      ],
      [
        "Ġwatche",
        -10.456708673807595
      ],
      [
        "Ġeasie",
        -10.457442023199595
      ],
      [
        "Ġaddicted",
        -10.458223924128948
      ],
      [
        "Ġrid",
        -10.459676571688732
      ],
      [
        "Ġ99",
        -10.459814817059875
      ],
      [
        "Ġsold",
        -10.460682109576396
      ],
      [
        "Ġsatan",
        -10.46321330228838
      ],
      [
        "Ġisis",
        -10.46333098012942
      ],
      [
        "Ġbees",
        -10.463657403098875
      ],
      [
        "Ġlick",
        -10.463813672554666
      ],
      [
        "Ġpotter",
        -10.463816211473947
      ],
      [
        "Ġlack",
        -10.464135903011323
      ],
      [
        "Ġknees",
        -10.465047963656282
      ],
      [
        "Ġcontest",
        -10.465674433825017
      ],
      [
        "Ġborder",
        -10.465932701340172
      ],
      [
        "Ġplus",
        -10.466237922345645
      ],
      [
        "Ġwithin",
        -10.466846677789672
      ],
      [
        "Ġ16",
        -10.467395864211788
      ],
      [
        "Ġedge",
        -10.468454062300173
      ],
      [
        "Ġtampon",
        -10.468929167697373
      ],
      [
        "Ġtrash",
        -10.469259427725245
      ],
      [
        "Ġvet",
        -10.470309775894762
      ],
      [
        "Ġcough",
        -10.470985938120801
      ],
      [
        "Ġalligator",
        -10.471152832378964
      ],
      [
        "paying",
        -10.47115652575265
      ],
      [
        "Ġcuz",
        -10.471590846412305
      ],
      [
        "Ġgrammar",
        -10.473167923048027
      ],
      [
        "Ġsoap",
        -10.473660732834034
      ],
      [
        "Ġcloset",
        -10.475634179113076
      ],
      [
        "Ġstroke",
        -10.475986810900975
      ],
      [
        "Ġtwin",
        -10.476107272195254
      ],
      [
        "Ġabortion",
        -10.476820580381773
      ],
      [
        "Ġwritten",
        -10.477047029264776
      ],
      [
        "Ġcrow",
        -10.477884548189488
      ],
      [
        "Ġ24",
        -10.478628038538744
      ],
      [
        "Ġbattery",
        -10.479366024808902
      ],
      [
        "Ġlesson",
        -10.479557552381745
      ],
      [
        "Ġtooth",
        -10.479718503592217
      ],
      [
        "Ġbeside",
        -10.479960147148496
      ],
      [
        "Ġwide",
        -10.480247245915496
      ],
      [
        "Ġinch",
        -10.480568767434887
      ],
      [
        "Ġsimilar",
        -10.480831426890346
      ],
      [
        "Ġmetal",
        -10.48125568883022
      ],
      [
        "Ġmasturbate",
        -10.481402586200483
      ],
      [
        "Ġbat",
        -10.481604091800438
      ],
      [
        "Ġsuffer",
        -10.481667390606177
      ],
      [
        "Ġburst",
        -10.48254659885513
      ],
      [
        "Ġscale",
        -10.482817062223305
      ],
      [
        "Ġflag",
        -10.485023956236422
      ],
      [
        "Ġrecent",
        -10.485872870559422
      ],
      [
        "Ġlover",
        -10.486008764791425
      ],
      [
        "Ġblond",
        -10.486556866530819
      ],
      [
        "Ġthroat",
        -10.486886967538183
      ],
      [
        "Ġrealise",
        -10.488798808222029
      ],
      [
        "Ġpartner",
        -10.489840259507133
      ],
      [
        "Ġhunter",
        -10.490384179144474
      ],
      [
        "Ġswitch",
        -10.493643348199393
      ],
      [
        "Ġshave",
        -10.49386796857161
      ],
      [
        "Ġfox",
        -10.495940090743861
      ],
      [
        "Ġtim",
        -10.496222196158826
      ],
      [
        "Ġeaster",
        -10.496408283944362
      ],
      [
        "Ġgentleman",
        -10.49656987699136
      ],
      [
        "Ġvictim",
        -10.496754879253533
      ],
      [
        "Ġhost",
        -10.497113578237407
      ],
      [
        "Ġprincess",
        -10.497998345493617
      ],
      [
        "ybody",
        -10.498586931634716
      ],
      [
        "off",
        -10.498734426718288
      ],
      [
        "Ġguitar",
        -10.49878115330909
      ],
      [
        "Ġastronaut",
        -10.500164966193601
      ],
      [
        "Ġsoda",
        -10.500725462445445
      ],
      [
        "Ġroot",
        -10.50083807581753
      ],
      [
        "Ġengland",
        -10.501055114284625
      ],
      [
        "hitting",
        -10.501404558223115
      ],
      [
        "Ġretire",
        -10.501575425655911
      ],
      [
        "Ġtracks",
        -10.501589707682648
      ],
      [
        "Ġlicense",
        -10.502225126630492
      ],
      [
        "Ġ19",
        -10.502857571382695
      ],
      [
        "Ġsite",
        -10.503725703204587
      ],
      [
        "Ġinvent",
        -10.504241327748822
      ],
      [
        "Ġmail",
        -10.50470034890085
      ],
      [
        "Ġvirus",
        -10.5048481778981
      ],
      [
        "Ġstool",
        -10.505406273392547
      ],
      [
        "wise",
        -10.506534279820947
      ],
      [
        "Ġnegative",
        -10.507888387424043
      ],
      [
        "Ġstars",
        -10.510032216899564
      ],
      [
        "Ġholds",
        -10.510385075849381
      ],
      [
        "Ġwashing",
        -10.511199209846904
      ],
      [
        "Ġpokemon",
        -10.514066624546324
      ],
      [
        "Ġbuck",
        -10.514392436339442
      ],
      [
        "well",
        -10.514656322740294
      ],
      [
        "Ġpirates",
        -10.515033818898479
      ],
      [
        "Ġpolitical",
        -10.515503182478108
      ],
      [
        "Ġreligious",
        -10.51637979080287
      ],
      [
        "Ġpastor",
        -10.516794706598546
      ],
      [
        "Ġbright",
        -10.517257170816658
      ],
      [
        "Ġcircle",
        -10.518268639803086
      ],
      [
        "Ġhonor",
        -10.518600642572917
      ],
      [
        "Ġtitanic",
        -10.518793876079894
      ],
      [
        "Ġkorea",
        -10.51906445963873
      ],
      [
        "Ġtied",
        -10.51988743422551
      ],
      [
        "Ġadult",
        -10.52126477197681
      ],
      [
        "Ġprize",
        -10.521927780495544
      ],
      [
        "Ġlots",
        -10.522185231346342
      ],
      [
        "Ġreligion",
        -10.522371280970267
      ],
      [
        "Ġcoat",
        -10.522783514062102
      ],
      [
        "Ġbuys",
        -10.523814073124258
      ],
      [
        "Ġsack",
        -10.524526054993556
      ],
      [
        "Ġtrack",
        -10.525261561009163
      ],
      [
        "Ġdestroy",
        -10.525296882637623
      ],
      [
        "Ġpsychic",
        -10.52577452130599
      ],
      [
        "Ġextremely",
        -10.529366581663911
      ],
      [
        "Ġbears",
        -10.53001770070395
      ],
      [
        "ory",
        -10.531987641992531
      ],
      [
        "Ġvodka",
        -10.53214313949003
      ],
      [
        "Ġbrothel",
        -10.534253059406568
      ],
      [
        "Ġpedophile",
        -10.5344878186553
      ],
      [
        "Ġtruth",
        -10.534880653071724
      ],
      [
        "Ġopening",
        -10.534942754675473
      ],
      [
        "Ġjungle",
        -10.535062174120853
      ],
      [
        "Ġspit",
        -10.535272371371601
      ],
      [
        "Ġsuperman",
        -10.535651440386435
      ],
      [
        "Ġjobs",
        -10.536963327206465
      ],
      [
        "Ġshakes",
        -10.537244034106077
      ],
      [
        "Ġlean",
        -10.538029610937372
      ],
      [
        "Ġ1000",
        -10.538111983139828
      ],
      [
        "Ġpasta",
        -10.538501454151302
      ],
      [
        "Ġgreek",
        -10.538587067636037
      ],
      [
        "go",
        -10.538612386295377
      ],
      [
        "Ġcleaner",
        -10.539720683026019
      ],
      [
        "Ġbicycle",
        -10.539794226371164
      ],
      [
        "Ġbother",
        -10.539817860904837
      ],
      [
        "me",
        -10.540187379967364
      ],
      [
        "Ġtail",
        -10.540569282453896
      ],
      [
        "Ġstyle",
        -10.541053328879473
      ],
      [
        "Ġimpress",
        -10.543177275539465
      ],
      [
        "Ġfrozen",
        -10.543848524406602
      ],
      [
        "Ġsnail",
        -10.544176941674104
      ],
      [
        "Ġbored",
        -10.545145113652708
      ],
      [
        "losing",
        -10.545907042750759
      ],
      [
        "Ġpan",
        -10.54834963181558
      ],
      [
        "Ġcostume",
        -10.548888487326497
      ],
      [
        "Ġcareer",
        -10.550374637332474
      ],
      [
        "Ġceiling",
        -10.552813369704822
      ],
      [
        "Ġvision",
        -10.554924029297322
      ],
      [
        "Ġdistance",
        -10.555273874052586
      ],
      [
        "Ġcollect",
        -10.556757683445422
      ],
      [
        "bloody",
        -10.557804901435773
      ],
      [
        "Ġgrave",
        -10.55794254889441
      ],
      [
        "Ġprince",
        -10.558101402578606
      ],
      [
        "Ġdildo",
        -10.559328742181782
      ],
      [
        "Ġafternoon",
        -10.559431724780126
      ],
      [
        "Ġshall",
        -10.559997928817056
      ],
      [
        "Ġpharmacist",
        -10.561207079355178
      ],
      [
        "Ġbust",
        -10.561335378077846
      ],
      [
        "Ġquarter",
        -10.562657027721169
      ],
      [
        "Ġchallenge",
        -10.563334609122546
      ],
      [
        "Ġhaha",
        -10.563538377421903
      ],
      [
        "Ġminister",
        -10.56370307869671
      ],
      [
        "Ġmonday",
        -10.564523939913139
      ],
      [
        "Ġcontain",
        -10.565754961158527
      ],
      [
        "Ġrare",
        -10.566815891605819
      ],
      [
        "Ġtaugh",
        -10.567523822864878
      ],
      [
        "Ġrice",
        -10.567538305683644
      ],
      [
        "Ġbump",
        -10.567778722961403
      ],
      [
        "out",
        -10.570665895051006
      ],
      [
        "Ġdangerous",
        -10.57089855818297
      ],
      [
        "Ġrepublican",
        -10.570915633312733
      ],
      [
        "she",
        -10.572119138629162
      ],
      [
        "Ġhung",
        -10.572208272603513
      ],
      [
        "Ġshark",
        -10.572862801343447
      ],
      [
        "Ġpenny",
        -10.573032977438745
      ],
      [
        "Ġslaps",
        -10.573868019324392
      ],
      [
        "Ġsolve",
        -10.574147293286842
      ],
      [
        "Ġrough",
        -10.574703355758214
      ],
      [
        "Ġcocaine",
        -10.575423256670316
      ],
      [
        "Ġtour",
        -10.575885329318037
      ],
      [
        "Ġroommate",
        -10.576037667749354
      ],
      [
        "Ġcards",
        -10.576037993425631
      ],
      [
        "Ġrolling",
        -10.576964387528662
      ],
      [
        "Ġdisney",
        -10.577607463738648
      ],
      [
        "Ġgiraffe",
        -10.578248595125958
      ],
      [
        "Ġprogrammer",
        -10.578267103321892
      ],
      [
        "Ġcon",
        -10.579241758701594
      ],
      [
        "Ġblame",
        -10.579873372127805
      ],
      [
        "Ġremain",
        -10.579885951324442
      ],
      [
        "Ġbride",
        -10.580665017965273
      ],
      [
        "Ġpractice",
        -10.58103653138693
      ],
      [
        "Ġcoffin",
        -10.581288476386431
      ],
      [
        "Ġkorean",
        -10.5823557953116
      ],
      [
        "Ġtill",
        -10.582512491045655
      ],
      [
        "Ġarab",
        -10.582683795721064
      ],
      [
        "Ġfourth",
        -10.583195948681533
      ],
      [
        "Ġtribe",
        -10.58373359349207
      ],
      [
        "Ġsugar",
        -10.584240275712183
      ],
      [
        "Ġcharacter",
        -10.58456179543273
      ],
      [
        "Ġsheet",
        -10.58539536829888
      ],
      [
        "sucking",
        -10.585508619797155
      ],
      [
        "Ġsailor",
        -10.585602760442821
      ],
      [
        "Ġdisappointed",
        -10.58570576460425
      ],
      [
        "Ġeveryda",
        -10.585767861068147
      ],
      [
        "Ġtraining",
        -10.588592935898541
      ],
      [
        "Ġsteppe",
        -10.589432625932847
      ],
      [
        "Ġmain",
        -10.589600889324966
      ],
      [
        "Ġprime",
        -10.589688398967944
      ],
      [
        "Ġlips",
        -10.590608972703311
      ],
      [
        "Ġthief",
        -10.591396523639387
      ],
      [
        "Ġgang",
        -10.59157125218865
      ],
      [
        "Ġbutcher",
        -10.591681221150418
      ],
      [
        "ancing",
        -10.591722896165514
      ],
      [
        "Ġtennis",
        -10.591773739199038
      ],
      [
        "Ġcleaning",
        -10.591775064948628
      ],
      [
        "Ġdraw",
        -10.59186565751726
      ],
      [
        "Ġlettuce",
        -10.592685282347587
      ],
      [
        "Ġgarage",
        -10.593658663646615
      ],
      [
        "Ġdoll",
        -10.593682775416427
      ],
      [
        "Ġprofessional",
        -10.593857735077492
      ],
      [
        "Ġoral",
        -10.59423587467857
      ],
      [
        "Ġfellow",
        -10.594371449013682
      ],
      [
        "rate",
        -10.594634118776057
      ],
      [
        "Ġhigher",
        -10.595510475010713
      ],
      [
        "Ġspirit",
        -10.596324714047984
      ],
      [
        "Ġhumans",
        -10.597991282373238
      ],
      [
        "Ġ45",
        -10.598212319682583
      ],
      [
        "ves",
        -10.600008065651327
      ],
      [
        "Ġlower",
        -10.600040218390259
      ],
      [
        "Ġhuh",
        -10.600376892720217
      ],
      [
        "Ġevent",
        -10.601503495250878
      ],
      [
        "Ġwaste",
        -10.602406329362282
      ],
      [
        "Ġactor",
        -10.603319233730328
      ],
      [
        "Ġwarning",
        -10.603446320783434
      ],
      [
        "Ġrespect",
        -10.604124043002908
      ],
      [
        "Ġsubject",
        -10.604256240550782
      ],
      [
        "Ġsoul",
        -10.604863286977444
      ],
      [
        "Ġsilly",
        -10.60500788836557
      ],
      [
        "Ġcoronavirus",
        -10.605524043782001
      ],
      [
        "Ġannoying",
        -10.60561313930373
      ],
      [
        "Ġinterrupt",
        -10.606242929800729
      ],
      [
        "wives",
        -10.606274016213423
      ],
      [
        "Ġchess",
        -10.606432051330938
      ],
      [
        "Ġfault",
        -10.607360958116626
      ],
      [
        "Ġdoors",
        -10.60745052060047
      ],
      [
        "Ġpress",
        -10.608048652821296
      ],
      [
        "Ġeast",
        -10.608053975136784
      ],
      [
        "Ġeinstein",
        -10.608178258253435
      ],
      [
        "Ġinsist",
        -10.608606876207304
      ],
      [
        "Ġowl",
        -10.61039815576742
      ],
      [
        "Ġinsurance",
        -10.610578015080042
      ],
      [
        "Ġspeeding",
        -10.610730299587331
      ],
      [
        "Ġknowing",
        -10.610846183084156
      ],
      [
        "Ġtomato",
        -10.611176022596245
      ],
      [
        "Ġcareful",
        -10.611392360238566
      ],
      [
        "Ġmickey",
        -10.611853039879968
      ],
      [
        "Ġtourist",
        -10.611864744691818
      ],
      [
        "Ġbasketball",
        -10.613108087988321
      ],
      [
        "Ġairline",
        -10.613146071723186
      ],
      [
        "Ġtotal",
        -10.613179726860363
      ],
      [
        "Ġporch",
        -10.614777636822282
      ],
      [
        "Ġcelebrate",
        -10.61485195890798
      ],
      [
        "Ġ21",
        -10.615480347915971
      ],
      [
        "worker",
        -10.615674556400625
      ],
      [
        "Ġbunny",
        -10.616813549584084
      ],
      [
        "Ġinstant",
        -10.616939877371234
      ],
      [
        "Ġparent",
        -10.618217307914325
      ],
      [
        "Ġpuzzled",
        -10.618371270636379
      ],
      [
        "Ġoperator",
        -10.62064430690762
      ],
      [
        "Ġborrow",
        -10.62217752144608
      ],
      [
        "Ġhomework",
        -10.622594825009914
      ],
      [
        "Ġaccording",
        -10.62265885456566
      ],
      [
        "Ġchemistr",
        -10.622702078722368
      ],
      [
        "Ġfetish",
        -10.623267275615499
      ],
      [
        "Ġshocke",
        -10.625387888100509
      ],
      [
        "Ġshowing",
        -10.625648273424293
      ],
      [
        "Ġcommit",
        -10.62602935847232
      ],
      [
        "Ġcode",
        -10.626576685580456
      ],
      [
        "Ġpantie",
        -10.626866943453939
      ],
      [
        "Ġsubreddit",
        -10.627231872689485
      ],
      [
        "Ġmilitary",
        -10.627815905975098
      ],
      [
        "Ġlimit",
        -10.62782091721839
      ],
      [
        "Ġrelax",
        -10.628462374076408
      ],
      [
        "q",
        -10.628702114850705
      ],
      [
        "Ġcompliment",
        -10.629094280131316
      ],
      [
        "Ġknight",
        -10.629258762263397
      ],
      [
        "Ġaudience",
        -10.629727697085315
      ],
      [
        "Ġannoyed",
        -10.630887816491823
      ],
      [
        "Ġslice",
        -10.630894401460875
      ],
      [
        "Ġdecision",
        -10.632728325295927
      ],
      [
        "Ġcloud",
        -10.633545821713028
      ],
      [
        "Ġbatter",
        -10.633610936939824
      ],
      [
        "Ġattendant",
        -10.633667800312228
      ],
      [
        "Ġmoses",
        -10.633699243264491
      ],
      [
        "Ġtexa",
        -10.633945383149506
      ],
      [
        "Ġzero",
        -10.633983821822806
      ],
      [
        "Ġ70",
        -10.634529292255806
      ],
      [
        "Ġsplit",
        -10.634685170327806
      ],
      [
        "Ġvillage",
        -10.63526125451625
      ],
      [
        "Ġproduce",
        -10.636150509726832
      ],
      [
        "eaten",
        -10.636217480865492
      ],
      [
        "Ġbolt",
        -10.636341544618785
      ],
      [
        "Ġattend",
        -10.637375670691524
      ],
      [
        "leans",
        -10.640554256215314
      ],
      [
        "Ġmood",
        -10.642864528765887
      ],
      [
        "Ġflew",
        -10.64336994112049
      ],
      [
        "Ġlotter",
        -10.64377237799859
      ],
      [
        "Ġlawn",
        -10.64386723292677
      ],
      [
        "Ġsports",
        -10.644509396964974
      ],
      [
        "Ġchas",
        -10.645130831603797
      ],
      [
        "Ġmuffin",
        -10.645217616905054
      ],
      [
        "Ġkinda",
        -10.646735109956966
      ],
      [
        "Ġshame",
        -10.646797023223616
      ],
      [
        "Ġchips",
        -10.646854049756985
      ],
      [
        "Ġaction",
        -10.646947621196183
      ],
      [
        "Ġdozen",
        -10.648027221214836
      ],
      [
        "Ġglove",
        -10.64804060026134
      ],
      [
        "Ġmile",
        -10.649142895126463
      ],
      [
        "Ġrefrigerator",
        -10.650574095342689
      ],
      [
        "Ġburie",
        -10.650622736095784
      ],
      [
        "visibl",
        -10.6508780042872
      ],
      [
        "Ġparachute",
        -10.651548730388445
      ],
      [
        "Ġsally",
        -10.652925291837946
      ],
      [
        "be",
        -10.653375433676072
      ],
      [
        "Ġbelow",
        -10.65479034969929
      ],
      [
        "Ġkarma",
        -10.655514763735539
      ],
      [
        "Ġsecretar",
        -10.656774313849759
      ],
      [
        "Ġstrike",
        -10.65721057794333
      ],
      [
        "Ġfarts",
        -10.658553217760765
      ],
      [
        "Ġfancy",
        -10.65867088021949
      ],
      [
        "Ġsport",
        -10.65931461848199
      ],
      [
        "hiding",
        -10.659416623337496
      ],
      [
        "Ġknot",
        -10.660451802326516
      ],
      [
        "Ġespecial",
        -10.662108187555798
      ],
      [
        "Ġdam",
        -10.663543230057318
      ],
      [
        "Ġapples",
        -10.663722148741524
      ],
      [
        "Ġofficial",
        -10.663987816408495
      ],
      [
        "Ġpills",
        -10.664045301432616
      ],
      [
        "Ġeuropean",
        -10.66646952099436
      ],
      [
        "Ġworm",
        -10.666492334162257
      ],
      [
        "Ġwonderful",
        -10.666499002498888
      ],
      [
        "Ġbeard",
        -10.667837015803011
      ],
      [
        "Ġfork",
        -10.669285949988652
      ],
      [
        "Ġjohnson",
        -10.66941382944919
      ],
      [
        "19",
        -10.670146993203186
      ],
      [
        "Ġpressure",
        -10.670524762247592
      ],
      [
        "Ġweak",
        -10.6712287998979
      ],
      [
        "Ġpickle",
        -10.672897485793499
      ],
      [
        "Ġmario",
        -10.672997530123759
      ],
      [
        "Ġpainting",
        -10.67367827337575
      ],
      [
        "Ġballoon",
        -10.674662386481408
      ],
      [
        "Ġmeaning",
        -10.6752714850522
      ],
      [
        "Ġjacket",
        -10.676202016975441
      ],
      [
        "Ġignore",
        -10.676246546367906
      ],
      [
        "Ġpeace",
        -10.67717319633845
      ],
      [
        "Ġjeff",
        -10.67761179957338
      ],
      [
        "Ġdevelop",
        -10.677658715029779
      ],
      [
        "Ġflash",
        -10.679470565061763
      ],
      [
        "of",
        -10.680781984610956
      ],
      [
        "Ġprayer",
        -10.680883907403768
      ],
      [
        "Ġmembers",
        -10.682443622662634
      ],
      [
        "Ġdefinition",
        -10.682683936224308
      ],
      [
        "Ġlaughter",
        -10.683184822789745
      ],
      [
        "Ġsuspect",
        -10.684063012523644
      ],
      [
        "Ġlock",
        -10.68409763959312
      ],
      [
        "Ġevil",
        -10.68452707669396
      ],
      [
        "Ġspelling",
        -10.685634624400576
      ],
      [
        "Ġbarbie",
        -10.685875413383012
      ],
      [
        "Ġissue",
        -10.687045502298457
      ],
      [
        "navy",
        -10.687057586981359
      ],
      [
        "Ġuniverse",
        -10.68801714323757
      ],
      [
        "Ġapologize",
        -10.688523429609877
      ],
      [
        "Ġguide",
        -10.689161730537247
      ],
      [
        "Ġpound",
        -10.689185335284439
      ],
      [
        "Ġversion",
        -10.689349756081342
      ],
      [
        "Ġbond",
        -10.689720861326375
      ],
      [
        "Ġuser",
        -10.690235581951741
      ],
      [
        "Ġpoison",
        -10.690334314919198
      ],
      [
        "Ġharder",
        -10.690945216758625
      ],
      [
        "Ġlee",
        -10.691317228901466
      ],
      [
        "Ġaim",
        -10.6916715436138
      ],
      [
        "Ġlighter",
        -10.691787664311
      ],
      [
        "concerned",
        -10.692024247747785
      ],
      [
        "Ġimpossibl",
        -10.692143328761126
      ],
      [
        "Ġchuckle",
        -10.692332134942006
      ],
      [
        "Ġdirector",
        -10.69242351735929
      ],
      [
        "Ġcab",
        -10.69276338931769
      ],
      [
        "Ġdrives",
        -10.692892780896134
      ],
      [
        "Ġdepends",
        -10.693148483200034
      ],
      [
        "Ġsilver",
        -10.69377504377443
      ],
      [
        "Ġcenter",
        -10.6947395656113
      ],
      [
        "Ġchew",
        -10.695073964733606
      ],
      [
        "Ġmodel",
        -10.69586259316942
      ],
      [
        "Ġconcert",
        -10.69707515800344
      ],
      [
        "Ġmedicine",
        -10.697752749911334
      ],
      [
        "Ġtear",
        -10.698104636869951
      ],
      [
        "Ġappreciate",
        -10.69812625382568
      ],
      [
        "Ġpoof",
        -10.69853880901824
      ],
      [
        "Ġupvote",
        -10.699243192397368
      ],
      [
        "Ġjelly",
        -10.699254342461703
      ],
      [
        "Ġomg",
        -10.699604643016436
      ],
      [
        "Ġconstruction",
        -10.700518483761302
      ],
      [
        "Ġteaching",
        -10.700577409000598
      ],
      [
        "Ġrubb",
        -10.702412300365094
      ],
      [
        "Ġputtin",
        -10.70248961070811
      ],
      [
        "Ġlit",
        -10.702655337044872
      ],
      [
        "Ġjoint",
        -10.702801823530407
      ],
      [
        "Ġmadam",
        -10.703459761644876
      ],
      [
        "Ġsticks",
        -10.704701906597577
      ],
      [
        "Ġpre",
        -10.706041698059895
      ],
      [
        "Ġfans",
        -10.706304887407853
      ],
      [
        "Ġteenage",
        -10.706602010018972
      ],
      [
        "Ġrear",
        -10.706833943231192
      ],
      [
        "Ġcrush",
        -10.707693807506628
      ],
      [
        "Ġdadjoke",
        -10.708509050798092
      ],
      [
        "Ġtaco",
        -10.709771995307905
      ],
      [
        "Ġprisoner",
        -10.710423763002655
      ],
      [
        "Ġth",
        -10.710460275354215
      ],
      [
        "Ġeurope",
        -10.711289207934904
      ],
      [
        "Ġusa",
        -10.711850701343412
      ],
      [
        "Ġuniversit",
        -10.713051964910516
      ],
      [
        "Ġsoccer",
        -10.7130842305315
      ],
      [
        "Ġshitty",
        -10.71381265330199
      ],
      [
        "Ġkeller",
        -10.714465218602495
      ],
      [
        "Ġrapper",
        -10.715496759805648
      ],
      [
        "Ġsaturday",
        -10.71586075231351
      ],
      [
        "Ġsodium",
        -10.716085494412088
      ],
      [
        "Ġdishe",
        -10.716863198205292
      ],
      [
        "Ġdirect",
        -10.71734332983171
      ],
      [
        "Ġcopy",
        -10.718235022724658
      ],
      [
        "8",
        -10.718575670307313
      ],
      [
        "Ġmarijuana",
        -10.718677103269844
      ],
      [
        "Ġbarely",
        -10.72168817211092
      ],
      [
        "Ġmassive",
        -10.721694921593823
      ],
      [
        "Ġtrunk",
        -10.722932886009556
      ],
      [
        "cause",
        -10.723074007013887
      ],
      [
        "Ġinsult",
        -10.72363887381838
      ],
      [
        "Ġsneeze",
        -10.724233942710192
      ],
      [
        "Ġplumber",
        -10.72438267738604
      ],
      [
        "Ġfloat",
        -10.724537163051915
      ],
      [
        "Ġscreen",
        -10.72464785258111
      ],
      [
        "Ġliquor",
        -10.725746068806425
      ],
      [
        "Ġanniversar",
        -10.725762139846745
      ],
      [
        "Ġsubway",
        -10.727257347283517
      ],
      [
        "Ġmeasure",
        -10.72734541583429
      ],
      [
        "Ġjumping",
        -10.727422372512722
      ],
      [
        "Ġstock",
        -10.72754624031819
      ],
      [
        "Ġhaircut",
        -10.727907608699955
      ],
      [
        "6",
        -10.728502266522074
      ],
      [
        "while",
        -10.728631261590625
      ],
      [
        "Ġmall",
        -10.729028833305875
      ],
      [
        "ware",
        -10.729722209807065
      ],
      [
        "Ġsource",
        -10.729743832980635
      ],
      [
        "Ġassistant",
        -10.7300268925231
      ],
      [
        "Ġmask",
        -10.7301574237631
      ],
      [
        "Ġwinning",
        -10.731068850629251
      ],
      [
        "Ġhardes",
        -10.73114549544712
      ],
      [
        "Ġcage",
        -10.731689968541463
      ],
      [
        "Ġthanksgiving",
        -10.732000405749977
      ],
      [
        "Ġphoto",
        -10.732452521284117
      ],
      [
        "Ġpronounce",
        -10.733860303763858
      ],
      [
        "Ġcheer",
        -10.735006971852663
      ],
      [
        "Ġceo",
        -10.735297380509152
      ],
      [
        "Ġsuccess",
        -10.735382049485956
      ],
      [
        "Ġatom",
        -10.735781673341078
      ],
      [
        "Ġdictionary",
        -10.735900028544826
      ],
      [
        "ium",
        -10.736020980583602
      ],
      [
        "Ġexhaust",
        -10.736112538453408
      ],
      [
        "Ġdonate",
        -10.736366441690588
      ],
      [
        "Ġspray",
        -10.736565674213516
      ],
      [
        "Ġmelon",
        -10.736724471640962
      ],
      [
        "Ġban",
        -10.73777108672933
      ],
      [
        "Ġgynecologist",
        -10.737898720713432
      ],
      [
        "Ġcomments",
        -10.738452270028258
      ],
      [
        "Ġpa",
        -10.738929799362253
      ],
      [
        "king",
        -10.738932073915139
      ],
      [
        "Ġurine",
        -10.739639170147083
      ],
      [
        "Ġbelong",
        -10.740100867900042
      ],
      [
        "Ġshaking",
        -10.740114499695125
      ],
      [
        "Ġexchange",
        -10.741010655810378
      ],
      [
        "Ġgolden",
        -10.741070132365557
      ],
      [
        "Ġconvince",
        -10.74148506509108
      ],
      [
        "Ġinform",
        -10.741612584933304
      ],
      [
        "Ġboil",
        -10.742785799828994
      ],
      [
        "Ġdragon",
        -10.744237124626094
      ],
      [
        "Ġrude",
        -10.745220687261057
      ],
      [
        "day",
        -10.745297095777806
      ],
      [
        "Ġbanned",
        -10.745303458901766
      ],
      [
        "Ġpanic",
        -10.746212127570821
      ],
      [
        "Ġcomedy",
        -10.746828697537858
      ],
      [
        "led",
        -10.74918592253064
      ],
      [
        "Ġitem",
        -10.750051283744368
      ],
      [
        "Ġsteer",
        -10.750404488390751
      ],
      [
        "house",
        -10.750663937900946
      ],
      [
        "Ġforth",
        -10.750854355470056
      ],
      [
        "problems",
        -10.75108841242098
      ],
      [
        "Ġsam",
        -10.751385873070483
      ],
      [
        "Ġspaghetti",
        -10.75216415282759
      ],
      [
        "Ġboo",
        -10.753884204748532
      ],
      [
        "Ġwaist",
        -10.754419807589343
      ],
      [
        "Ġlies",
        -10.75470827270319
      ],
      [
        "Ġpicking",
        -10.755050406106374
      ],
      [
        "Ġhammer",
        -10.755692583438197
      ],
      [
        "Ġchanging",
        -10.756126933071357
      ],
      [
        "Ġpearl",
        -10.75672797983003
      ],
      [
        "ears",
        -10.757253678624222
      ],
      [
        "Ġlog",
        -10.75809744931267
      ],
      [
        "like",
        -10.758953891172828
      ],
      [
        "Ġbruce",
        -10.759046064195665
      ],
      [
        "Ġcast",
        -10.759357887765988
      ],
      [
        "Ġwebsite",
        -10.760407650730949
      ],
      [
        "Ġbone",
        -10.760575439314145
      ],
      [
        "Ġneighborhood",
        -10.761944891655471
      ],
      [
        "Ġlegal",
        -10.7623192176156
      ],
      [
        "Ġadmit",
        -10.762364918023476
      ],
      [
        "Ġwitch",
        -10.762387826191471
      ],
      [
        "Ġwins",
        -10.76310199149728
      ],
      [
        "Ġhelen",
        -10.763363516664255
      ],
      [
        "Ġmarine",
        -10.763464276154322
      ],
      [
        "Ġgather",
        -10.76424557032373
      ],
      [
        "Ġkeys",
        -10.764840533967321
      ],
      [
        "Ġweapon",
        -10.765974186540234
      ],
      [
        "Ġaccent",
        -10.766302446443124
      ],
      [
        "Ġburning",
        -10.767372925329049
      ],
      [
        "Ġapp",
        -10.768569356795508
      ],
      [
        "Ġexpecting",
        -10.76866264934224
      ],
      [
        "Ġfred",
        -10.768735829534148
      ],
      [
        "Ġgrey",
        -10.769139215869043
      ],
      [
        "Ġrob",
        -10.769209926246464
      ],
      [
        "Ġparticular",
        -10.770922573963304
      ],
      [
        "Ġmicrowave",
        -10.77158407863952
      ],
      [
        "Ġwrap",
        -10.77216698906095
      ],
      [
        "Ġsaving",
        -10.772856042553844
      ],
      [
        "Ġnewton",
        -10.77317700670132
      ],
      [
        "Ġloss",
        -10.774568523261205
      ],
      [
        "Ġteenager",
        -10.774719241496104
      ],
      [
        "Ġbrick",
        -10.774730913272371
      ],
      [
        "Ġham",
        -10.774827347555156
      ],
      [
        "Ġrise",
        -10.774869812618828
      ],
      [
        "Ġrubber",
        -10.775165819918723
      ],
      [
        "Ġscare",
        -10.775387222537507
      ],
      [
        "Ġdepartment",
        -10.775993237078064
      ],
      [
        "Ġobject",
        -10.776325589425102
      ],
      [
        "Ġorgasm",
        -10.776371753006561
      ],
      [
        "Ġlucki",
        -10.776471046706819
      ],
      [
        "Ġsolution",
        -10.776812622407691
      ],
      [
        "Ġcapital",
        -10.777202889277124
      ],
      [
        "Ġalarm",
        -10.778280772013959
      ],
      [
        "Ġeasil",
        -10.778356570812367
      ],
      [
        "Ġcave",
        -10.77848734632969
      ],
      [
        "Ġrap",
        -10.779354841268425
      ],
      [
        "Ġaccuse",
        -10.779592306384608
      ],
      [
        "Ġdiamond",
        -10.779695046020752
      ],
      [
        "Ġsara",
        -10.781004536611878
      ],
      [
        "Ġdetective",
        -10.781198027157162
      ],
      [
        "Ġrobin",
        -10.781756265080311
      ],
      [
        "Ġclaus",
        -10.782231127694686
      ],
      [
        "Ġlobster",
        -10.78269616763196
      ],
      [
        "Ġamazon",
        -10.78348697952914
      ],
      [
        "roses",
        -10.7858232149257
      ],
      [
        "Ġsherlock",
        -10.787214127623828
      ],
      [
        "Ġlocked",
        -10.78740995496777
      ],
      [
        "Ġerror",
        -10.78805652966086
      ],
      [
        "Ġ2016",
        -10.788180298843429
      ],
      [
        "Ġwarn",
        -10.788466373566092
      ],
      [
        "Ġslip",
        -10.788618636111302
      ],
      [
        "Ġsupermarket",
        -10.78872815333996
      ],
      [
        "Ġspill",
        -10.789060539374983
      ],
      [
        "Ġfrustrated",
        -10.789259908993202
      ],
      [
        "Ġbeating",
        -10.790006715255885
      ],
      [
        "Ġissues",
        -10.79016255036029
      ],
      [
        "Ġtractor",
        -10.790253353338866
      ],
      [
        "Ġfries",
        -10.790463571944219
      ],
      [
        "sight",
        -10.791564559214011
      ],
      [
        "wash",
        -10.7918965534353
      ],
      [
        "Ġcemetery",
        -10.792002769614712
      ],
      [
        "Ġstudie",
        -10.792907386136207
      ],
      [
        "Ġclassic",
        -10.793938747604395
      ],
      [
        "Ġpassing",
        -10.794193657983628
      ],
      [
        "Ġloan",
        -10.794485812445835
      ],
      [
        "Ġsociet",
        -10.794655504244272
      ],
      [
        "Ġaunt",
        -10.795005714840164
      ],
      [
        "Ġstorie",
        -10.795470920452512
      ],
      [
        "Ġ17",
        -10.796730762942534
      ],
      [
        "Ġdelete",
        -10.797370883541062
      ],
      [
        "Ġangri",
        -10.797840110120871
      ],
      [
        "Ġbalance",
        -10.797974620487306
      ],
      [
        "served",
        -10.799689588074632
      ],
      [
        "Ġchickens",
        -10.80028226689688
      ],
      [
        "Ġequal",
        -10.80087702319026
      ],
      [
        "Ġrelative",
        -10.800893846609238
      ],
      [
        "Ġassume",
        -10.801239242605359
      ],
      [
        "Ġrent",
        -10.801383257575493
      ],
      [
        "Ġvegetarian",
        -10.801859050677503
      ],
      [
        "Ġmcdonald",
        -10.801909687668395
      ],
      [
        "Ġhappi",
        -10.802526843468257
      ],
      [
        "Ġearl",
        -10.80294864079779
      ],
      [
        "Ġaddress",
        -10.803366709452686
      ],
      [
        "Ġeagle",
        -10.803509007922099
      ],
      [
        "Ġbasement",
        -10.805596958483092
      ],
      [
        "Ġbald",
        -10.8061533710658
      ],
      [
        "Ġsaint",
        -10.807064255424105
      ],
      [
        "Ġpointed",
        -10.807322372808631
      ],
      [
        "Ġsection",
        -10.807701169306775
      ],
      [
        "Ġquack",
        -10.809080440363775
      ],
      [
        "Ġseek",
        -10.809376867334251
      ],
      [
        "Ġlaundry",
        -10.809398527351808
      ],
      [
        "Ġgolfer",
        -10.809976623088406
      ],
      [
        "ant",
        -10.811156315685665
      ],
      [
        "Ġgrown",
        -10.811188943295102
      ],
      [
        "Ġsauce",
        -10.81126750160746
      ],
      [
        "Ġtrans",
        -10.81147756762044
      ],
      [
        "Ġjones",
        -10.811590302759413
      ],
      [
        "Ġgrand",
        -10.812039302776967
      ],
      [
        "Ġmedia",
        -10.812355279752786
      ],
      [
        "Ġsh",
        -10.813068388518548
      ],
      [
        "Ġholmes",
        -10.81555729101995
      ],
      [
        "Ġappointment",
        -10.816316092985915
      ],
      [
        "Ġdarling",
        -10.817939872571356
      ],
      [
        "Ġexercise",
        -10.818743360309893
      ],
      [
        "Ġoffensive",
        -10.819299803002492
      ],
      [
        "Ġcereal",
        -10.819426499222837
      ],
      [
        "Ġchris",
        -10.820069095416347
      ],
      [
        "Ġetc",
        -10.82133062033358
      ],
      [
        "Ġmicrosoft",
        -10.822548014543269
      ],
      [
        "Ġrules",
        -10.82283093292154
      ],
      [
        "Ġlondon",
        -10.825154468480243
      ],
      [
        "for",
        -10.825388475542063
      ],
      [
        "Ġtape",
        -10.825430509117975
      ],
      [
        "Ġtender",
        -10.826259028116482
      ],
      [
        "Ġtickle",
        -10.826272868211841
      ],
      [
        "Ġreads",
        -10.82653985856522
      ],
      [
        "Ġoctopus",
        -10.82654441481611
      ],
      [
        "Ġfed",
        -10.827095773501181
      ],
      [
        "Ġpolite",
        -10.827631266296184
      ],
      [
        "Ġwolf",
        -10.828423247685004
      ],
      [
        "Ġmosquito",
        -10.82844175063288
      ],
      [
        "Ġbillion",
        -10.830935247965574
      ],
      [
        "Ġspots",
        -10.831294499371149
      ],
      [
        "Ġintroduce",
        -10.831770380118767
      ],
      [
        "Ġimmigrant",
        -10.833554292660796
      ],
      [
        "Ġmultiple",
        -10.833556380614455
      ],
      [
        "Ġshift",
        -10.833598878968154
      ],
      [
        "Ġtarget",
        -10.833609644900456
      ],
      [
        "Ġlearning",
        -10.83388652916576
      ],
      [
        "Ġbubble",
        -10.83443405645161
      ],
      [
        "Ġluke",
        -10.835313763902214
      ],
      [
        "Ġmid",
        -10.835883430261482
      ],
      [
        "Ġdust",
        -10.836185844297514
      ],
      [
        "Ġinstructor",
        -10.836738263571554
      ],
      [
        "Ġspoon",
        -10.83686909468697
      ],
      [
        "Ġcreat",
        -10.836938224337121
      ],
      [
        "Ġmoan",
        -10.837069559610295
      ],
      [
        "Ġprogram",
        -10.837797946200993
      ],
      [
        "Ġstephen",
        -10.838309512817485
      ],
      [
        "Ġboring",
        -10.838621574942552
      ],
      [
        "Ġlaptop",
        -10.83990156264295
      ],
      [
        "un",
        -10.840620494542732
      ],
      [
        "Ġloudly",
        -10.84125565856461
      ],
      [
        "Ġloose",
        -10.84290415740267
      ],
      [
        "Ġfeather",
        -10.843283885081407
      ],
      [
        "Ġinformation",
        -10.843680050125379
      ],
      [
        "Ġconstipate",
        -10.844683240999874
      ],
      [
        "Ġwizard",
        -10.844863875168336
      ],
      [
        "Ġhall",
        -10.845060498421985
      ],
      [
        "Ġaustralia",
        -10.845364020522439
      ],
      [
        "Ġelectric",
        -10.845965193112791
      ],
      [
        "Ġmeme",
        -10.847144943183764
      ],
      [
        "Ġcap",
        -10.84765576139905
      ],
      [
        "Ġdaily",
        -10.849040968862468
      ],
      [
        "Ġhurricane",
        -10.84949074780074
      ],
      [
        "Ġsight",
        -10.85191006601132
      ],
      [
        "Ġusual",
        -10.852253595781834
      ],
      [
        "Ġkeyboard",
        -10.85316032140345
      ],
      [
        "Ġunle",
        -10.8533022864364
      ],
      [
        "ling",
        -10.853313824096528
      ],
      [
        "Ġlands",
        -10.853590937901789
      ],
      [
        "Ġsighs",
        -10.854034434256393
      ],
      [
        "quality",
        -10.854059254368517
      ],
      [
        "Ġstaff",
        -10.854316638889564
      ],
      [
        "Ġtap",
        -10.855573229341877
      ],
      [
        "Ġcrew",
        -10.855601316419074
      ],
      [
        "Ġafterward",
        -10.856175954270094
      ],
      [
        "Ġboom",
        -10.856595185546512
      ],
      [
        "Ġassault",
        -10.857577895293659
      ],
      [
        "Ġbabe",
        -10.85884920909051
      ],
      [
        "Ġgarbage",
        -10.859178723471333
      ],
      [
        "Ġhelping",
        -10.859335888400304
      ],
      [
        "Ġcircus",
        -10.859569814575737
      ],
      [
        "Ġsales",
        -10.859938580849086
      ],
      [
        "Ġfifth",
        -10.861507070885747
      ],
      [
        "Ġthreesome",
        -10.86260029068459
      ],
      [
        "Ġeffect",
        -10.862923818070533
      ],
      [
        "Ġscore",
        -10.863993506279389
      ],
      [
        "Ġbarn",
        -10.864037980820232
      ],
      [
        "Ġmars",
        -10.864481879727638
      ],
      [
        "Ġwaits",
        -10.864849838395624
      ],
      [
        "Ġdish",
        -10.864985005089926
      ],
      [
        "Ġslam",
        -10.865487030969815
      ],
      [
        "Ġglue",
        -10.865994836251515
      ],
      [
        "Ġbeauty",
        -10.86694503694654
      ],
      [
        "Ġguns",
        -10.867760136171118
      ],
      [
        "Ġfile",
        -10.86866781348675
      ],
      [
        "Ġdonut",
        -10.86934469389059
      ],
      [
        "Ġreaction",
        -10.869632172605957
      ],
      [
        "Ġoperation",
        -10.86963781107169
      ],
      [
        "Ġpreacher",
        -10.870732239453403
      ],
      [
        "Ġorgan",
        -10.870757476868615
      ],
      [
        "Ġcommunit",
        -10.871059916902812
      ],
      [
        "Ġwa",
        -10.872247705812917
      ],
      [
        "Ġouch",
        -10.872499167438011
      ],
      [
        "Ġjustin",
        -10.872659200198047
      ],
      [
        "Ġkiddin",
        -10.872992950548216
      ],
      [
        "Ġcalendar",
        -10.873074063632291
      ],
      [
        "Ġcrocodile",
        -10.873074462014781
      ],
      [
        "Ġswing",
        -10.873997268264024
      ],
      [
        "Ġsnowman",
        -10.874597699933762
      ],
      [
        "Ġtwist",
        -10.87525608372815
      ],
      [
        "Ġdolphin",
        -10.875336347947178
      ],
      [
        "Ġscout",
        -10.876040204044171
      ],
      [
        "Ġsneak",
        -10.876533693984523
      ],
      [
        "Ġancient",
        -10.877179816466647
      ],
      [
        "Ġfurther",
        -10.87723521249128
      ],
      [
        "sexually",
        -10.878622907550037
      ],
      [
        "Ġbin",
        -10.879607379534242
      ],
      [
        "Ġvehicle",
        -10.880488340157461
      ],
      [
        "Ġbark",
        -10.88056936275166
      ],
      [
        "Ġauto",
        -10.881272422116982
      ],
      [
        "Ġsean",
        -10.882008827877453
      ],
      [
        "Ġtuna",
        -10.882439436238354
      ],
      [
        "Ġsmash",
        -10.882975924538059
      ],
      [
        "Ġphysical",
        -10.884076873728201
      ],
      [
        "hey",
        -10.884508669575006
      ],
      [
        "Ġmoral",
        -10.884725748633876
      ],
      [
        "Ġfastes",
        -10.884980892480261
      ],
      [
        "Ġbuddhist",
        -10.886203676291618
      ],
      [
        "Ġcruise",
        -10.886913384004565
      ],
      [
        "Ġwings",
        -10.88705850276327
      ],
      [
        "Ġwalmart",
        -10.887141158353705
      ],
      [
        "Ġ300",
        -10.88747322563777
      ],
      [
        "Ġsemen",
        -10.887996223259005
      ],
      [
        "Ġthrown",
        -10.889331143428278
      ],
      [
        "Ġreality",
        -10.890529379494168
      ],
      [
        "Ġjapan",
        -10.891249585168183
      ],
      [
        "Ġdysfunction",
        -10.891668547830857
      ],
      [
        "Ġparis",
        -10.891771441319634
      ],
      [
        "7",
        -10.891909100792695
      ],
      [
        "Ġdisable",
        -10.89209875767287
      ],
      [
        "Ġseparate",
        -10.892728086056312
      ],
      [
        "Ġtent",
        -10.892955171082516
      ],
      [
        "Ġpackage",
        -10.893756065384206
      ],
      [
        "Ġpurchase",
        -10.893769536096926
      ],
      [
        "Ġprocess",
        -10.894424247062503
      ],
      [
        "Ġfinishe",
        -10.895394167104268
      ],
      [
        "Ġaward",
        -10.895786645644227
      ],
      [
        "Ġpi",
        -10.896456240795256
      ],
      [
        "Ġpurse",
        -10.897406763108336
      ],
      [
        "Ġexplode",
        -10.898083907261569
      ],
      [
        "Ġsample",
        -10.899123452531228
      ],
      [
        "socks",
        -10.899632790898028
      ],
      [
        "Ġwifi",
        -10.899680088593449
      ],
      [
        "Ġraining",
        -10.899939553099694
      ],
      [
        "Ġbrush",
        -10.900539906162841
      ],
      [
        "Ġinstall",
        -10.90142154869633
      ],
      [
        "Ġbless",
        -10.901496407154383
      ],
      [
        "Ġlonel",
        -10.902172989903981
      ],
      [
        "Ġbeginning",
        -10.902287716621016
      ],
      [
        "Ġdough",
        -10.902497397278564
      ],
      [
        "Ġheat",
        -10.903599561181263
      ],
      [
        "Ġcorona",
        -10.903985213711401
      ],
      [
        "Ġhomosexual",
        -10.90399572545616
      ],
      [
        "Ġstarbuck",
        -10.904160942163013
      ],
      [
        "Ġguest",
        -10.906449714204212
      ],
      [
        "Ġolive",
        -10.90674659136873
      ],
      [
        "Ġplannin",
        -10.907062913523578
      ],
      [
        "Ġstripper",
        -10.907592462491582
      ],
      [
        "Ġscottish",
        -10.909062013958994
      ],
      [
        "wife",
        -10.91018330447143
      ],
      [
        "Ġthor",
        -10.910299742545138
      ],
      [
        "Ġvalentine",
        -10.910320076810823
      ],
      [
        "Ġapparent",
        -10.910501844124132
      ],
      [
        "Ġsmiling",
        -10.910770331608573
      ],
      [
        "Ġamazed",
        -10.911145584836321
      ],
      [
        "Ġpillow",
        -10.912828711422387
      ],
      [
        "Ġyea",
        -10.914279271634587
      ],
      [
        "Ġrush",
        -10.915049651703326
      ],
      [
        "Ġadopted",
        -10.91620672218947
      ],
      [
        "can",
        -10.91625195125005
      ],
      [
        "Ġtire",
        -10.916492178794048
      ],
      [
        "ants",
        -10.916918017444218
      ],
      [
        "Ġwashington",
        -10.91763077038882
      ],
      [
        "yep",
        -10.917679072128731
      ],
      [
        "Ġreveal",
        -10.917714065674375
      ],
      [
        "Ġpigs",
        -10.917901400483093
      ],
      [
        "Ġgain",
        -10.918324124961554
      ],
      [
        "Ġgarbanzo",
        -10.919344558744818
      ],
      [
        "Ġinstrument",
        -10.919356529846981
      ],
      [
        "Ġspoke",
        -10.919759223956152
      ],
      [
        "Ġrealiz",
        -10.919810950964301
      ],
      [
        "Ġdj",
        -10.919884177931259
      ],
      [
        "Ġtax",
        -10.92073153033025
      ],
      [
        "Ġcoach",
        -10.9210509366507
      ],
      [
        "ping",
        -10.922434189202225
      ],
      [
        "Ġrocks",
        -10.922665461335246
      ],
      [
        "Ġbasical",
        -10.924558219569906
      ],
      [
        "Ġtechnolog",
        -10.924611819067774
      ],
      [
        "Ġwitness",
        -10.924627437210336
      ],
      [
        "Ġpoo",
        -10.924948189682148
      ],
      [
        "Ġchecks",
        -10.925085857739234
      ],
      [
        "Ġscot",
        -10.925127605509077
      ],
      [
        "Ġresearch",
        -10.9256915580891
      ],
      [
        "Ġcircumcision",
        -10.926295990856627
      ],
      [
        "Ġsimpl",
        -10.927485057973094
      ],
      [
        "Ġchannel",
        -10.927492195614004
      ],
      [
        "Ġtrap",
        -10.927599766461865
      ],
      [
        "aged",
        -10.928499494582582
      ],
      [
        "Ġslap",
        -10.928700743329985
      ],
      [
        "Ġcutting",
        -10.92967422448529
      ],
      [
        "Ġchose",
        -10.929743054353999
      ],
      [
        "Ġdisgusting",
        -10.930934324242351
      ],
      [
        "Ġthick",
        -10.931035750478312
      ],
      [
        "Ġavail",
        -10.931476437331401
      ],
      [
        "Ġholocaust",
        -10.931477334589095
      ],
      [
        "Ġdiagnose",
        -10.932581467411655
      ],
      [
        "Ġcalifornia",
        -10.933180506923833
      ],
      [
        "Ġgrin",
        -10.933252302050663
      ],
      [
        "Ġhurry",
        -10.933315652203614
      ],
      [
        "Ġchase",
        -10.933415559686846
      ],
      [
        "--",
        -10.933472048040407
      ],
      [
        "series",
        -10.933475630230708
      ],
      [
        "Ġdesperate",
        -10.933567239854524
      ],
      [
        "Ġflower",
        -10.933637967880234
      ],
      [
        "rex",
        -10.93373258998601
      ],
      [
        "Ġserver",
        -10.933762652032271
      ],
      [
        "Ġbeans",
        -10.934043847505585
      ],
      [
        "Ġcommercial",
        -10.935509852541358
      ],
      [
        "Ġclient",
        -10.936090778698858
      ],
      [
        "Ġboner",
        -10.93666811544649
      ],
      [
        "Ġtuesday",
        -10.936722441874897
      ],
      [
        "Ġgorgeous",
        -10.936723426347832
      ],
      [
        "Ġaddict",
        -10.937642622949294
      ],
      [
        "ible",
        -10.938330807802485
      ],
      [
        "Ġguilty",
        -10.939451420874821
      ],
      [
        "Ġnails",
        -10.939473507192556
      ],
      [
        "Ġsinger",
        -10.94079509216778
      ],
      [
        "Ġstoned",
        -10.940830144310059
      ],
      [
        "Ġapply",
        -10.941719790071305
      ],
      [
        "Ġgrill",
        -10.941915285585974
      ],
      [
        "Ġprom",
        -10.941980792680582
      ],
      [
        "Ġdelicious",
        -10.941994317661113
      ],
      [
        "Ġbi",
        -10.942733792255865
      ],
      [
        "Ġmenu",
        -10.942900294427044
      ],
      [
        "Ġuk",
        -10.943124304138045
      ],
      [
        "Ġbreathe",
        -10.943378243618376
      ],
      [
        "Ġsquirrel",
        -10.944375218738564
      ],
      [
        "Ġresist",
        -10.945983378363163
      ],
      [
        "Ġcolour",
        -10.94660132537022
      ],
      [
        "stood",
        -10.94711409059639
      ],
      [
        "Ġfifty",
        -10.947851846284065
      ],
      [
        "Ġflip",
        -10.949656196456889
      ],
      [
        "Ġwise",
        -10.95028006596337
      ],
      [
        "Ġpride",
        -10.95036794872549
      ],
      [
        "aid",
        -10.950502845232396
      ],
      [
        "Ġregister",
        -10.950699862126424
      ],
      [
        "Ġskirt",
        -10.950774452755795
      ],
      [
        "Ġthin",
        -10.950868665564041
      ],
      [
        "Ġwoof",
        -10.952174156899954
      ],
      [
        "Ġembarrass",
        -10.9529461918255
      ],
      [
        "Ġclinic",
        -10.953696348403884
      ],
      [
        "Ġrick",
        -10.95405353479693
      ],
      [
        "Ġbelly",
        -10.954370217520662
      ],
      [
        "Ġtalks",
        -10.95600290457029
      ],
      [
        "Ġcollection",
        -10.956202516606218
      ],
      [
        "Ġpervert",
        -10.956249611281258
      ],
      [
        "Ġunemploy",
        -10.957467844042785
      ],
      [
        "Ġopportunity",
        -10.95811901778638
      ],
      [
        "Ġgenius",
        -10.958330990993081
      ],
      [
        "Ġcrisi",
        -10.958517578556627
      ],
      [
        "Ġhippie",
        -10.958893479589221
      ],
      [
        "Ġreplace",
        -10.95909372967781
      ],
      [
        "Ġshelf",
        -10.960321539970124
      ],
      [
        "Ġspice",
        -10.961660511282881
      ],
      [
        "Ġfuckin",
        -10.961853827582226
      ],
      [
        "Ġdicks",
        -10.962714469371214
      ],
      [
        "Ġginger",
        -10.962829374600165
      ],
      [
        "mind",
        -10.963086930237612
      ],
      [
        "Ġireland",
        -10.963213826347328
      ],
      [
        "Ġdownstair",
        -10.963451841820447
      ],
      [
        "Ġrestroom",
        -10.963454847634562
      ],
      [
        "Ġtrul",
        -10.963469527931132
      ],
      [
        "Ġdreams",
        -10.9645473286363
      ],
      [
        "Ġkills",
        -10.964548172889959
      ],
      [
        "Ġfist",
        -10.96571787770418
      ],
      [
        "Ġpurple",
        -10.966448255929992
      ],
      [
        "Ġpoker",
        -10.966467442704825
      ],
      [
        "Ġcurrent",
        -10.96653288768101
      ],
      [
        "Ġsweat",
        -10.966784422751637
      ],
      [
        "Ġpump",
        -10.968194531850415
      ],
      [
        "Ġstable",
        -10.968484479137786
      ],
      [
        "Ġforgive",
        -10.969050987764023
      ],
      [
        "Ġmarch",
        -10.96925822243163
      ],
      [
        "Ġtalked",
        -10.969710189360411
      ],
      [
        "Ġheadline",
        -10.972538797491175
      ],
      [
        "Ġlone",
        -10.972650236990738
      ],
      [
        "Ġcatche",
        -10.972752467061952
      ],
      [
        "Ġbum",
        -10.973303616583207
      ],
      [
        "Ġbug",
        -10.97376320269585
      ],
      [
        "Ġprevent",
        -10.97378553840063
      ],
      [
        "Ġsnack",
        -10.974711042985554
      ],
      [
        "Ġoption",
        -10.974790463189885
      ],
      [
        "Ġroast",
        -10.974837837705282
      ],
      [
        "Ġcolleague",
        -10.976047074799911
      ],
      [
        "Ġhug",
        -10.976209021623145
      ],
      [
        "Ġdesign",
        -10.976460072748893
      ],
      [
        "Ġenemy",
        -10.97719398433479
      ],
      [
        "Ġarnold",
        -10.977871916396468
      ],
      [
        "Ġphrase",
        -10.978119465547746
      ],
      [
        "Ġpatrick",
        -10.97876918729175
      ],
      [
        "Ġgrandson",
        -10.979184761888105
      ],
      [
        "Ġjong",
        -10.979242694305634
      ],
      [
        "Ġcosby",
        -10.979743691239836
      ],
      [
        "Ġfreezer",
        -10.980270399803372
      ],
      [
        "Ġuseless",
        -10.980871436070686
      ],
      [
        "Ġpoke",
        -10.981566370960165
      ],
      [
        "Ġweb",
        -10.981646878437399
      ],
      [
        "Ġmoo",
        -10.981776271619822
      ],
      [
        "Ġdeserve",
        -10.981819868457649
      ],
      [
        "Ġrecognize",
        -10.981884463927813
      ],
      [
        "Ġdata",
        -10.982335481761984
      ],
      [
        "Ġaffair",
        -10.983366494078638
      ],
      [
        "Ġheadache",
        -10.9835176340797
      ],
      [
        "Ġcrust",
        -10.983671757989882
      ],
      [
        "Ġskinny",
        -10.985214485981597
      ],
      [
        "Ġstatue",
        -10.985469426027878
      ],
      [
        "selve",
        -10.985988166906708
      ],
      [
        "Ġhandsome",
        -10.986296046380389
      ],
      [
        "Ġlincoln",
        -10.986511007243823
      ],
      [
        "Ġhorror",
        -10.987977980851914
      ],
      [
        "Ġsolid",
        -10.988174576728102
      ],
      [
        "Ġproduct",
        -10.988704723928821
      ],
      [
        "Ġcoin",
        -10.9889182112553
      ],
      [
        "ver",
        -10.98908236356371
      ],
      [
        "Ġdessert",
        -10.99035784617118
      ],
      [
        "Ġsettle",
        -10.990439139478667
      ],
      [
        "Ġpipe",
        -10.990732027670742
      ],
      [
        "Ġsubmarine",
        -10.990741482709636
      ],
      [
        "Ġnation",
        -10.99105795881528
      ],
      [
        "Ġtoaster",
        -10.991508172669912
      ],
      [
        "Ġspoiler",
        -10.9916333590027
      ],
      [
        "Ġnipple",
        -10.991799395794146
      ],
      [
        "Ġpremature",
        -10.99259221879338
      ],
      [
        "Ġbuffalo",
        -10.992840828995913
      ],
      [
        "Ġpuppy",
        -10.994447004855859
      ],
      [
        "Ġhocke",
        -10.994471354289782
      ],
      [
        "Ġtinder",
        -10.994506642116619
      ],
      [
        "Ġlizard",
        -10.995747588921482
      ],
      [
        "Ġproper",
        -10.996155512650805
      ],
      [
        "Ġamong",
        -10.996353759349091
      ],
      [
        "Ġpops",
        -10.996554745162236
      ],
      [
        "Ġspecific",
        -10.99715432749355
      ],
      [
        "Ġshove",
        -10.9983563138186
      ],
      [
        "Ġkinds",
        -10.998800827126193
      ],
      [
        "Ġvirginit",
        -10.998841195415434
      ],
      [
        "Ġbinary",
        -10.999413303078235
      ],
      [
        "Ġenergy",
        -11.000245822555568
      ],
      [
        "Ġbuilder",
        -11.00026386559173
      ],
      [
        "Ġshore",
        -11.001496494131745
      ],
      [
        "Ġberni",
        -11.001544779073956
      ],
      [
        "Ġaccountant",
        -11.002261075804128
      ],
      [
        "Ġdespi",
        -11.002321103305448
      ],
      [
        "Ġhood",
        -11.002515047631498
      ],
      [
        "Ġshovel",
        -11.002585375632924
      ],
      [
        "Ġclap",
        -11.002734140345076
      ],
      [
        "Ġbrake",
        -11.00373602016085
      ],
      [
        "Ġyoutube",
        -11.00376483599507
      ],
      [
        "presidential",
        -11.003852877004626
      ],
      [
        "Ġelectricit",
        -11.004013708349515
      ],
      [
        "Ġexpected",
        -11.004092462613233
      ],
      [
        "Ġphysic",
        -11.004805355711738
      ],
      [
        "Ġdigg",
        -11.004872567494566
      ],
      [
        "Ġupside",
        -11.005444301142823
      ],
      [
        "Ġinvolve",
        -11.005457330897844
      ],
      [
        "Ġpotential",
        -11.00550882043907
      ],
      [
        "Ġumbrella",
        -11.005651460964248
      ],
      [
        "Ġrhyme",
        -11.006936839677838
      ],
      [
        "Ġbach",
        -11.006937289870887
      ],
      [
        "Ġculture",
        -11.007534323311774
      ],
      [
        "Ġninja",
        -11.007611695919291
      ],
      [
        "Ġsyndrome",
        -11.00774424399097
      ],
      [
        "Ġkev",
        -11.007822332744436
      ],
      [
        "Ġprick",
        -11.008088371885638
      ],
      [
        "Ġgross",
        -11.008337605806101
      ],
      [
        "Ġawake",
        -11.008612221054356
      ],
      [
        "Ġrecommend",
        -11.009394846404337
      ],
      [
        "Ġcontent",
        -11.010108300683871
      ],
      [
        "licking",
        -11.010232749942888
      ],
      [
        "Ġblanket",
        -11.012282562151132
      ],
      [
        "Ġpropose",
        -11.012443973275957
      ],
      [
        "Ġtents",
        -11.012657144565578
      ],
      [
        "Ġtexan",
        -11.012658716027246
      ],
      [
        "Ġattract",
        -11.01274609150449
      ],
      [
        "Ġmaterial",
        -11.013049867598024
      ],
      [
        "Ġfolks",
        -11.013930879197988
      ],
      [
        "Ġpork",
        -11.015852574644661
      ],
      [
        "Ġhippo",
        -11.016021712289467
      ],
      [
        "Ġjane",
        -11.016317514206143
      ],
      [
        "ending",
        -11.017118784059843
      ],
      [
        "Ġtoes",
        -11.017546192121927
      ],
      [
        "Ġpharmacy",
        -11.019103546339316
      ],
      [
        "Ġchill",
        -11.01911123466721
      ],
      [
        "Ġcheek",
        -11.019255845248416
      ],
      [
        "Ġwire",
        -11.01949236480021
      ],
      [
        "Ġtony",
        -11.020648846322512
      ],
      [
        "Ġcrashe",
        -11.020867780943247
      ],
      [
        "Ġcharit",
        -11.020942591453519
      ],
      [
        "Ġspy",
        -11.021240960312598
      ],
      [
        "Ġwalls",
        -11.021370870219316
      ],
      [
        "Ġambulance",
        -11.021454870181977
      ],
      [
        "Ġtrade",
        -11.022519900877503
      ],
      [
        "Ġcoma",
        -11.02299044141876
      ],
      [
        "Ġprotect",
        -11.023190999445983
      ],
      [
        "Ġtowel",
        -11.024155572941108
      ],
      [
        "Ġremote",
        -11.026525083339513
      ],
      [
        "Ġdoorbell",
        -11.026650301501272
      ],
      [
        "Ġjoking",
        -11.026744026461236
      ],
      [
        "Ġbud",
        -11.027838094767901
      ],
      [
        "Ġdairy",
        -11.02787915996572
      ],
      [
        "Ġdenim",
        -11.028408392032777
      ],
      [
        "Ġsock",
        -11.028501601163635
      ],
      [
        "Ġarse",
        -11.029723499865977
      ],
      [
        "Ġstink",
        -11.029999833117309
      ],
      [
        "Ġcelebrat",
        -11.030122563637216
      ],
      [
        "Ġfurniture",
        -11.030142008338363
      ],
      [
        "scary",
        -11.03097418942439
      ],
      [
        "Ġpill",
        -11.031068252107296
      ],
      [
        "but",
        -11.031620330230403
      ],
      [
        "Ġincredible",
        -11.031914236144862
      ],
      [
        "Ġreverse",
        -11.03249909699641
      ],
      [
        "Ġbullshit",
        -11.033785915700413
      ],
      [
        "Ġdirt",
        -11.033942480255394
      ],
      [
        "Ġjamaican",
        -11.0342209267979
      ],
      [
        "Ġmaid",
        -11.034731823134937
      ],
      [
        "Ġsuppose",
        -11.034837545466463
      ],
      [
        "Ġnerd",
        -11.035002847701927
      ],
      [
        "Ġwhip",
        -11.035346143082158
      ],
      [
        "Ġgeneration",
        -11.035444822180757
      ],
      [
        "Ġcolon",
        -11.036572461831938
      ],
      [
        "fully",
        -11.037624845680943
      ],
      [
        "Ġnude",
        -11.038089103886884
      ],
      [
        "Ġdetail",
        -11.040039015079993
      ],
      [
        "Ġstandard",
        -11.040788477307352
      ],
      [
        "Ġgate",
        -11.041198857215546
      ],
      [
        "Ġtips",
        -11.041309491437719
      ],
      [
        "Ġferrari",
        -11.041984296305515
      ],
      [
        "Ġserial",
        -11.042102607618872
      ],
      [
        "Ġmummy",
        -11.042110587222531
      ],
      [
        "Ġsandwiche",
        -11.042139854758993
      ],
      [
        "Ġcucumber",
        -11.043304870935291
      ],
      [
        "Ġyoda",
        -11.043661596036475
      ],
      [
        "Ġdepression",
        -11.044156963239663
      ],
      [
        "Ġdunn",
        -11.044491181673614
      ],
      [
        "Ġacid",
        -11.04466160191728
      ],
      [
        "Ġslipper",
        -11.044844820108155
      ],
      [
        "Ġplenty",
        -11.04571539518168
      ],
      [
        "Ġaddiction",
        -11.046194379384733
      ],
      [
        "Ġlab",
        -11.047497995299327
      ],
      [
        "Ġthermometer",
        -11.047845479241575
      ],
      [
        "Ġarticle",
        -11.047847946711558
      ],
      [
        "Ġstress",
        -11.047978881823546
      ],
      [
        "Ġgraduate",
        -11.048211499350153
      ],
      [
        "Ġliar",
        -11.048319247195812
      ],
      [
        "Ġdoubt",
        -11.04837256784829
      ],
      [
        "Ġeffort",
        -11.049076271955308
      ],
      [
        "Ġ75",
        -11.049852457764095
      ],
      [
        "Ġelect",
        -11.050576901573422
      ],
      [
        "Ġchin",
        -11.050762930520593
      ],
      [
        "Ġtrial",
        -11.05118152539736
      ],
      [
        "Ġexcellen",
        -11.052029550762487
      ],
      [
        "Ġflu",
        -11.052336614334942
      ],
      [
        "Ġiraq",
        -11.05301780749434
      ],
      [
        "Ġdebate",
        -11.053529228225443
      ],
      [
        "Ġboomerang",
        -11.053738713126313
      ],
      [
        "Ġthigh",
        -11.0539507754633
      ],
      [
        "Ġtwelve",
        -11.054749686261605
      ],
      [
        "Ġmurderer",
        -11.054913795114167
      ],
      [
        "Ġtunnel",
        -11.055747357366354
      ],
      [
        "Ġpumpkin",
        -11.055797445513518
      ],
      [
        "Ġridiculous",
        -11.057687460744347
      ],
      [
        "Ġsupporter",
        -11.057909241190295
      ],
      [
        "Ġcanoe",
        -11.058163646123482
      ],
      [
        "Ġquote",
        -11.05873933703467
      ],
      [
        "Ġpath",
        -11.059257037741524
      ],
      [
        "Ġmeow",
        -11.059394342825318
      ],
      [
        "Ġupdate",
        -11.060702795807526
      ],
      [
        "Ġisrael",
        -11.060790133427302
      ],
      [
        "right",
        -11.061023955246153
      ],
      [
        "Ġbills",
        -11.063035066864469
      ],
      [
        "Ġhilarious",
        -11.063868531109813
      ],
      [
        "Ġhelicopter",
        -11.06563071410525
      ],
      [
        "Ġmovement",
        -11.066229816916145
      ],
      [
        "Ġflorida",
        -11.06624590994892
      ],
      [
        "Ġmarathon",
        -11.066267271184621
      ],
      [
        "Ġdrag",
        -11.066432426599423
      ],
      [
        "Ġcuts",
        -11.066879594113203
      ],
      [
        "Ġslide",
        -11.067518430791125
      ],
      [
        "Ġlifetime",
        -11.068654218802367
      ],
      [
        "Ġpond",
        -11.068945446687954
      ],
      [
        "Ġblank",
        -11.069834327847266
      ],
      [
        "Ġprotest",
        -11.070868539087448
      ],
      [
        "Ġburglar",
        -11.072540527561207
      ],
      [
        "Ġdresse",
        -11.072990423137131
      ],
      [
        "Ġgasp",
        -11.073027719612453
      ],
      [
        "granted",
        -11.07345726708463
      ],
      [
        "Ġclothing",
        -11.073474579280774
      ],
      [
        "Ġviolet",
        -11.073638766256623
      ],
      [
        "Ġenjoying",
        -11.073763491478939
      ],
      [
        "Ġstatus",
        -11.073796332101757
      ],
      [
        "Ġplot",
        -11.073847738832725
      ],
      [
        "Ġinsert",
        -11.074569327481878
      ],
      [
        "Ġwalke",
        -11.074603419509575
      ],
      [
        "Ġpancake",
        -11.075475763025757
      ],
      [
        "Ġembarrasse",
        -11.076037709523643
      ],
      [
        "Ġhabit",
        -11.076312476845759
      ],
      [
        "Ġnuclear",
        -11.076693278146418
      ],
      [
        "Ġconstipati",
        -11.077523419537172
      ],
      [
        "Ġforehead",
        -11.077706307589729
      ],
      [
        "Ġdriveway",
        -11.077960027210853
      ],
      [
        "Ġhalfway",
        -11.078042438998843
      ],
      [
        "Ġdamage",
        -11.079584907159713
      ],
      [
        "Ġvader",
        -11.081639107487664
      ],
      [
        "Ġsip",
        -11.081712341643817
      ],
      [
        "Ġepisode",
        -11.08274269051105
      ],
      [
        "Ġresolution",
        -11.083740082954453
      ],
      [
        "Ġcracker",
        -11.083768811961058
      ],
      [
        "Ġsafety",
        -11.083882715374637
      ],
      [
        "Ġmick",
        -11.084196388882289
      ],
      [
        "Ġmusician",
        -11.08515167079063
      ],
      [
        "Ġchain",
        -11.08535483895902
      ],
      [
        "Ġugh",
        -11.08577343199699
      ],
      [
        "Ġcotton",
        -11.085786103116295
      ],
      [
        "Ġpeas",
        -11.086204282711993
      ],
      [
        "Ġrang",
        -11.08653224915707
      ],
      [
        "Ġoverhear",
        -11.08729279410533
      ],
      [
        "Ġwidow",
        -11.08781557900023
      ],
      [
        "Ġcovid",
        -11.088238815359974
      ],
      [
        "Ġfur",
        -11.089259605586557
      ],
      [
        "Ġmobile",
        -11.089400545290975
      ],
      [
        "Ġdeclare",
        -11.090608206515007
      ],
      [
        "Ġchees",
        -11.090623811788113
      ],
      [
        "Ġromantic",
        -11.091364842684976
      ],
      [
        "Ġrepair",
        -11.09146261737519
      ],
      [
        "Ġidentify",
        -11.091930091465876
      ],
      [
        "Ġwheels",
[...]
